<unk>	0
<s>	0
</s>	0
<pad>	0
<0x00>	0
<0x01>	0
<0x02>	0
<0x03>	0
<0x04>	0
<0x05>	0
<0x06>	0
<0x07>	0
<0x08>	0
<0x09>	0
<0x0A>	0
<0x0B>	0
<0x0C>	0
<0x0D>	0
<0x0E>	0
<0x0F>	0
<0x10>	0
<0x11>	0
<0x12>	0
<0x13>	0
<0x14>	0
<0x15>	0
<0x16>	0
<0x17>	0
<0x18>	0
<0x19>	0
<0x1A>	0
<0x1B>	0
<0x1C>	0
<0x1D>	0
<0x1E>	0
<0x1F>	0
<0x20>	0
<0x21>	0
<0x22>	0
<0x23>	0
<0x24>	0
<0x25>	0
<0x26>	0
<0x27>	0
<0x28>	0
<0x29>	0
<0x2A>	0
<0x2B>	0
<0x2C>	0
<0x2D>	0
<0x2E>	0
<0x2F>	0
<0x30>	0
<0x31>	0
<0x32>	0
<0x33>	0
<0x34>	0
<0x35>	0
<0x36>	0
<0x37>	0
<0x38>	0
<0x39>	0
<0x3A>	0
<0x3B>	0
<0x3C>	0
<0x3D>	0
<0x3E>	0
<0x3F>	0
<0x40>	0
<0x41>	0
<0x42>	0
<0x43>	0
<0x44>	0
<0x45>	0
<0x46>	0
<0x47>	0
<0x48>	0
<0x49>	0
<0x4A>	0
<0x4B>	0
<0x4C>	0
<0x4D>	0
<0x4E>	0
<0x4F>	0
<0x50>	0
<0x51>	0
<0x52>	0
<0x53>	0
<0x54>	0
<0x55>	0
<0x56>	0
<0x57>	0
<0x58>	0
<0x59>	0
<0x5A>	0
<0x5B>	0
<0x5C>	0
<0x5D>	0
<0x5E>	0
<0x5F>	0
<0x60>	0
<0x61>	0
<0x62>	0
<0x63>	0
<0x64>	0
<0x65>	0
<0x66>	0
<0x67>	0
<0x68>	0
<0x69>	0
<0x6A>	0
<0x6B>	0
<0x6C>	0
<0x6D>	0
<0x6E>	0
<0x6F>	0
<0x70>	0
<0x71>	0
<0x72>	0
<0x73>	0
<0x74>	0
<0x75>	0
<0x76>	0
<0x77>	0
<0x78>	0
<0x79>	0
<0x7A>	0
<0x7B>	0
<0x7C>	0
<0x7D>	0
<0x7E>	0
<0x7F>	0
<0x80>	0
<0x81>	0
<0x82>	0
<0x83>	0
<0x84>	0
<0x85>	0
<0x86>	0
<0x87>	0
<0x88>	0
<0x89>	0
<0x8A>	0
<0x8B>	0
<0x8C>	0
<0x8D>	0
<0x8E>	0
<0x8F>	0
<0x90>	0
<0x91>	0
<0x92>	0
<0x93>	0
<0x94>	0
<0x95>	0
<0x96>	0
<0x97>	0
<0x98>	0
<0x99>	0
<0x9A>	0
<0x9B>	0
<0x9C>	0
<0x9D>	0
<0x9E>	0
<0x9F>	0
<0xA0>	0
<0xA1>	0
<0xA2>	0
<0xA3>	0
<0xA4>	0
<0xA5>	0
<0xA6>	0
<0xA7>	0
<0xA8>	0
<0xA9>	0
<0xAA>	0
<0xAB>	0
<0xAC>	0
<0xAD>	0
<0xAE>	0
<0xAF>	0
<0xB0>	0
<0xB1>	0
<0xB2>	0
<0xB3>	0
<0xB4>	0
<0xB5>	0
<0xB6>	0
<0xB7>	0
<0xB8>	0
<0xB9>	0
<0xBA>	0
<0xBB>	0
<0xBC>	0
<0xBD>	0
<0xBE>	0
<0xBF>	0
<0xC0>	0
<0xC1>	0
<0xC2>	0
<0xC3>	0
<0xC4>	0
<0xC5>	0
<0xC6>	0
<0xC7>	0
<0xC8>	0
<0xC9>	0
<0xCA>	0
<0xCB>	0
<0xCC>	0
<0xCD>	0
<0xCE>	0
<0xCF>	0
<0xD0>	0
<0xD1>	0
<0xD2>	0
<0xD3>	0
<0xD4>	0
<0xD5>	0
<0xD6>	0
<0xD7>	0
<0xD8>	0
<0xD9>	0
<0xDA>	0
<0xDB>	0
<0xDC>	0
<0xDD>	0
<0xDE>	0
<0xDF>	0
<0xE0>	0
<0xE1>	0
<0xE2>	0
<0xE3>	0
<0xE4>	0
<0xE5>	0
<0xE6>	0
<0xE7>	0
<0xE8>	0
<0xE9>	0
<0xEA>	0
<0xEB>	0
<0xEC>	0
<0xED>	0
<0xEE>	0
<0xEF>	0
<0xF0>	0
<0xF1>	0
<0xF2>	0
<0xF3>	0
<0xF4>	0
<0xF5>	0
<0xF6>	0
<0xF7>	0
<0xF8>	0
<0xF9>	0
<0xFA>	0
<0xFB>	0
<0xFC>	0
<0xFD>	0
<0xFE>	0
<0xFF>	0
--	-0
----	-1
一个	-2
..	-3
公司	-4
中国	-5
--------	-6
可以	-7
没有	-8
自己	-9
我们	-10
),	-11
就是	-12
in	-13
这个	-14
er	-15
什么	-16
工作	-17
问题	-18
时候	-19
因为	-20
an	-21
进行	-22
时间	-23
但是	-24
on	-25
服务	-26
不是	-27
还是	-28
研究	-29
管理	-30
发展	-31
大学	-32
他们	-33
投资	-34
----------------	-35
开始	-36
美国	-37
的人	-38
第一	-39
现在	-40
or	-41
基金	-42
可能	-43
市场	-44
很多	-45
国家	-46
”,	-47
所以	-48
企业	-49
▁我	-50
的一	-51
都是	-52
▁-	-53
的时候	-54
觉得	-55
....	-56
通过	-57
如果	-58
技术	-59
en	-60
已经	-61
ar	-62
系统	-63
比较	-64
以及	-65
经济	-66
部分	-67
知道	-68
了一	-69
喜欢	-70
主要	-71
th	-72
使用	-73
其他	-74
设计	-75
世界	-76
人民	-77
还有	-78
情况	-79
at	-80
感觉	-81
的是	-82
朋友	-83
成为	-84
政府	-85
个人	-86
影响	-87
发现	-88
这样	-89
社会	-90
也是	-91
al	-92
es	-93
分析	-94
需要	-95
产品	-96
不过	-97
信息	-98
北京	-99
方面	-100
生活	-101
包括	-102
作为	-103
▁(	-104
其中	-105
不错	-106
不同	-107
教育	-108
工程	-109
之后	-110
数据	-111
活动	-112
同时	-113
结果	-114
日本	-115
这些	-116
然后	-117
国际	-118
中的	-119
项目	-120
大家	-121
中心	-122
一些	-123
认为	-124
有限	-125
城市	-126
地区	-127
目前	-128
第二	-129
而且	-130
文化	-131
到了	-132
大的	-133
提供	-134
非常	-135
好的	-136
或者	-137
人的	-138
)。	-139
环境	-140
相关	-141
一般	-142
”。	-143
方法	-144
上海	-145
价格	-146
是一	-147
om	-148
基本	-149
ou	-150
st	-151
上的	-152
重要	-153
最后	-154
孩子	-155
一直	-156
le	-157
要求	-158
表示	-159
专业	-160
ic	-161
也不	-162
学校	-163
怎么	-164
自己的	-165
来的	-166
历史	-167
味道	-168
这种	-169
对于	-170
位于	-171
......	-172
银行	-173
it	-174
根据	-175
??	-176
特别	-177
地方	-178
游戏	-179
选择	-180
交易	-181
建设	-182
~~	-183
获得	-184
其实	-185
安全	-186
学生	-187
方式	-188
电影	-189
看到	-190
不能	-191
虽然	-192
所有	-193
我的	-194
一起	-195
由于	-196
关系	-197
香港	-198
那么	-199
▁S	-200
出现	-201
re	-202
发生	-203
人员	-204
当时	-205
有一	-206
有限公司	-207
)、	-208
东西	-209
不会	-210
——	-211
这里	-212
为了	-213
应该	-214
学习	-215
能力	-216
关注	-217
组织	-218
一下	-219
▁在	-220
真的	-221
一样	-222
年的	-223
is	-224
代表	-225
内容	-226
am	-227
▁th	-228
科学	-229
▁C	-230
运动	-231
控制	-232
网络	-233
行业	-234
证券	-235
手机	-236
两个	-237
全国	-238
开发	-239
他的	-240
▁●	-241
电视	-242
ing	-243
平台	-244
存在	-245
台湾	-246
关于	-247
单位	-248
el	-249
金融	-250
后来	-251
之前	-252
机构	-253
基础	-254
过程	-255
结构	-256
计划	-257
各种	-258
人口	-259
ch	-260
只是	-261
直接	-262
报告	-263
万元	-264
起来	-265
实现	-266
希望	-267
委员	-268
la	-269
发布	-270
▁A	-271
政策	-272
政治	-273
因此	-274
%,	-275
美元	-276
集团	-277
生产	-278
产业	-279
标准	-280
有点	-281
以下	-282
合作	-283
支持	-284
进入	-285
不要	-286
业务	-287
里面	-288
处理	-289
第三	-290
这么	-291
一定	-292
这是	-293
建筑	-294
ion	-295
公里	-296
之间	-297
具有	-298
小时	-299
▁M	-300
应用	-301
只有	-302
汽车	-303
学院	-304
▁s	-305
这一	-306
中央	-307
国内	-308
交通	-309
ro	-310
计算	-311
好吃	-312
采用	-313
资产	-314
之一	-315
...	-316
期间	-317
提出	-318
了解	-319
的话	-320
功能	-321
音乐	-322
属于	-323
来说	-324
:“	-325
以上	-326
记者	-327
的大	-328
部门	-329
分别	-330
▁m	-331
参加	-332
甚至	-333
,“	-334
ed	-335
今年	-336
建议	-337
原因	-338
用户	-339
▁t	-340
亿元	-341
出来	-342
比如	-343
ht	-344
科技	-345
面积	-346
价值	-347
毕业	-348
完成	-349
规定	-350
资源	-351
法国	-352
消费	-353
资金	-354
增加	-355
增长	-356
不知道	-357
一次	-358
条件	-359
ol	-360
利用	-361
更多	-362
社区	-363
联网	-364
艺术	-365
行为	-366
目标	-367
()	-368
推荐	-369
如何	-370
品牌	-371
股份	-372
微信	-373
▁P	-374
模式	-375
继续	-376
电话	-377
et	-378
的小	-379
as	-380
完全	-381
il	-382
▁T	-383
提高	-384
显示	-385
系列	-386
负责	-387
的一个	-388
作品	-389
会议	-390
ac	-391
决定	-392
超过	-393
以后	-394
作用	-395
▁w	-396
成功	-397
今天	-398
建立	-399
媒体	-400
id	-401
英国	-402
行政	-403
能够	-404
形成	-405
▁f	-406
▁the	-407
那个	-408
传统	-409
旅游	-410
of	-411
销售	-412
医院	-413
▁c	-414
中华	-415
and	-416
新闻	-417
正式	-418
一点	-419
老师	-420
创新	-421
有关	-422
主义	-423
水平	-424
保护	-425
▁“	-426
导致	-427
有人	-428
参与	-429
成立	-430
质量	-431
空间	-432
最高	-433
实际	-434
比赛	-435
▁b	-436
除了	-437
互联网	-438
左右	-439
并且	-440
任何	-441
个月	-442
的事	-443
收入	-444
》,	-445
▁B	-446
回答	-447
▁d	-448
改革	-449
你的	-450
综合	-451
全球	-452
调查	-453
解决	-454
有的	-455
附近	-456
平方	-457
家庭	-458
电子	-459
自然	-460
▁p	-461
达到	-462
▁一	-463
车站	-464
有效	-465
发行	-466
接受	-467
无法	-468
有些	-469
联合	-470
材料	-471
产生	-472
领导	-473
▁I	-474
健康	-475
介绍	-476
经营	-477
得到	-478
每天	-479
分钟	-480
ad	-481
变化	-482
最终	-483
体育	-484
一步	-485
是在	-486
方向	-487
家的	-488
新的	-489
也有	-490
明显	-491
委员会	-492
网站	-493
上市	-494
来自	-495
事件	-496
几个	-497
》、	-498
性的	-499
不到	-500
理论	-501
时代	-502
普通	-503
领域	-504
ent	-505
独立	-506
故事	-507
是否	-508
重点	-509
这样的	-510
制度	-511
范围	-512
风险	-513
知识	-514
以前	-515
担任	-516
操作	-517
一种	-518
必须	-519
年度	-520
表现	-521
造成	-522
另外	-523
效果	-524
是一个	-525
未来	-526
▁L	-527
准备	-528
最大	-529
铁路	-530
▁工	-531
世纪	-532
com	-533
经常	-534
ow	-535
区域	-536
最近	-537
具体	-538
许多	-539
简单	-540
位置	-541
法律	-542
ot	-543
需求	-544
当地	-545
很好	-546
自动	-547
持续	-548
董事	-549
模型	-550
制作	-551
出了	-552
容易	-553
你们	-554
实施	-555
▁of	-556
父母	-557
当然	-558
▁D	-559
平均	-560
ig	-561
us	-562
加入	-563
的问题	-564
商业	-565
拥有	-566
方案	-567
不少	-568
时期	-569
经过	-570
同学	-571
提升	-572
不断	-573
下的	-574
第一次	-575
都有	-576
节目	-577
客户	-578
现代	-579
▁R	-580
考虑	-581
为什么	-582
责任	-583
▁G	-584
工业	-585
▁a	-586
规模	-587
首先	-588
过去	-589
只能	-590
调整	-591
年代	-592
结合	-593
随着	-594
不好	-595
称为	-596
智能	-597
稳定	-598
于是	-599
受到	-600
都会	-601
那些	-602
股票	-603
视频	-604
了一个	-605
严重	-606
经验	-607
▁这	-608
人民币	-609
面的	-610
精神	-611
▁工学	-612
规划	-613
》、《	-614
里的	-615
注意	-616
实验	-617
im	-618
tp	-619
免费	-620
▁h	-621
oo	-622
成员	-623
现场	-624
生物	-625
机会	-626
自由	-627
基于	-628
治疗	-629
动力	-630
出的	-631
设备	-632
共和	-633
都不	-634
▁本	-635
报道	-636
un	-637
多的	-638
一年	-639
”、	-640
(),	-641
执行	-642
职业	-643
申请	-644
按照	-645
股东	-646
市镇	-647
▁H	-648
资料	-649
表明	-650
iv	-651
语言	-652
创业	-653
德国	-654
联系	-655
针对	-656
以来	-657
移动	-658
http	-659
进一步	-660
可是	-661
速度	-662
软件	-663
考试	-664
阶段	-665
成本	-666
进行了	-667
数量	-668
确定	-669
▁大	-670
广州	-671
后的	-672
罗斯	-673
别人	-674
下来	-675
帮助	-676
深圳	-677
消息	-678
让我	-679
▁不	-680
并不	-681
举行	-682
然而	-683
共同	-684
说明	-685
宣布	-686
经历	-687
特色	-688
全部	-689
民族	-690
):	-691
韩国	-692
评价	-693
的情况	-694
反应	-695
体系	-696
为主	-697
状态	-698
制造	-699
晚上	-700
%。	-701
的影响	-702
▁F	-703
主任	-704
整个	-705
就会	-706
地产	-707
运行	-708
体验	-709
形式	-710
购买	-711
成绩	-712
等等	-713
开放	-714
不得	-715
正在	-716
开展	-717
取得	-718
◆◆	-719
哈哈	-720
努力	-721
适合	-722
压力	-723
微博	-724
程度	-725
那种	-726
医学	-727
几乎	-728
分布	-729
资本	-730
公布	-731
来看	-732
结束	-733
告诉	-734
公开	-735
收益	-736
▁in	-737
每次	-738
用于	-739
去了	-740
会计	-741
共和国	-742
意见	-743
利润	-744
利亚	-745
ur	-746
公共	-747
▁但是	-748
广告	-749
全面	-750
心理	-751
运营	-752
不仅	-753
组成	-754
食品	-755
大会	-756
的地方	-757
欧洲	-758
因素	-759
也很	-760
指数	-761
的女	-762
改变	-763
保持	-764
ap	-765
酒店	-766
正常	-767
保险	-768
理解	-769
的高	-770
足球	-771
关键	-772
只要	-773
orm	-774
文章	-775
》(	-776
相对	-777
比例	-778
专家	-779
类的	-780
竞争	-781
我就	-782
服务员	-783
我国	-784
▁W	-785
下午	-786
越来	-787
ec	-788
支付	-789
▁《	-790
战略	-791
ay	-792
出版	-793
如下	-794
大量	-795
多数	-796
居民	-797
我是	-798
越来越	-799
书记	-800
he	-801
广东	-802
目的	-803
生态	-804
评论	-805
好像	-806
特征	-807
曾经	-808
▁有	-809
身份	-810
公园	-811
整体	-812
核心	-813
op	-814
题主	-815
问答	-816
相当	-817
农业	-818
首次	-819
意义	-820
航空	-821
组合	-822
”、“	-823
交流	-824
不多	-825
真正	-826
来了	-827
统计	-828
经理	-829
官方	-830
战争	-831
妈妈	-832
行动	-833
办公	-834
身体	-835
▁E	-836
os	-837
名为	-838
吃的	-839
三个	-840
确实	-841
人物	-842
性能	-843
程序	-844
优势	-845
英语	-846
类似	-847
办法	-848
更加	-849
子的	-850
南京	-851
去年	-852
的新	-853
尤其	-854
过程中	-855
重大	-856
积极	-857
冠军	-858
连续	-859
协会	-860
及其	-861
儿童	-862
指导	-863
宣传	-864
ir	-865
em	-866
用的	-867
▁,	-868
才能	-869
医疗	-870
俄罗斯	-871
二十	-872
减少	-873
内的	-874
以为	-875
者的	-876
坚持	-877
突然	-878
长期	-879
▁中国	-880
优惠	-881
问答社区	-882
高速	-883
▁and	-884
风格	-885
。”	-886
大部分	-887
类型	-888
意思	-889
再次	-890
▁N	-891
人士	-892
印度	-893
多少	-894
网上	-895
实在	-896
这家	-897
快速	-898
例如	-899
近日	-900
ut	-901
分享	-902
▁据	-903
保障	-904
符合	-905
▁n	-906
指标	-907
我觉得	-908
卫生	-909
认识	-910
财务	-911
▁中	-912
推进	-913
机场	-914
年轻	-915
先生	-916
ag	-917
(,	-918
化学	-919
合同	-920
另一	-921
公告	-922
▁从	-923
给我	-924
团队	-925
她的	-926
加上	-927
▁to	-928
东北	-929
动物	-930
证明	-931
人们	-932
名的	-933
重新	-934
培训	-935
答案	-936
来源	-937
车辆	-938
肯定	-939
照片	-940
更新	-941
任务	-942
态度	-943
最佳	-944
成了	-945
教授	-946
细胞	-947
费用	-948
主席	-949
高中	-950
背景	-951
公路	-952
加强	-953
法院	-954
女性	-955
距离	-956
下降	-957
保证	-958
老板	-959
父亲	-960
而是	-961
一个人	-962
名字	-963
出生	-964
根本	-965
满足	-966
不可	-967
发动	-968
他们的	-969
想到	-970
ation	-971
参考	-972
三年	-973
小学	-974
机制	-975
浙江	-976
”(	-977
医生	-978
;(	-979
设施	-980
趋势	-981
思想	-982
也会	-983
▁如果	-984
事业	-985
降低	-986
做的	-987
说的	-988
找到	-989
让人	-990
道路	-991
大陆	-992
点了	-993
测试	-994
男子	-995
山东	-996
化的	-997
网友	-998
文学	-999
不同的	-1000
今日	-1001
▁l	-1002
唯一	-1003
定的	-1004
联盟	-1005
通知	-1006
简称	-1007
看了	-1008
通常	-1009
识别	-1010
他在	-1011
样的	-1012
超级	-1013
配置	-1014
大概	-1015
one	-1016
真是	-1017
咨询	-1018
第四	-1019
av	-1020
家里	-1021
讨论	-1022
机关	-1023
试验	-1024
主题	-1025
看看	-1026
ula	-1027
至少	-1028
地址	-1029
od	-1030
协议	-1031
内部	-1032
结婚	-1033
um	-1034
▁小	-1035
不了	-1036
课程	-1037
想要	-1038
点的	-1039
列车	-1040
如此	-1041
每个	-1042
很大	-1043
土地	-1044
概念	-1045
高的	-1046
检查	-1047
ter	-1048
份额	-1049
电脑	-1050
中学	-1051
排名	-1052
商品	-1053
估计	-1054
股份有限公司	-1055
ia	-1056
推出	-1057
▁你	-1058
角色	-1059
记录	-1060
四川	-1061
地理	-1062
事情	-1063
苹果	-1064
方便	-1065
植物	-1066
补充	-1067
还可以	-1068
zh	-1069
ormula	-1070
球队	-1071
相信	-1072
ul	-1073
吃饭	-1074
是因为	-1075
此外	-1076
促进	-1077
分为	-1078
ce	-1079
它们	-1080
是不是	-1081
意识	-1082
车型	-1083
报名	-1084
投资基金	-1085
多了	-1086
农村	-1087
明确	-1088
地铁	-1089
也没	-1090
举办	-1091
广场	-1092
一家	-1093
总统	-1094
驾驶	-1095
十二	-1096
便宜	-1097
员工	-1098
利益	-1099
教师	-1100
是我	-1101
措施	-1102
的不	-1103
名称	-1104
预计	-1105
▁但	-1106
无论	-1107
最大的	-1108
这个问题	-1109
丰富	-1110
amp	-1111
去的	-1112
能源	-1113
都在	-1114
sp	-1115
资格	-1116
会有	-1117
就不	-1118
公安	-1119
集中	-1120
昨日	-1121
工具	-1122
兴趣	-1123
是个	-1124
表达	-1125
人民共和国	-1126
本身	-1127
数学	-1128
死亡	-1129
描述	-1130
河南	-1131
不错的	-1132
尼亚	-1133
公众	-1134
........	-1135
文件	-1136
民国	-1137
▁g	-1138
在一起	-1139
版本	-1140
解释	-1141
十分	-1142
发表	-1143
年前	-1144
MA	-1145
引起	-1146
推动	-1147
训练	-1148
统一	-1149
财政	-1150
二维	-1151
规范	-1152
安排	-1153
年来	-1154
也可以	-1155
过的	-1156
我们的	-1157
算法	-1158
设置	-1159
重庆	-1160
之间的	-1161
女生	-1162
金额	-1163
投资者	-1164
▁y	-1165
牛肉	-1166
数字	-1167
好了	-1168
所谓	-1169
现象	-1170
一名	-1171
的时间	-1172
成都	-1173
对方	-1174
ip	-1175
相比	-1176
ers	-1177
▁因为	-1178
的东西	-1179
前往	-1180
贷款	-1181
);	-1182
ww	-1183
▁”	-1184
监管	-1185
检测	-1186
革命	-1187
患者	-1188
绝对	-1189
面对	-1190
上了	-1191
行情	-1192
▁就	-1193
口味	-1194
昨天	-1195
if	-1196
并没有	-1197
这次	-1198
融资	-1199
什么的	-1200
天津	-1201
是一种	-1202
公司的	-1203
真实	-1204
儿子	-1205
注册	-1206
图片	-1207
????	-1208
分配	-1209
%;	-1210
合理	-1211
娱乐	-1212
教学	-1213
指出	-1214
▁他	-1215
▁新	-1216
优秀	-1217
证券投资基金	-1218
中华人民共和国	-1219
联赛	-1220
债券	-1221
本人	-1222
值得	-1223
股权	-1224
国民	-1225
吸引	-1226
同比	-1227
好多	-1228
半年	-1229
▁现	-1230
高度	-1231
飞机	-1232
特点	-1233
力的	-1234
遇到	-1235
打造	-1236
群众	-1237
还要	-1238
总是	-1239
黄金	-1240
生命	-1241
很有	-1242
nd	-1243
房地产	-1244
的感觉	-1245
生平	-1246
纪念	-1247
区的	-1248
人类	-1249
电动	-1250
ab	-1251
---	-1252
不太	-1253
物理	-1254
拍摄	-1255
离开	-1256
并在	-1257
演员	-1258
主动	-1259
消费者	-1260
南部	-1261
江苏	-1262
逐渐	-1263
长的	-1264
也没有	-1265
召开	-1266
工资	-1267
市民	-1268
青年	-1269
营业	-1270
升级	-1271
湖南	-1272
对象	-1273
▁O	-1274
记得	-1275
一天	-1276
下面	-1277
习惯	-1278
▁所以	-1279
www	-1280
~~~	-1281
上涨	-1282
创作	-1283
回家	-1284
ov	-1285
营销	-1286
策略	-1287
毕竟	-1288
机器	-1289
共有	-1290
重要的	-1291
接触	-1292
日起	-1293
二维码	-1294
oc	-1295
就可以	-1296
ex	-1297
原油	-1298
的发展	-1299
吃了	-1300
设立	-1301
民主	-1302
直到	-1303
干部	-1304
武汉	-1305
登记	-1306
母亲	-1307
说是	-1308
每年	-1309
专辑	-1310
也就是	-1311
▁年	-1312
阅读	-1313
》。	-1314
监督	-1315
的事情	-1316
亚洲	-1317
有个	-1318
温度	-1319
一位	-1320
同年	-1321
衣服	-1322
同样	-1323
月份	-1324
优化	-1325
投入	-1326
斯特	-1327
歌曲	-1328
清楚	-1329
很多人	-1330
量的	-1331
我想	-1332
多个	-1333
机械	-1334
运输	-1335
军事	-1336
观察	-1337
处于	-1338
季度	-1339
污染	-1340
空气	-1341
它的	-1342
原则	-1343
路线	-1344
州市	-1345
涉及	-1346
终于	-1347
状况	-1348
本来	-1349
▁然后	-1350
包含	-1351
从而	-1352
支撑	-1353
现实	-1354
培养	-1355
图书	-1356
商务	-1357
发动机	-1358
ang	-1359
PP	-1360
大利	-1361
//	-1362
传播	-1363
金属	-1364
经典	-1365
特殊	-1366
时的	-1367
差异	-1368
依然	-1369
反对	-1370
女子	-1371
启动	-1372
云南	-1373
改善	-1374
选举	-1375
ind	-1376
有一个	-1377
公交	-1378
粉丝	-1379
不足	-1380
限制	-1381
太阳	-1382
愿意	-1383
天然	-1384
颜色	-1385
角度	-1386
各位	-1387
▁V	-1388
我不	-1389
我也	-1390
突破	-1391
在中国	-1392
仍然	-1393
犯罪	-1394
信号	-1395
小的	-1396
”“	-1397
大型	-1398
复杂	-1399
欢迎	-1400
上面	-1401
完善	-1402
都很	-1403
贸易	-1404
北部	-1405
到的	-1406
意大利	-1407
作者	-1408
▁的	-1409
恢复	-1410
地的	-1411
设有	-1412
摄影	-1413
年龄	-1414
期的	-1415
两年	-1416
时尚	-1417
▁我们	-1418
人才	-1419
上午	-1420
的前	-1421
截至	-1422
ub	-1423
中共	-1424
混合	-1425
的工作	-1426
力量	-1427
看着	-1428
心的	-1429
动画	-1430
带来	-1431
编码	-1432
ev	-1433
在此	-1434
城区	-1435
蛋白	-1436
使得	-1437
随后	-1438
亿美元	-1439
原来	-1440
男人	-1441
自治	-1442
自身	-1443
小说	-1444
咖啡	-1445
结果表明	-1446
双方	-1447
体的	-1448
算是	-1449
高级	-1450
不够	-1451
主持	-1452
感谢	-1453
享受	-1454
本次	-1455
最好	-1456
赛事	-1457
大多数	-1458
地点	-1459
日在	-1460
研发	-1461
ak	-1462
▁和	-1463
出去	-1464
博士	-1465
段时间	-1466
即使	-1467
创造	-1468
成长	-1469
供应	-1470
餐厅	-1471
的重要	-1472
效率	-1473
est	-1474
mm	-1475
formula	-1476
不用	-1477
基金管理	-1478
可能是	-1479
一定要	-1480
收购	-1481
尽管	-1482
推广	-1483
回复	-1484
深入	-1485
国务	-1486
少年	-1487
相同	-1488
ess	-1489
日前	-1490
身边	-1491
就在	-1492
之外	-1493
all	-1494
从事	-1495
▁三	-1496
人在	-1497
色的	-1498
,《	-1499
都没有	-1500
出口	-1501
尤其是	-1502
充分	-1503
出来的	-1504
避免	-1505
变成	-1506
地位	-1507
平时	-1508
的研究	-1509
办理	-1510
最低	-1511
总体	-1512
IN	-1513
规则	-1514
的好	-1515
不再	-1516
地下	-1517
部长	-1518
部队	-1519
参数	-1520
ew	-1521
▁▁	-1522
采取	-1523
连接	-1524
装修	-1525
事务	-1526
氧化	-1527
行的	-1528
工艺	-1529
幸福	-1530
实践	-1531
主教	-1532
最新	-1533
生的	-1534
就能	-1535
至于	-1536
还在	-1537
导演	-1538
计算机	-1539
科学与	-1540
完整	-1541
基地	-1542
的主要	-1543
搭配	-1544
两种	-1545
到底	-1546
__	-1547
一份	-1548
家族	-1549
第一个	-1550
▁you	-1551
CD	-1552
PS	-1553
预测	-1554
感受	-1555
号线	-1556
发挥	-1557
感情	-1558
我说	-1559
▁U	-1560
的方式	-1561
简介	-1562
基础上	-1563
▁K	-1564
定义	-1565
事故	-1566
人数	-1567
还不错	-1568
货币	-1569
博物	-1570
严格	-1571
▁对	-1572
此次	-1573
物质	-1574
一条	-1575
文明	-1576
玩家	-1577
朝鲜	-1578
所在	-1579
海军	-1580
▁J	-1581
观众	-1582
电商	-1583
ist	-1584
▁上	-1585
招聘	-1586
监会	-1587
没什么	-1588
模拟	-1589
平方公里	-1590
女人	-1591
及时	-1592
那里	-1593
我在	-1594
搜索	-1595
杭州	-1596
过来	-1597
似乎	-1598
省份	-1599
而言	-1600
观点	-1601
决赛	-1602
印象	-1603
合并	-1604
别的	-1605
英文	-1606
差不多	-1607
og	-1608
art	-1609
也就	-1610
大众	-1611
很难	-1612
纪录	-1613
西亚	-1614
发展的	-1615
中文	-1616
事实	-1617
有了	-1618
评估	-1619
多次	-1620
攻击	-1621
负责人	-1622
并不是	-1623
岁的	-1624
线路	-1625
▁/	-1626
放在	-1627
度的	-1628
第十	-1629
买了	-1630
显著	-1631
信用	-1632
战斗	-1633
------------	-1634
pp	-1635
特别是	-1636
▁【	-1637
环保	-1638
分子	-1639
都要	-1640
确认	-1641
蒙古	-1642
中间	-1643
是由	-1644
两人	-1645
想法	-1646
必要	-1647
BA	-1648
警方	-1649
同事	-1650
▁其实	-1651
人家	-1652
放弃	-1653
分类	-1654
也许	-1655
公务	-1656
拒绝	-1657
至今	-1658
gt	-1659
施工	-1660
qu	-1661
会在	-1662
动作	-1663
高考	-1664
阿尔	-1665
是不	-1666
编辑	-1667
提前	-1668
西部	-1669
太多	-1670
国务院	-1671
尝试	-1672
案件	-1673
长按	-1674
展示	-1675
明星	-1676
她们	-1677
OS	-1678
认真	-1679
即可	-1680
本科	-1681
总结	-1682
星期	-1683
邀请	-1684
家长	-1685
东方	-1686
现金	-1687
表演	-1688
ct	-1689
配合	-1690
▁不过	-1691
共产	-1692
业绩	-1693
声音	-1694
披露	-1695
增强	-1696
▁而	-1697
心里	-1698
神经	-1699
学家	-1700
过了	-1701
就业	-1702
爱的	-1703
几天	-1704
新鲜	-1705
基因	-1706
品种	-1707
上市公司	-1708
指挥	-1709
食物	-1710
广泛	-1711
的味道	-1712
房子	-1713
有所	-1714
打开	-1715
专门	-1716
正确	-1717
▁现在	-1718
斯坦	-1719
主要是	-1720
准确	-1721
成交	-1722
lt	-1723
接近	-1724
论坛	-1725
男生	-1726
福建	-1727
当年	-1728
充足	-1729
挑战	-1730
回来	-1731
形象	-1732
下去	-1733
停车	-1734
ine	-1735
上升	-1736
◆◆◆◆	-1737
线的	-1738
警察	-1739
葡萄	-1740
不想	-1741
定位	-1742
帝国	-1743
引发	-1744
元素	-1745
违法	-1746
适应	-1747
爱情	-1748
阿里	-1749
的主	-1750
代码	-1751
日至	-1752
住房	-1753
基本上	-1754
ate	-1755
做好	-1756
万人	-1757
先后	-1758
西安	-1759
天气	-1760
老公	-1761
预期	-1762
委会	-1763
▁"	-1764
博物馆	-1765
回到	-1766
IP	-1767
赛季	-1768
知名	-1769
样子	-1770
疾病	-1771
纽约	-1772
变得	-1773
ra	-1774
不如	-1775
地震	-1776
东南	-1777
eb	-1778
运用	-1779
让你	-1780
居然	-1781
西班	-1782
广播	-1783
西班牙	-1784
街道	-1785
绿色	-1786
第五	-1787
同意	-1788
对比	-1789
平方米	-1790
十年	-1791
日常	-1792
女儿	-1793
慢慢	-1794
的朋友	-1795
球员	-1796
谢谢	-1797
当中	-1798
临床	-1799
皮肤	-1800
自行	-1801
座椅	-1802
方面的	-1803
旅行	-1804
台北	-1805
调节	-1806
ill	-1807
表面	-1808
百度	-1809
损失	-1810
进去	-1811
不起	-1812
密度	-1813
喜欢的	-1814
宝宝	-1815
地球	-1816
将在	-1817
伙伴	-1818
低于	-1819
困难	-1820
飞行	-1821
依据	-1822
轨道	-1823
▁st	-1824
加拿	-1825
杂志	-1826
做了	-1827
办公室	-1828
爸爸	-1829
高校	-1830
的情况下	-1831
学会	-1832
}-	-1833
系统的	-1834
河北	-1835
··	-1836
官员	-1837
人生	-1838
呵呵	-1839
一切	-1840
解放	-1841
演出	-1842
▁这个	-1843
落实	-1844
ob	-1845
近期	-1846
安装	-1847
普遍	-1848
维持	-1849
理念	-1850
ity	-1851
学术	-1852
强调	-1853
更是	-1854
几年	-1855
▁很	-1856
国外	-1857
应该是	-1858
的原因	-1859
▁|	-1860
在线	-1861
都能	-1862
自我	-1863
改为	-1864
名单	-1865
豆腐	-1866
当前	-1867
周边	-1868
青岛	-1869
**	-1870
▁是	-1871
详细	-1872
图书馆	-1873
改造	-1874
海外	-1875
年至	-1876
家人	-1877
都没	-1878
四个	-1879
电池	-1880
开心	-1881
说了	-1882
有着	-1883
往往	-1884
制定	-1885
女孩	-1886
覆盖	-1887
不管	-1888
给予	-1889
面临	-1890
▁还有	-1891
俱乐	-1892
担心	-1893
点击	-1894
本基金	-1895
展开	-1896
玻璃	-1897
罗马	-1898
-{	-1899
""	-1900
▁↓	-1901
之类的	-1902
渠道	-1903
著名	-1904
性和	-1905
中国的	-1906
生意	-1907
如今	-1908
不是很	-1909
兄弟	-1910
俱乐部	-1911
添加	-1912
西南	-1913
ant	-1914
劳动	-1915
五年	-1916
iP	-1917
区为	-1918
迅速	-1919
周围	-1920
持有	-1921
反正	-1922
周期	-1923
是什么	-1924
品质	-1925
问题的	-1926
nb	-1927
理由	-1928
沟通	-1929
转型	-1930
学位	-1931
石油	-1932
给你	-1933
直播	-1934
歌手	-1935
岗位	-1936
西北	-1937
有很多	-1938
▁首先	-1939
取消	-1940
外国	-1941
安徽	-1942
收费	-1943
ive	-1944
思考	-1945
太平	-1946
在这	-1947
???	-1948
函数	-1949
大幅	-1950
情绪	-1951
很少	-1952
SE	-1953
旁边	-1954
流动	-1955
布局	-1956
ik	-1957
▁http	-1958
就像	-1959
会员	-1960
农民	-1961
失败	-1962
北京市	-1963
带着	-1964
美的	-1965
居住	-1966
干净	-1967
sh	-1968
反映	-1969
现在的	-1970
装备	-1971
▁前	-1972
文字	-1973
门口	-1974
英雄	-1975
://	-1976
能量	-1977
刚刚	-1978
手段	-1979
奥运	-1980
托管	-1981
军队	-1982
手术	-1983
相应	-1984
句话	-1985
分别为	-1986
明白	-1987
山西	-1988
加拿大	-1989
四年	-1990
满意	-1991
美食	-1992
男性	-1993
永远	-1994
▁is	-1995
探讨	-1996
苏联	-1997
成熟	-1998
▁St	-1999
东部	-2000
微信号	-2001
不上	-2002
技能	-2003
常见	-2004
确保	-2005
扩大	-2006
错误	-2007
面包	-2008
理财	-2009
也在	-2010
修改	-2011
▁说	-2012
购物	-2013
基金份额	-2014
分割	-2015
难以	-2016
蛋糕	-2017
海洋	-2018
就要	-2019
多年	-2020
允许	-2021
法规	-2022
或是	-2023
生涯	-2024
属的	-2025
人大	-2026
还没	-2027
电视剧	-2028
含量	-2029
ard	-2030
ep	-2031
判断	-2032
则是	-2033
健身	-2034
哲学	-2035
江西	-2036
聊天	-2037
大道	-2038
▁手	-2039
境内	-2040
维护	-2041
▁re	-2042
ell	-2043
游客	-2044
董事会	-2045
一致	-2046
为人	-2047
第二次	-2048
格兰	-2049
止损	-2050
舒服	-2051
▁v	-2052
千米	-2053
利率	-2054
某些	-2055
一线	-2056
通信	-2057
在于	-2058
上下	-2059
▁现车	-2060
所有的	-2061
多种	-2062
▁那	-2063
的说	-2064
城镇	-2065
最初	-2066
追求	-2067
日报	-2068
强烈	-2069
看见	-2070
固定	-2071
电视台	-2072
呈现	-2073
演唱	-2074
承认	-2075
都可以	-2076
不久	-2077
行星	-2078
学者	-2079
老人	-2080
一张	-2081
美术	-2082
漫画	-2083
各类	-2084
营养	-2085
将其	-2086
司机	-2087
外交	-2088
证监会	-2089
中小	-2090
特性	-2091
原本	-2092
事项	-2093
性格	-2094
成果	-2095
累计	-2096
路上	-2097
翻译	-2098
).	-2099
律师	-2100
层次	-2101
公务员	-2102
爆发	-2103
进口	-2104
小组	-2105
投票	-2106
感到	-2107
线上	-2108
随便	-2109
ud	-2110
ri	-2111
具备	-2112
加快	-2113
承担	-2114
可能会	-2115
动态	-2116
垃圾	-2117
:(	-2118
在这里	-2119
贡献	-2120
湖北	-2121
ID	-2122
提醒	-2123
流程	-2124
hone	-2125
临时	-2126
的方法	-2127
陕西	-2128
形态	-2129
了我	-2130
将军	-2131
关联	-2132
各地	-2133
大学生	-2134
红色	-2135
各个	-2136
▁为	-2137
理想	-2138
CE	-2139
融合	-2140
好好	-2141
元的	-2142
批准	-2143
编码为	-2144
里面的	-2145
大约	-2146
即将	-2147
实力	-2148
生长	-2149
对外	-2150
cn	-2151
职位	-2152
宗教	-2153
年底	-2154
日的	-2155
St	-2156
流行	-2157
一体	-2158
竟然	-2159
上来	-2160
说话	-2161
公平	-2162
董事长	-2163
看来	-2164
的一种	-2165
平衡	-2166
are	-2167
细节	-2168
回应	-2169
上述	-2170
最好的	-2171
和我	-2172
说我	-2173
经济学	-2174
资讯	-2175
型的	-2176
司法	-2177
有没有	-2178
ly	-2179
会上	-2180
IS	-2181
掌握	-2182
东京	-2183
妻子	-2184
本文	-2185
ans	-2186
养老	-2187
结论	-2188
nbsp	-2189
三十	-2190
成的	-2191
上去	-2192
思维	-2193
新疆	-2194
更好	-2195
硕士	-2196
省级	-2197
剧情	-2198
还能	-2199
记忆	-2200
来到	-2201
如果你	-2202
中午	-2203
还会	-2204
主角	-2205
▁)	-2206
控股	-2207
估值	-2208
加工	-2209
其它	-2210
共产党	-2211
获取	-2212
去世	-2213
不知	-2214
很快	-2215
眼睛	-2216
实际上	-2217
森林	-2218
性质	-2219
幼儿	-2220
代理	-2221
ort	-2222
AR	-2223
长沙	-2224
下跌	-2225
查看	-2226
的时	-2227
口感	-2228
有什么	-2229
移民	-2230
的一些	-2231
西方	-2232
our	-2233
。“	-2234
▁美国	-2235
有时	-2236
年间	-2237
转移	-2238
工作的	-2239
不住	-2240
权利	-2241
流量	-2242
工作人员	-2243
本书	-2244
效应	-2245
破坏	-2246
哪里	-2247
▁高	-2248
当天	-2249
美丽	-2250
AT	-2251
净值	-2252
意味	-2253
但在	-2254
克斯	-2255
做法	-2256
身上	-2257
互动	-2258
ith	-2259
透露	-2260
做到	-2261
通道	-2262
▁r	-2263
逻辑	-2264
不大	-2265
▁for	-2266
小米	-2267
大小	-2268
漂亮	-2269
从来	-2270
打算	-2271
伦敦	-2272
最早	-2273
将会	-2274
▁李	-2275
选手	-2276
团体	-2277
一路	-2278
相互	-2279
运作	-2280
热情	-2281
用来	-2282
众多	-2283
缺乏	-2284
记载	-2285
自主	-2286
频道	-2287
治理	-2288
运动员	-2289
深度	-2290
循环	-2291
水果	-2292
两次	-2293
了个	-2294
采访	-2295
真的是	-2296
周末	-2297
联邦	-2298
中华民国	-2299
意外	-2300
ook	-2301
更多的	-2302
令人	-2303
最多	-2304
接壤	-2305
议案	-2306
饮料	-2307
阿拉	-2308
考生	-2309
收到	-2310
加坡	-2311
道德	-2312
才是	-2313
se	-2314
早期	-2315
探索	-2316
QQ	-2317
海拔	-2318
电力	-2319
景区	-2320
下载	-2321
人工	-2322
市场的	-2323
整合	-2324
越南	-2325
无线	-2326
下了	-2327
影片	-2328
哪些	-2329
病毒	-2330
药物	-2331
他说	-2332
感染	-2333
了一下	-2334
发射	-2335
早上	-2336
依法	-2337
▁北京	-2338
十一	-2339
NA	-2340
合适	-2341
后面	-2342
武器	-2343
监测	-2344
在我	-2345
下方	-2346
整理	-2347
播出	-2348
淘宝	-2349
工商	-2350
看起来	-2351
了很多	-2352
而不是	-2353
的心	-2354
会的	-2355
是中国	-2356
就有	-2357
一个月	-2358
火锅	-2359
上班	-2360
文物	-2361
的设计	-2362
舒适	-2363
腾讯	-2364
打击	-2365
出席	-2366
权益	-2367
这里的	-2368
区别	-2369
反弹	-2370
男朋友	-2371
有时候	-2372
智慧	-2373
房价	-2374
ect	-2375
期内	-2376
IT	-2377
重视	-2378
危险	-2379
化妆	-2380
br	-2381
批评	-2382
姑娘	-2383
千万	-2384
足够	-2385
研究生	-2386
提出了	-2387
比亚	-2388
募集	-2389
实行	-2390
局长	-2391
国的	-2392
审议	-2393
协调	-2394
主体	-2395
物流	-2396
ong	-2397
期待	-2398
ie	-2399
式的	-2400
▁要	-2401
住宅	-2402
财产	-2403
入口	-2404
面试	-2405
没想到	-2406
读书	-2407
地区的	-2408
危机	-2409
财富	-2410
而在	-2411
出发	-2412
头发	-2413
那样	-2414
无人	-2415
对手	-2416
并于	-2417
up	-2418
专项	-2419
少数	-2420
社交	-2421
准则	-2422
被称为	-2423
马来	-2424
寻找	-2425
轻松	-2426
小区	-2427
一场	-2428
一样的	-2429
校园	-2430
账户	-2431
是有	-2432
蔬菜	-2433
保留	-2434
点评	-2435
和平	-2436
克兰	-2437
好吃的	-2438
队伍	-2439
决策	-2440
强的	-2441
一边	-2442
天的	-2443
先进	-2444
妹子	-2445
链接	-2446
功率	-2447
▁而且	-2448
志愿	-2449
▁当	-2450
ight	-2451
毫米	-2452
恋爱	-2453
强度	-2454
建成	-2455
▁Ch	-2456
辅助	-2457
工厂	-2458
热带	-2459
刺激	-2460
将于	-2461
的三	-2462
所得	-2463
充满	-2464
伤害	-2465
学历	-2466
或许	-2467
了一些	-2468
▁虽然	-2469
厦门	-2470
真的很	-2471
天然气	-2472
鼓励	-2473
旗下	-2474
LE	-2475
昆明	-2476
争议	-2477
房间	-2478
的生活	-2479
做出	-2480
构成	-2481
体现	-2482
end	-2483
检察	-2484
外观	-2485
装置	-2486
环节	-2487
通讯	-2488
走势	-2489
II	-2490
理学	-2491
▁k	-2492
成分	-2493
秘书	-2494
日期	-2495
大战	-2496
技巧	-2497
CO	-2498
停止	-2499
乘客	-2500
总经理	-2501
例子	-2502
实习	-2503
对我	-2504
初中	-2505
两个人	-2506
超市	-2507
对其	-2508
▁be	-2509
体制	-2510
议员	-2511
学科	-2512
禁止	-2513
并非	-2514
对此	-2515
澳门	-2516
较大	-2517
这么多	-2518
▁今天	-2519
简直	-2520
应当	-2521
车的	-2522
看的	-2523
新加坡	-2524
年在	-2525
ss	-2526
标志	-2527
高等	-2528
优质	-2529
ore	-2530
作家	-2531
高于	-2532
▁作为	-2533
分手	-2534
广西	-2535
对应	-2536
是指	-2537
外面	-2538
豪华	-2539
ice	-2540
的中	-2541
的关系	-2542
Ch	-2543
第六	-2544
他家	-2545
的数据	-2546
套餐	-2547
想象	-2548
吃完	-2549
卫星	-2550
,,	-2551
有多	-2552
气象	-2553
构建	-2554
空调	-2555
地质	-2556
▁现车充足	-2557
到达	-2558
ml	-2559
”)	-2560
较为	-2561
澳大	-2562
南方	-2563
委书记	-2564
也能	-2565
长按二维码	-2566
尔省	-2567
巴士	-2568
CP	-2569
而已	-2570
提示	-2571
房屋	-2572
突出	-2573
审计	-2574
改进	-2575
十八	-2576
矛盾	-2577
上方	-2578
相似	-2579
职务	-2580
同一	-2581
研究所	-2582
黑色	-2583
月台	-2584
▁二	-2585
块钱	-2586
贝尔	-2587
逐步	-2588
区间	-2589
造型	-2590
不在	-2591
上一	-2592
怎样	-2593
创意	-2594
几次	-2595
▁看	-2596
包装	-2597
熟悉	-2598
也要	-2599
承诺	-2600
群体	-2601
授权	-2602
之下	-2603
意味着	-2604
%、	-2605
PE	-2606
场景	-2607
地图	-2608
教练	-2609
天天	-2610
引导	-2611
每日	-2612
有机	-2613
独特	-2614
震荡	-2615
期末	-2616
隧道	-2617
输入	-2618
不敢	-2619
另一个	-2620
零售	-2621
厂商	-2622
规律	-2623
参赛	-2624
总裁	-2625
获得了	-2626
ont	-2627
作业	-2628
集体	-2629
医药	-2630
议会	-2631
原理	-2632
民间	-2633
思路	-2634
相关的	-2635
宿舍	-2636
在美国	-2637
巴黎	-2638
ST	-2639
素质	-2640
执法	-2641
图像	-2642
涉嫌	-2643
非法	-2644
快乐	-2645
貌似	-2646
邮政	-2647
前的	-2648
哈尔	-2649
梦想	-2650
ry	-2651
▁王	-2652
复合	-2653
委托	-2654
以外	-2655
声明	-2656
吃过	-2657
建造	-2658
iz	-2659
澳大利亚	-2660
销量	-2661
市区	-2662
以上的	-2663
加大	-2664
男友	-2665
测量	-2666
一大	-2667
传媒	-2668
大区	-2669
马上	-2670
。《	-2671
海南	-2672
他是	-2673
羊肉	-2674
盈利	-2675
约翰	-2676
等人	-2677
板块	-2678
曝光	-2679
受伤	-2680
回归	-2681
留学	-2682
建于	-2683
转换	-2684
写的	-2685
一带	-2686
婚姻	-2687
百分	-2688
案例	-2689
▁In	-2690
国王	-2691
》《	-2692
总部	-2693
爱好	-2694
济南	-2695
不喜欢	-2696
赢得	-2697
情况下	-2698
还是很	-2699
ord	-2700
TV	-2701
也不是	-2702
还没有	-2703
顺利	-2704
强化	-2705
希腊	-2706
基金管理人	-2707
海鲜	-2708
▁根据	-2709
精彩	-2710
屏幕	-2711
立法	-2712
The	-2713
==	-2714
良好的	-2715
全新	-2716
件事	-2717
不懂	-2718
ack	-2719
▁以	-2720
小编	-2721
验证	-2722
的同时	-2723
▁农	-2724
正好	-2725
制的	-2726
加速	-2727
论文	-2728
平方千米	-2729
出台	-2730
出租	-2731
大多	-2732
偶尔	-2733
合法	-2734
ib	-2735
ear	-2736
给他	-2737
交易所	-2738
其他的	-2739
ast	-2740
高端	-2741
也不会	-2742
胜利	-2743
地面	-2744
鸡蛋	-2745
冲突	-2746
当选	-2747
服装	-2748
油价	-2749
校长	-2750
人均	-2751
硬件	-2752
主办	-2753
一开始	-2754
编号	-2755
的水	-2756
用了	-2757
爆炸	-2758
净利润	-2759
凌晨	-2760
高达	-2761
的人口	-2762
提供了	-2763
)(	-2764
变动	-2765
一旦	-2766
围绕	-2767
就算	-2768
等地	-2769
阳光	-2770
纤维	-2771
依旧	-2772
给了	-2773
重组	-2774
统治	-2775
DP	-2776
之中	-2777
总理	-2778
其次	-2779
广大	-2780
日子	-2781
土豆	-2782
三角	-2783
型证券投资基金	-2784
单曲	-2785
同期	-2786
贵州	-2787
▁近日	-2788
舞台	-2789
进步	-2790
完美	-2791
女士	-2792
▁再	-2793
白色	-2794
带来的	-2795
后期	-2796
市长	-2797
CA	-2798
福利	-2799
访问	-2800
iPhone	-2801
驱动	-2802
老婆	-2803
方程	-2804
大赛	-2805
▁多	-2806
巴西	-2807
播放	-2808
影视	-2809
▁张	-2810
吸收	-2811
ge	-2812
的多	-2813
有利	-2814
▁wh	-2815
示范	-2816
异常	-2817
这家店	-2818
此时	-2819
休闲	-2820
▁先	-2821
法学	-2822
不出	-2823
每个人	-2824
社会主义	-2825
荷兰	-2826
总额	-2827
级的	-2828
我要	-2829
分离	-2830
打电话	-2831
使用的	-2832
公益	-2833
out	-2834
优先	-2835
郑州	-2836
怀疑	-2837
▁Y	-2838
合金	-2839
率为	-2840
定期	-2841
师范	-2842
科学与工程	-2843
中山	-2844
国有	-2845
乌克兰	-2846
女朋友	-2847
两天	-2848
合格	-2849
现状	-2850
余额	-2851
在大	-2852
党的	-2853
▁马	-2854
良好	-2855
是很	-2856
公民	-2857
也不错	-2858
协助	-2859
让他	-2860
各项	-2861
作战	-2862
青春	-2863
rom	-2864
In	-2865
基督	-2866
装饰	-2867
少女	-2868
拉斯	-2869
力度	-2870
此前	-2871
休息	-2872
女友	-2873
我和	-2874
▁比如	-2875
创始	-2876
基层	-2877
线性	-2878
新增	-2879
动车	-2880
自治区	-2881
取代	-2882
的故事	-2883
气候	-2884
的一部分	-2885
继承	-2886
总局	-2887
发起	-2888
分割线	-2889
反而	-2890
泰国	-2891
跟我	-2892
上海市	-2893
库存	-2894
▁对于	-2895
的那	-2896
离子	-2897
年起	-2898
发电	-2899
恐怖	-2900
万美元	-2901
一直在	-2902
尺寸	-2903
的中国	-2904
发出	-2905
招生	-2906
="	-2907
处罚	-2908
很久	-2909
简单的	-2910
一代	-2911
心情	-2912
长江	-2913
提取	-2914
价比	-2915
退休	-2916
AM	-2917
他人	-2918
考察	-2919
企业的	-2920
世界上	-2921
▁好	-2922
周年	-2923
出现在	-2924
同比增长	-2925
旅客	-2926
合成	-2927
搜狐	-2928
本地	-2929
透过	-2930
机器人	-2931
义务	-2932
其后	-2933
▁一个	-2934
冲击	-2935
构造	-2936
质疑	-2937
证据	-2938
可以在	-2939
的第一	-2940
ows	-2941
车身	-2942
可惜	-2943
随机	-2944
▁日	-2945
从小	-2946
还好	-2947
仪式	-2948
始终	-2949
报表	-2950
提到	-2951
民众	-2952
进展	-2953
产品的	-2954
认证	-2955
击败	-2956
院长	-2957
等待	-2958
瞬间	-2959
财经	-2960
更为	-2961
▁她	-2962
顾客	-2963
沈阳	-2964
开启	-2965
ain	-2966
走向	-2967
传说	-2968
大师	-2969
大楼	-2970
央行	-2971
种子	-2972
加盟	-2973
三星	-2974
人民政府	-2975
采购	-2976
和其他	-2977
内心	-2978
还算	-2979
路口	-2980
释放	-2981
面积为	-2982
进士	-2983
ure	-2984
发的	-2985
出现了	-2986
浓度	-2987
活跃	-2988
主演	-2989
毕业生	-2990
深刻	-2991
大家都	-2992
▁on	-2993
世界杯	-2994
日晚	-2995
走了	-2996
花园	-2997
ue	-2998
全市	-2999
转向	-3000
的我	-3001
玉米	-3002
纷纷	-3003
顾问	-3004
敏感	-3005
期货	-3006
药品	-3007
app	-3008
很喜欢	-3009
证书	-3010
遭到	-3011
白银	-3012
尔斯	-3013
话题	-3014
的要求	-3015
▁自	-3016
大数据	-3017
里斯	-3018
违规	-3019
月底	-3020
科研	-3021
饰演	-3022
失望	-3023
领先	-3024
再度	-3025
▁天	-3026
物的	-3027
前后	-3028
ld	-3029
性价比	-3030
年初	-3031
输出	-3032
年后	-3033
清华	-3034
首都	-3035
全省	-3036
位的	-3037
展览	-3038
都市	-3039
引擎	-3040
▁想	-3041
威胁	-3042
频率	-3043
坐在	-3044
司令	-3045
皇帝	-3046
生存	-3047
范围内	-3048
开通	-3049
听到	-3050
作出	-3051
短期	-3052
一只	-3053
的行为	-3054
开了	-3055
实体	-3056
GB	-3057
那么多	-3058
成就	-3059
检验	-3060
并未	-3061
▁月	-3062
航天	-3063
子女	-3064
不算	-3065
巨大	-3066
出身	-3067
职工	-3068
~~~~	-3069
活性	-3070
▁就是	-3071
一度	-3072
苏州	-3073
稍微	-3074
▁人	-3075
▁The	-3076
拿到	-3077
新区	-3078
视觉	-3079
中有	-3080
创建	-3081
听说	-3082
PC	-3083
尚未	-3084
引入	-3085
买的	-3086
夏天	-3087
太平洋	-3088
”;	-3089
配套	-3090
辽宁	-3091
转让	-3092
初步	-3093
广东省	-3094
ne	-3095
学的	-3096
的价格	-3097
▁后来	-3098
尽量	-3099
彻底	-3100
仅仅	-3101
签署	-3102
高速公路	-3103
ng	-3104
数值	-3105
部署	-3106
涨幅	-3107
队的	-3108
欧元	-3109
三大	-3110
房产	-3111
ian	-3112
积分	-3113
文艺	-3114
数的	-3115
这款	-3116
",	-3117
在北京	-3118
管辖	-3119
而不	-3120
华为	-3121
最后一	-3122
▁国	-3123
差距	-3124
的基础上	-3125
▁这是	-3126
离婚	-3127
专业的	-3128
................	-3129
上有	-3130
存款	-3131
紧张	-3132
真正的	-3133
试点	-3134
是法国	-3135
仿真	-3136
人群	-3137
天下	-3138
政治人物	-3139
物种	-3140
暂时	-3141
古代	-3142
达成	-3143
大家的	-3144
ff	-3145
.《	-3146
夏季	-3147
派出	-3148
的很	-3149
充电	-3150
显得	-3151
子公司	-3152
成为了	-3153
马来西亚	-3154
工人	-3155
的外	-3156
百万	-3157
补贴	-3158
身份证	-3159
拉克	-3160
转变	-3161
贫困	-3162
教堂	-3163
▁。	-3164
可见	-3165
行驶	-3166
行政区	-3167
截止	-3168
SI	-3169
视为	-3170
私人	-3171
十三	-3172
近年来	-3173
的美	-3174
他家的	-3175
北方	-3176
主管	-3177
姐姐	-3178
的内容	-3179
人都	-3180
消防	-3181
在家	-3182
监控	-3183
收藏	-3184
ark	-3185
院校	-3186
虚拟	-3187
诊断	-3188
赚钱	-3189
曾在	-3190
留下	-3191
权力	-3192
预防	-3193
了吧	-3194
基金合同	-3195
许可	-3196
文献	-3197
实验室	-3198
登陆	-3199
预算	-3200
改编	-3201
养殖	-3202
自助	-3203
萝卜	-3204
面前	-3205
内地	-3206
各自	-3207
看法	-3208
尊重	-3209
一段	-3210
▁最	-3211
伊斯	-3212
防止	-3213
不动	-3214
抑制	-3215
马克	-3216
每一个	-3217
朋友圈	-3218
大厦	-3219
浪费	-3220
以下简称	-3221
站在	-3222
签订	-3223
▁今年	-3224
照顾	-3225
可爱	-3226
镜头	-3227
让我们	-3228
的就是	-3229
▁that	-3230
返回	-3231
所谓的	-3232
日下午	-3233
哪个	-3234
等方面	-3235
已有	-3236
▁目前	-3237
回忆	-3238
未能	-3239
产生的	-3240
SA	-3241
股市	-3242
巧克	-3243
试图	-3244
ich	-3245
导弹	-3246
共享	-3247
大气	-3248
人和	-3249
ust	-3250
很好的	-3251
另一方面	-3252
症状	-3253
色彩	-3254
不对	-3255
不一样	-3256
总之	-3257
下次	-3258
陆军	-3259
设计师	-3260
商场	-3261
生日	-3262
到现在	-3263
专利	-3264
室内	-3265
很大的	-3266
首席	-3267
立即	-3268
障碍	-3269
提问	-3270
篮球	-3271
▁▲	-3272
的情	-3273
种类	-3274
修复	-3275
睡觉	-3276
遭遇	-3277
均线	-3278
电信	-3279
战役	-3280
出售	-3281
出任	-3282
西藏	-3283
秘密	-3284
命名	-3285
认为是	-3286
周五	-3287
国家的	-3288
四大	-3289
民警	-3290
理工	-3291
宁波	-3292
重建	-3293
年开始	-3294
场所	-3295
办事	-3296
明朝	-3297
长度	-3298
公允	-3299
审查	-3300
一人	-3301
第七	-3302
考研	-3303
工程师	-3304
indows	-3305
得到了	-3306
中国大陆	-3307
对照	-3308
锦标	-3309
孩子的	-3310
录取	-3311
斯科	-3312
客观	-3313
此后	-3314
怎么办	-3315
审核	-3316
全体	-3317
夫妻	-3318
微软	-3319
▁无	-3320
主流	-3321
产权	-3322
子里	-3323
单独	-3324
其余	-3325
变速	-3326
男女	-3327
痛苦	-3328
关闭	-3329
的老	-3330
第二天	-3331
怎么样	-3332
查询	-3333
认定	-3334
清晰	-3335
画面	-3336
可靠	-3337
间的	-3338
认可	-3339
级别	-3340
面向	-3341
询价	-3342
毫无	-3343
饭店	-3344
上映	-3345
税务	-3346
格局	-3347
中国人民	-3348
佛教	-3349
器的	-3350
丈夫	-3351
台风	-3352
副主任	-3353
单元	-3354
平安	-3355
(,),	-3356
火车	-3357
接着	-3358
的有	-3359
TC	-3360
更有	-3361
山区	-3362
麻烦	-3363
▁原	-3364
看过	-3365
减肥	-3366
失去	-3367
股东大会	-3368
道理	-3369
指定	-3370
建立了	-3371
景观	-3372
发言	-3373
陆续	-3374
所属的	-3375
框架	-3376
幼儿园	-3377
百姓	-3378
还行	-3379
▁水	-3380
ee	-3381
出生于	-3382
初期	-3383
更好的	-3384
个性	-3385
土壤	-3386
▁自动	-3387
合物	-3388
高效	-3389
二年	-3390
有望	-3391
生于	-3392
快递	-3393
但是我	-3394
ix	-3395
是位于	-3396
普查	-3397
汽油	-3398
宇宙	-3399
在这个	-3400
提交	-3401
练习	-3402
公主	-3403
信仰	-3404
▁没有	-3405
成年	-3406
说法	-3407
游泳	-3408
的产品	-3409
著作	-3410
▁美	-3411
呼吸	-3412
不得不	-3413
倒是	-3414
元年	-3415
是以	-3416
排队	-3417
非洲	-3418
(,)	-3419
违反	-3420
的分	-3421
合肥	-3422
国防	-3423
每一	-3424
悬挂	-3425
▁it	-3426
延伸	-3427
要是	-3428
uc	-3429
无论是	-3430
IA	-3431
种植	-3432
六年	-3433
▁最近	-3434
ere	-3435
前面	-3436
把握	-3437
ment	-3438
市政府	-3439
ER	-3440
应对	-3441
降价	-3442
党员	-3443
去吃	-3444
热点	-3445
传统的	-3446
UV	-3447
销商	-3448
澳洲	-3449
我都	-3450
研究院	-3451
响应	-3452
笔记	-3453
转化	-3454
▁X	-3455
收集	-3456
大街	-3457
真心	-3458
处的	-3459
答主	-3460
维修	-3461
▁第一	-3462
一级	-3463
常规	-3464
公众号	-3465
为何	-3466
透明	-3467
▁金	-3468
进攻	-3469
ina	-3470
饮食	-3471
的历史	-3472
同步	-3473
保养	-3474
小孩	-3475
重复	-3476
任命	-3477
本公司	-3478
oh	-3479
完了	-3480
出版社	-3481
的服务	-3482
途径	-3483
是最	-3484
我妈	-3485
退出	-3486
部的	-3487
▁手动	-3488
弟弟	-3489
空军	-3490
多元	-3491
▁南	-3492
布林	-3493
AP	-3494
吃到	-3495
io	-3496
餐饮	-3497
分析了	-3498
报考	-3499
中国人	-3500
日上午	-3501
辐射	-3502
风暴	-3503
不可能	-3504
小心	-3505
解放军	-3506
有奖	-3507
ign	-3508
各大	-3509
力学	-3510
公元	-3511
是对	-3512
亏损	-3513
吉林	-3514
互相	-3515
巧克力	-3516
条例	-3517
大大	-3518
为止	-3519
产量	-3520
回去	-3521
和谐	-3522
体重	-3523
▁基于	-3524
整治	-3525
乡村	-3526
边界	-3527
场的	-3528
赔偿	-3529
了一种	-3530
修订	-3531
客运	-3532
龙江	-3533
了解到	-3534
否则	-3535
的投资	-3536
消失	-3537
得很	-3538
就读	-3539
大致	-3540
▁还	-3541
设定	-3542
害怕	-3543
政协	-3544
每月	-3545
男孩	-3546
节奏	-3547
著名的	-3548
不存在	-3549
系数	-3550
我自己	-3551
也被	-3552
◆◆◆◆◆◆◆◆	-3553
起了	-3554
边的	-3555
▁最后	-3556
死了	-3557
ial	-3558
创始人	-3559
BC	-3560
一句	-3561
的确	-3562
增速	-3563
妇女	-3564
实时	-3565
人力	-3566
一系列	-3567
AN	-3568
京东	-3569
客人	-3570
SP	-3571
大使	-3572
群岛	-3573
单纯	-3574
又称	-3575
讲述	-3576
age	-3577
机的	-3578
短信	-3579
ach	-3580
积累	-3581
之路	-3582
夏令	-3583
业内	-3584
发布的	-3585
尔德	-3586
▁医学	-3587
ber	-3588
的议案	-3589
头的	-3590
荣誉	-3591
辣椒	-3592
村民	-3593
就没	-3594
举报	-3595
流通	-3596
不良	-3597
一是	-3598
很好吃	-3599
负债	-3600
贵的	-3601
民生	-3602
观念	-3603
▁为了	-3604
设计的	-3605
担保	-3606
掉了	-3607
就开始	-3608
常常	-3609
▁农学	-3610
创办	-3611
瑞士	-3612
act	-3613
在一个	-3614
中医	-3615
奇怪	-3616
ax	-3617
既然	-3618
公允价值	-3619
机车	-3620
忘记	-3621
一看	-3622
历史上	-3623
无限	-3624
等级	-3625
债务	-3626
波动	-3627
难度	-3628
APP	-3629
跟着	-3630
股价	-3631
上课	-3632
的样子	-3633
展现	-3634
证实	-3635
不行	-3636
当时的	-3637
演讲	-3638
明显的	-3639
感动	-3640
持有人	-3641
搭载	-3642
塞尔	-3643
过于	-3644
一块	-3645
曾任	-3646
的首	-3647
氛围	-3648
关心	-3649
周一	-3650
获悉	-3651
gr	-3652
的原	-3653
AC	-3654
长时间	-3655
哥哥	-3656
当初	-3657
味的	-3658
二次	-3659
延续	-3660
铁道	-3661
发达	-3662
航班	-3663
紧急	-3664
日内	-3665
ey	-3666
背后	-3667
感兴趣	-3668
拍照	-3669
平面	-3670
一半	-3671
诉讼	-3672
扩展	-3673
会长	-3674
▁询价	-3675
的作用	-3676
创立	-3677
南北	-3678
米的	-3679
售价	-3680
的相关	-3681
嫌疑	-3682
马力	-3683
毕业后	-3684
大连	-3685
▁管理	-3686
通用	-3687
int	-3688
被告	-3689
老年	-3690
的那种	-3691
信心	-3692
gle	-3693
、(	-3694
便利	-3695
锦标赛	-3696
的位置	-3697
▁=	-3698
接口	-3699
招牌	-3700
依赖	-3701
不需要	-3702
因而	-3703
报错	-3704
大学的	-3705
人气	-3706
是为了	-3707
ome	-3708
档案	-3709
脂肪	-3710
的一个市镇	-3711
手续	-3712
ph	-3713
地上	-3714
哈尔滨	-3715
实用	-3716
皇家	-3717
奶茶	-3718
高峰	-3719
▁with	-3720
由此	-3721
园林	-3722
新华	-3723
lay	-3724
大神	-3725
存储	-3726
桌子	-3727
列表	-3728
合计	-3729
的基本	-3730
十字	-3731
出门	-3732
加热	-3733
新能源	-3734
保存	-3735
必然	-3736
开设	-3737
制备	-3738
看到了	-3739
会被	-3740
观测	-3741
某个	-3742
一套	-3743
回落	-3744
引进	-3745
神秘	-3746
交换	-3747
春节	-3748
cm	-3749
下滑	-3750
羽毛	-3751
美洲	-3752
身高	-3753
的规定	-3754
后排	-3755
中部	-3756
▁没	-3757
这部	-3758
事务所	-3759
英格兰	-3760
一段时间	-3761
国产	-3762
官网	-3763
激励	-3764
ON	-3765
▁用	-3766
▁陈	-3767
联合国	-3768
这两	-3769
总监	-3770
电气	-3771
后续	-3772
这类	-3773
pe	-3774
会计准则	-3775
个小时	-3776
血管	-3777
纳入	-3778
与其	-3779
这也是	-3780
奥斯	-3781
商家	-3782
太大	-3783
那天	-3784
▁四	-3785
开幕	-3786
想想	-3787
仔细	-3788
新型	-3789
约为	-3790
影像	-3791
IC	-3792
相当于	-3793
锻炼	-3794
形势	-3795
托管人	-3796
大桥	-3797
人体	-3798
订阅	-3799
▁感觉	-3800
一方面	-3801
穿着	-3802
要么	-3803
力于	-3804
外的	-3805
书籍	-3806
又是	-3807
假设	-3808
募集资金	-3809
疯狂	-3810
分数	-3811
姆斯	-3812
MS	-3813
但我	-3814
市的	-3815
的结果	-3816
有奖报错	-3817
较高	-3818
期限	-3819
配备	-3820
这位	-3821
概率	-3822
园区	-3823
免疫	-3824
已被	-3825
标题	-3826
并将	-3827
后者	-3828
▁当然	-3829
TA	-3830
近平	-3831
亲戚	-3832
的两	-3833
中药	-3834
小姐	-3835
发育	-3836
们的	-3837
吐槽	-3838
带领	-3839
表决	-3840
▁理学	-3841
ies	-3842
很不错	-3843
认知	-3844
国立	-3845
水的	-3846
菲律	-3847
签约	-3848
公斤	-3849
气温	-3850
▁上海	-3851
马拉	-3852
摄像	-3853
暴力	-3854
身材	-3855
条件下	-3856
有可能	-3857
我会	-3858
风景	-3859
了点	-3860
故障	-3861
出国	-3862
领域的	-3863
习近平	-3864
向上	-3865
Al	-3866
ide	-3867
菲律宾	-3868
申购	-3869
注重	-3870
好友	-3871
监察	-3872
时刻	-3873
▁可以	-3874
排行	-3875
自行车	-3876
时段	-3877
审批	-3878
前期	-3879
明年	-3880
省委	-3881
本质	-3882
尼斯	-3883
oy	-3884
策划	-3885
肌肉	-3886
得知	-3887
▁全	-3888
未来的	-3889
厉害	-3890
▁昨天	-3891
不高	-3892
唱片	-3893
ire	-3894
放入	-3895
一辆	-3896
考核	-3897
信任	-3898
合伙	-3899
位于法国	-3900
十大	-3901
路段	-3902
实惠	-3903
小时候	-3904
候选	-3905
都被	-3906
奶奶	-3907
一部分	-3908
一周	-3909
相机	-3910
南海	-3911
ok	-3912
题目	-3913
变形	-3914
深化	-3915
分别是	-3916
若干	-3917
为例	-3918
学名	-3919
虚假	-3920
对面	-3921
据说	-3922
的其他	-3923
留在	-3924
补偿	-3925
因为我	-3926
oogle	-3927
当代	-3928
助理	-3929
随时	-3930
精英	-3931
倾向	-3932
见过	-3933
巨大的	-3934
巴巴	-3935
ame	-3936
架构	-3937
发放	-3938
刑事	-3939
占领	-3940
奖励	-3941
生成	-3942
____	-3943
球场	-3944
店里	-3945
经销商	-3946
含有	-3947
的学生	-3948
出行	-3949
号码	-3950
和社会	-3951
月至	-3952
月的	-3953
ork	-3954
多家	-3955
第三方	-3956
觉得自己	-3957
爸妈	-3958
一片	-3959
物品	-3960
TO	-3961
自杀	-3962
蓝色	-3963
二手	-3964
租赁	-3965
啤酒	-3966
卡尔	-3967
理事	-3968
▁:	-3969
遗产	-3970
人民法院	-3971
精致	-3972
黑龙江	-3973
面上	-3974
BS	-3975
行业的	-3976
好看	-3977
毕业于	-3978
原创	-3979
维尔	-3980
适用	-3981
收益率	-3982
带有	-3983
超越	-3984
复制	-3985
▁我是	-3986
现有	-3987
公安局	-3988
纠结	-3989
大力	-3990
LO	-3991
特定	-3992
得以	-3993
编制	-3994
我很	-3995
那时候	-3996
威尔	-3997
冬季	-3998
的海	-3999
典型	-4000
直至	-4001
字母	-4002
入选	-4003
本土	-4004
奥林	-4005
电台	-4006
ost	-4007
十五	-4008
导航	-4009
实话	-4010
人口密度	-4011
更换	-4012
主力	-4013
不然	-4014
兴建	-4015
▁刘	-4016
nt	-4017
天主教	-4018
也不知道	-4019
凭借	-4020
卢瓦	-4021
城乡	-4022
科学与技术	-4023
预警	-4024
用品	-4025
年被	-4026
年轻人	-4027
均为	-4028
不超过	-4029
请求	-4030
正是	-4031
模糊	-4032
名义	-4033
一同	-4034
去过	-4035
内蒙古	-4036
预约	-4037
适当	-4038
该国	-4039
管理局	-4040
的能力	-4041
这就是	-4042
占比	-4043
为法国	-4044
强势	-4045
▁关于	-4046
从业	-4047
扶贫	-4048
食用	-4049
舞蹈	-4050
就被	-4051
履行	-4052
一款	-4053
长大	-4054
讲话	-4055
打破	-4056
券商	-4057
袭击	-4058
威廉	-4059
旧市镇	-4060
变更	-4061
陷入	-4062
气质	-4063
▁阿	-4064
全程	-4065
ock	-4066
写作	-4067
的公司	-4068
路径	-4069
层的	-4070
的市镇	-4071
拓展	-4072
收获	-4073
女神	-4074
ath	-4075
不满	-4076
武装	-4077
教区	-4078
才会	-4079
▁也	-4080
二是	-4081
纳米	-4082
报告期内	-4083
▁周	-4084
甘肃	-4085
▁de	-4086
▁另外	-4087
扫描	-4088
▁黄	-4089
曲线	-4090
附近的	-4091
打印	-4092
菜单	-4093
实现了	-4094
的企业	-4095
上线	-4096
解读	-4097
比利	-4098
专用	-4099
青少年	-4100
的机会	-4101
婚礼	-4102
的国家	-4103
没有任何	-4104
火箭	-4105
团购	-4106
之处	-4107
合约	-4108
见到	-4109
自信	-4110
招商	-4111
大规模	-4112
辈子	-4113
乐团	-4114
厕所	-4115
发售	-4116
问我	-4117
隶属于	-4118
结束后	-4119
开的	-4120
!”	-4121
你会	-4122
奖项	-4123
交警	-4124
排放	-4125
时的人口	-4126
▁海	-4127
密码	-4128
见面	-4129
有效的	-4130
修正	-4131
反复	-4132
中国共产党	-4133
ug	-4134
高铁	-4135
调研	-4136
美女	-4137
和他	-4138
法律法规	-4139
发现了	-4140
激烈	-4141
延长	-4142
效益	-4143
德里	-4144
交叉	-4145
ish	-4146
收录	-4147
没人	-4148
被人	-4149
座位	-4150
对话	-4151
上半年	-4152
作为一个	-4153
无数	-4154
线下	-4155
的时区为	-4156
内存	-4157
事实上	-4158
SEE	-4159
ET	-4160
持股	-4161
的地	-4162
可达	-4163
下列	-4164
亲自	-4165
热门	-4166
大奖	-4167
强制	-4168
有一次	-4169
她在	-4170
:。	-4171
决议	-4172
半岛	-4173
大于	-4174
是美国	-4175
沿海	-4176
最为	-4177
华人	-4178
")	-4179
试试	-4180
▁可	-4181
传递	-4182
ace	-4183
教会	-4184
市委	-4185
认同	-4186
清朝	-4187
妹妹	-4188
投诉	-4189
史上	-4190
五个	-4191
提名	-4192
%)	-4193
提供的	-4194
法兰	-4195
▁#	-4196
为此	-4197
匹配	-4198
带动	-4199
可能性	-4200
肿瘤	-4201
ave	-4202
互联网金融	-4203
回报	-4204
生活中	-4205
找不到	-4206
roid	-4207
票房	-4208
XX	-4209
待遇	-4210
ai	-4211
专注	-4212
牛奶	-4213
任职	-4214
轿车	-4215
你要	-4216
解析	-4217
同志	-4218
西洋	-4219
个股	-4220
嘉宾	-4221
尴尬	-4222
MP	-4223
几十	-4224
浏览	-4225
纪委	-4226
账号	-4227
家店	-4228
一部	-4229
▁ch	-4230
邮政编码为	-4231
财政部	-4232
前景	-4233
GDP	-4234
校区	-4235
共计	-4236
电梯	-4237
冬天	-4238
▁具体	-4239
情感	-4240
上学	-4241
争取	-4242
戏剧	-4243
下行	-4244
连锁	-4245
道的	-4246
源于	-4247
▁双	-4248
全世界	-4249
没有什么	-4250
西兰	-4251
人民币元	-4252
性别	-4253
数量为人	-4254
墨西	-4255
还不	-4256
波兰	-4257
原始	-4258
一般的	-4259
幅度	-4260
边缘	-4261
演唱会	-4262
月初	-4263
★★	-4264
师傅	-4265
的可	-4266
第八	-4267
很不	-4268
事业单位	-4269
的最	-4270
新兴	-4271
成立于	-4272
知友	-4273
的部分	-4274
二级	-4275
的城市	-4276
芝士	-4277
缺点	-4278
ver	-4279
怀孕	-4280
精准	-4281
接壤的市镇	-4282
伊斯兰	-4283
命令	-4284
精度	-4285
html	-4286
忘了	-4287
丰富的	-4288
想着	-4289
信托	-4290
央视	-4291
的手	-4292
是一名	-4293
终端	-4294
ood	-4295
发明	-4296
人口普查	-4297
每周	-4298
man	-4299
你可以	-4300
大量的	-4301
申报	-4302
了两	-4303
差别	-4304
吃不	-4305
中国证监会	-4306
国民党	-4307
三种	-4308
法定	-4309
有一种	-4310
SD	-4311
话说	-4312
很高	-4313
读者	-4314
替代	-4315
有限责任	-4316
窗口	-4317
帮忙	-4318
▁题主	-4319
深圳市	-4320
王朝	-4321
挖掘	-4322
ink	-4323
ps	-4324
楼市	-4325
菜的	-4326
均匀	-4327
温暖	-4328
明天	-4329
公积	-4330
是要	-4331
原料	-4332
夏令时	-4333
腐败	-4334
欣赏	-4335
清洁	-4336
的变化	-4337
奥林匹	-4338
了好	-4339
▁我觉得	-4340
人为	-4341
穆斯	-4342
七年	-4343
新建	-4344
对待	-4345
ime	-4346
接下来	-4347
▁e	-4348
ound	-4349
的技术	-4350
宪法	-4351
把我	-4352
下辖	-4353
物业	-4354
▁老	-4355
CEO	-4356
发生了	-4357
墨西哥	-4358
不明	-4359
▁pro	-4360
一口	-4361
江苏省	-4362
浙江省	-4363
表情	-4364
发送	-4365
客服	-4366
会不会	-4367
贯彻	-4368
项目的	-4369
▁第二	-4370
****	-4371
增加了	-4372
界面	-4373
肚子	-4374
就好	-4375
INSEE	-4376
pr	-4377
ory	-4378
市镇编码为	-4379
很容易	-4380
比赛中	-4381
阿拉伯	-4382
ox	-4383
太空	-4384
一座	-4385
芯片	-4386
ick	-4387
不见	-4388
别人的	-4389
海岸	-4390
强大	-4391
▁还是	-4392
运动会	-4393
生育	-4394
又有	-4395
不及	-4396
在其	-4397
以此	-4398
交往	-4399
▁as	-4400
的回答	-4401
我家	-4402
局部	-4403
辞职	-4404
选区为	-4405
时的人口数量为人	-4406
于时的人口数量为人	-4407
基础设施	-4408
说不	-4409
调控	-4410
一批	-4411
损害	-4412
抵达	-4413
的邮政编码为	-4414
外部	-4415
去看	-4416
福州	-4417
犹太	-4418
加州	-4419
山东省	-4420
现任	-4421
买入	-4422
所属的省级	-4423
所属的省级选区为	-4424
实在是	-4425
该省份	-4426
测定	-4427
故意	-4428
该公司	-4429
支出	-4430
权威	-4431
通报	-4432
眼镜	-4433
或旧市镇	-4434
科学家	-4435
▁长	-4436
有利于	-4437
职责	-4438
处理器	-4439
的态度	-4440
一本	-4441
▁与	-4442
内饰	-4443
进程	-4444
纳税	-4445
护理	-4446
留言	-4447
经济发展	-4448
气的	-4449
淘汰	-4450
卫视	-4451
小型	-4452
扩张	-4453
再加上	-4454
快的	-4455
利息	-4456
该省份为法国	-4457
组建	-4458
国会	-4459
喜欢吃	-4460
像是	-4461
的作品	-4462
▁j	-4463
科学院	-4464
定制	-4465
说说	-4466
河流	-4467
东莞	-4468
的世界	-4469
介绍了	-4470
王国	-4471
▁Pro	-4472
秩序	-4473
ens	-4474
跑步	-4475
相应的	-4476
生效	-4477
▁本人	-4478
授予	-4479
明治	-4480
诸多	-4481
雷达	-4482
、“	-4483
ond	-4484
回收	-4485
情节	-4486
回顾	-4487
旗舰	-4488
签证	-4489
开车	-4490
路过	-4491
鉴定	-4492
导师	-4493
门票	-4494
瑞典	-4495
江南	-4496
士兵	-4497
灵活	-4498
多人	-4499
钢铁	-4500
季节	-4501
沃尔	-4502
凤凰	-4503
一件	-4504
南昌	-4505
并购	-4506
辛苦	-4507
竞赛	-4508
价钱	-4509
▁昨日	-4510
列入	-4511
出道	-4512
的环境	-4513
年内	-4514
中介	-4515
予以	-4516
参加了	-4517
十六	-4518
厨房	-4519
偶像	-4520
▁an	-4521
开业	-4522
ote	-4523
单一	-4524
用途	-4525
乐队	-4526
彼此	-4527
后悔	-4528
迎来	-4529
的信息	-4530
per	-4531
不变	-4532
同性	-4533
之所以	-4534
看出	-4535
干扰	-4536
宏观	-4537
的天	-4538
损伤	-4539
热线	-4540
我还	-4541
遗址	-4542
教育部	-4543
塑料	-4544
▁are	-4545
亮相	-4546
eg	-4547
有限责任公司	-4548
随意	-4549
ence	-4550
观看	-4551
数据显示	-4552
殖民	-4553
版的	-4554
详情	-4555
变成了	-4556
颗粒	-4557
告诉我	-4558
基准	-4559
给出	-4560
咖喱	-4561
北大	-4562
电源	-4563
压缩	-4564
容量	-4565
早餐	-4566
("	-4567
十几	-4568
制品	-4569
靠近	-4570
制造业	-4571
传感	-4572
拿着	-4573
扮演	-4574
催化	-4575
新生	-4576
她说	-4577
生素	-4578
也将	-4579
斯的	-4580
以往	-4581
及其他	-4582
就没有	-4583
▁五	-4584
我还是	-4585
分布于	-4586
公开发	-4587
河南省	-4588
挂牌	-4589
▁sh	-4590
言论	-4591
技术的	-4592
▁味道	-4593
发布会	-4594
存在的	-4595
km	-4596
▁本文	-4597
坐标	-4598
等于	-4599
首个	-4600
对抗	-4601
果然	-4602
场地	-4603
属性	-4604
ile	-4605
▁两	-4606
你是	-4607
有趣	-4608
学校的	-4609
队长	-4610
正面	-4611
MI	-4612
伊朗	-4613
▁该	-4614
▁可是	-4615
集合	-4616
保健	-4617
一会	-4618
主持人	-4619
奥林匹克	-4620
商标	-4621
国内外	-4622
形容	-4623
麻辣	-4624
究竟	-4625
编程	-4626
阳市	-4627
撤销	-4628
能否	-4629
遗传	-4630
基金资产	-4631
各级	-4632
帮我	-4633
城市的	-4634
old	-4635
App	-4636
厘米	-4637
形状	-4638
黄色	-4639
祖父	-4640
研究了	-4641
有一些	-4642
不停	-4643
重的	-4644
的过程	-4645
秘书长	-4646
方的	-4647
在内的	-4648
电子商务	-4649
教你	-4650
公式	-4651
最小	-4652
化工	-4653
分辨	-4654
聚集	-4655
是从	-4656
抱着	-4657
企业会计准则	-4658
讨厌	-4659
依靠	-4660
培育	-4661
占据	-4662
强大的	-4663
了几	-4664
常务	-4665
IV	-4666
美容	-4667
柴油	-4668
之前的	-4669
,(	-4670
乔治	-4671
分的	-4672
因子	-4673
时报	-4674
ivers	-4675
收盘	-4676
各国	-4677
全年	-4678
参观	-4679
重量	-4680
较低	-4681
上网	-4682
传奇	-4683
无奈	-4684
生活的	-4685
年美国	-4686
学员	-4687
规格	-4688
接收	-4689
心理学	-4690
报价	-4691
摩托	-4692
清理	-4693
的书	-4694
大一	-4695
得出	-4696
魅力	-4697
浪漫	-4698
语音	-4699
海域	-4700
与其他	-4701
日军	-4702
稳定性	-4703
价值观	-4704
▁看到	-4705
番茄	-4706
艺术家	-4707
店铺	-4708
机动车	-4709
逝世	-4710
安静	-4711
给我们	-4712
米饭	-4713
有一天	-4714
古典	-4715
土耳	-4716
ary	-4717
LED	-4718
AD	-4719
烧烤	-4720
▁日本	-4721
营运	-4722
步骤	-4723
羽毛球	-4724
我现在	-4725
聪明	-4726
并对	-4727
救援	-4728
支援	-4729
钢琴	-4730
财务报表	-4731
国企	-4732
本周	-4733
And	-4734
家具	-4735
中共中央	-4736
土耳其	-4737
不说	-4738
入味	-4739
应急	-4740
下一	-4741
难道	-4742
电路	-4743
多名	-4744
景点	-4745
US	-4746
服务的	-4747
模块	-4748
进了	-4749
序列	-4750
即便	-4751
爷爷	-4752
通过对	-4753
▁万	-4754
从此	-4755
携带	-4756
也好	-4757
个别	-4758
▁去	-4759
精品	-4760
联储	-4761
空中	-4762
花了	-4763
混凝	-4764
情报	-4765
首歌	-4766
两位	-4767
的长	-4768
亚马	-4769
:《	-4770
笔者	-4771
斯基	-4772
穆斯林	-4773
CC	-4774
▁华	-4775
omp	-4776
但不	-4777
▁?	-4778
一共	-4779
RE	-4780
专题	-4781
选择了	-4782
供给	-4783
▁.	-4784
密切	-4785
▁针对	-4786
解决方案	-4787
沙拉	-4788
萨斯	-4789
投资组合	-4790
玩具	-4791
现货	-4792
▁由于	-4793
命运	-4794
维亚	-4795
所需	-4796
编剧	-4797
ata	-4798
这条	-4799
为一	-4800
州的	-4801
常见的	-4802
刚开始	-4803
号的	-4804
封闭	-4805
动漫	-4806
上周	-4807
we	-4808
我去	-4809
三次	-4810
▁法学	-4811
副书记	-4812
否认	-4813
四十	-4814
燃料	-4815
给大家	-4816
增值	-4817
我对	-4818
是大	-4819
正宗	-4820
四川省	-4821
公积金	-4822
垂直	-4823
领袖	-4824
购房	-4825
很小	-4826
单身	-4827
层面	-4828
进而	-4829
次数	-4830
理性	-4831
”,“	-4832
安德	-4833
战后	-4834
ah	-4835
通车	-4836
这两个	-4837
鸡肉	-4838
惊喜	-4839
主张	-4840
楼主	-4841
三分	-4842
度假	-4843
、《	-4844
少量	-4845
沉积	-4846
格式	-4847
公交车	-4848
不容易	-4849
附属	-4850
列为	-4851
发改	-4852
水库	-4853
发布了	-4854
方向盘	-4855
常委	-4856
这边	-4857
TE	-4858
数据库	-4859
食堂	-4860
叫做	-4861
的市场	-4862
在上海	-4863
斯拉	-4864
顺序	-4865
传承	-4866
融入	-4867
约束	-4868
相反	-4869
它是	-4870
竞技	-4871
住了	-4872
而被	-4873
车主	-4874
证券交易所	-4875
艺人	-4876
判决	-4877
在网上	-4878
集成	-4879
入侵	-4880
入门	-4881
ite	-4882
菜品	-4883
变速箱	-4884
还原	-4885
哈哈哈哈	-4886
聚会	-4887
▁[	-4888
传输	-4889
接到	-4890
少了	-4891
象征	-4892
题材	-4893
某种	-4894
身为	-4895
启用	-4896
▁me	-4897
搜狐汽车	-4898
下班	-4899
在中	-4900
基金会	-4901
病人	-4902
二世	-4903
选区	-4904
婴儿	-4905
管理的	-4906
心态	-4907
暂停	-4908
美国的	-4909
英寸	-4910
粮食	-4911
业主	-4912
大臣	-4913
权的	-4914
发了	-4915
届全国	-4916
下来的	-4917
税收	-4918
协同	-4919
定了	-4920
缺陷	-4921
想起	-4922
混凝土	-4923
平等	-4924
▁or	-4925
总会	-4926
kg	-4927
在该	-4928
▁al	-4929
分量	-4930
慈善	-4931
前三	-4932
道歉	-4933
制动	-4934
危害	-4935
都说	-4936
程度上	-4937
收取	-4938
组成的	-4939
两者	-4940
报警	-4941
标签	-4942
优点	-4943
路易	-4944
花生	-4945
防治	-4946
▁谢	-4947
▁白	-4948
刚好	-4949
ake	-4950
诈骗	-4951
邮件	-4952
户口	-4953
两名	-4954
牛排	-4955
误差	-4956
普及	-4957
教育学	-4958
大灯	-4959
▁Un	-4960
cl	-4961
做过	-4962
早年	-4963
落地	-4964
奥运会	-4965
铝合金	-4966
定价	-4967
适量	-4968
SUV	-4969
金山	-4970
寻求	-4971
我知道	-4972
欧盟	-4973
伯特	-4974
谷歌	-4975
弹性	-4976
大盘	-4977
顶级	-4978
的电影	-4979
红军	-4980
▁图	-4981
的意思	-4982
的形式	-4983
中期	-4984
罚款	-4985
看完	-4986
SS	-4987
等问题	-4988
布鲁	-4989
乡镇	-4990
更名为	-4991
场比赛	-4992
▁以下	-4993
ux	-4994
MB	-4995
▁▼	-4996
奔驰	-4997
之类	-4998
九龙	-4999
▁Th	-5000
支付宝	-5001
跟踪	-5002
个体	-5003
▁他们	-5004
法官	-5005
▁公司	-5006
新浪	-5007
亚马逊	-5008
世界大战	-5009
有一定的	-5010
一世	-5011
纠纷	-5012
明明	-5013
应力	-5014
举行的	-5015
暴雨	-5016
礼物	-5017
夫人	-5018
年纪	-5019
▁元	-5020
不像	-5021
向下	-5022
恒星	-5023
过度	-5024
激光	-5025
缓解	-5026
有机会	-5027
寿司	-5028
回国	-5029
不但	-5030
高温	-5031
ava	-5032
分解	-5033
开工	-5034
▁西	-5035
多样	-5036
的社会	-5037
形成了	-5038
▁by	-5039
节能	-5040
坦克	-5041
考虑到	-5042
岁时	-5043
只会	-5044
现车	-5045
活力	-5046
在他	-5047
受欢迎	-5048
海拔高度	-5049
ike	-5050
完成了	-5051
同时也	-5052
能不能	-5053
更高	-5054
产能	-5055
的后	-5056
爱尔	-5057
绿化	-5058
竞争力	-5059
党委	-5060
在一	-5061
hu	-5062
半天	-5063
心脏	-5064
排骨	-5065
fer	-5066
主人	-5067
限于	-5068
海上	-5069
去做	-5070
通行	-5071
te	-5072
当日	-5073
阿里巴巴	-5074
家中	-5075
看上去	-5076
尔特	-5077
势力	-5078
tw	-5079
那就	-5080
亮点	-5081
指示	-5082
副主席	-5083
要素	-5084
化合物	-5085
保守	-5086
给她	-5087
降水	-5088
SO	-5089
埃及	-5090
体会	-5091
述了	-5092
当事	-5093
或者是	-5094
语文	-5095
东风	-5096
Windows	-5097
ance	-5098
监事	-5099
纺织	-5100
▁其中	-5101
才知道	-5102
剧院	-5103
订单	-5104
基金份额持有人	-5105
阶级	-5106
赶紧	-5107
天文	-5108
获奖	-5109
本期	-5110
高雄	-5111
神奇	-5112
从未	-5113
用地	-5114
萨克	-5115
采用了	-5116
时任	-5117
时代的	-5118
行车	-5119
服务器	-5120
议院	-5121
栏目	-5122
活动的	-5123
负担	-5124
认购	-5125
ext	-5126
在日本	-5127
▁个人	-5128
加油	-5129
花钱	-5130
家居	-5131
und	-5132
作曲	-5133
奶油	-5134
重要的是	-5135
VR	-5136
一把	-5137
燃烧	-5138
省的一个市镇	-5139
切实	-5140
一层	-5141
球迷	-5142
期望	-5143
行李	-5144
一生	-5145
指导价	-5146
IPO	-5147
是一位	-5148
最高的	-5149
买卖	-5150
花费	-5151
你就	-5152
台南	-5153
转载	-5154
出现的	-5155
万吨	-5156
政府的	-5157
显然	-5158
消化	-5159
遗憾	-5160
加班	-5161
研究中心	-5162
青海	-5163
了一份	-5164
做空	-5165
排除	-5166
血液	-5167
渐渐	-5168
信息化	-5169
▁Z	-5170
尔的	-5171
发生在	-5172
▁formula	-5173
猪肉	-5174
百年	-5175
相处	-5176
变换	-5177
简历	-5178
消耗	-5179
主导	-5180
结算	-5181
版权	-5182
▁、	-5183
林业	-5184
这点	-5185
成人	-5186
温泉	-5187
成功的	-5188
天使	-5189
关节	-5190
乘坐	-5191
现时	-5192
所属	-5193
出来了	-5194
登录	-5195
和大	-5196
严重的	-5197
反馈	-5198
穿越	-5199
领导人	-5200
夺得	-5201
奖金	-5202
但由于	-5203
发生的	-5204
xx	-5205
▁第	-5206
出演	-5207
ult	-5208
歌词	-5209
ever	-5210
开发商	-5211
骑士	-5212
住在	-5213
▁以前	-5214
让她	-5215
水域	-5216
姓名	-5217
店的	-5218
队员	-5219
一个小	-5220
符号	-5221
能在	-5222
执导	-5223
原子	-5224
az	-5225
如果是	-5226
本站	-5227
接待	-5228
营造	-5229
按摩	-5230
芒果	-5231
ool	-5232
私募	-5233
ase	-5234
发改委	-5235
终止	-5236
而非	-5237
九年	-5238
的全	-5239
等奖	-5240
提及	-5241
错了	-5242
马尔	-5243
CT	-5244
ail	-5245
玩的	-5246
买房	-5247
回购	-5248
舆论	-5249
主要的	-5250
桥梁	-5251
阻力	-5252
顺便	-5253
部位	-5254
抗日	-5255
▁le	-5256
放松	-5257
采集	-5258
有钱	-5259
谈判	-5260
复兴	-5261
又名	-5262
直径	-5263
的人生	-5264
处置	-5265
受害	-5266
手动	-5267
嫌疑人	-5268
MO	-5269
型号	-5270
对接	-5271
将来	-5272
县城	-5273
报纸	-5274
长春	-5275
立方	-5276
注射	-5277
▁如	-5278
综艺	-5279
拉丁	-5280
美味	-5281
剩余	-5282
了他	-5283
助力	-5284
那边	-5285
打工	-5286
丰田	-5287
对照组	-5288
有一定	-5289
的名字	-5290
中最	-5291
eng	-5292
小吃	-5293
约定	-5294
付出	-5295
交互	-5296
的车	-5297
▁然而	-5298
工作室	-5299
玫瑰	-5300
▁第一次	-5301
一群	-5302
智能手机	-5303
拍卖	-5304
ther	-5305
更大	-5306
警告	-5307
内容的	-5308
的孩子	-5309
防御	-5310
达到了	-5311
极端	-5312
五十	-5313
而成	-5314
巴马	-5315
喜剧	-5316
乾隆	-5317
辅导	-5318
出于	-5319
视角	-5320
MACD	-5321
万股	-5322
汉语	-5323
?????	-5324
镇区	-5325
船舶	-5326
是这样的	-5327
意志	-5328
助于	-5329
他就	-5330
葡萄牙	-5331
ll	-5332
长城	-5333
王子	-5334
比较好	-5335
来讲	-5336
一对	-5337
摄像头	-5338
让自己	-5339
发票	-5340
预报	-5341
是日本	-5342
不清	-5343
色列	-5344
旨在	-5345
精选	-5346
。(	-5347
造成的	-5348
部落	-5349
人对	-5350
比较多	-5351
我没	-5352
他也	-5353
几种	-5354
维奇	-5355
师范大学	-5356
小行星	-5357
做得	-5358
频繁	-5359
的热	-5360
▁又	-5361
的需求	-5362
▁环境	-5363
信用卡	-5364
兰州	-5365
舰队	-5366
珠海	-5367
量子	-5368
天堂	-5369
家属	-5370
海峡	-5371
县人	-5372
蛋白质	-5373
爱尔兰	-5374
汇率	-5375
总督	-5376
?”	-5377
该地	-5378
的同学	-5379
泡沫	-5380
经纪	-5381
卓越	-5382
可在	-5383
节点	-5384
管理办法	-5385
省和	-5386
ction	-5387
承受	-5388
煤炭	-5389
FC	-5390
运营商	-5391
的通知	-5392
并与	-5393
欧美	-5394
政党	-5395
二人	-5396
台中	-5397
生理	-5398
增大	-5399
致力于	-5400
全力	-5401
也不能	-5402
辖区	-5403
金融机构	-5404
ank	-5405
冰箱	-5406
厚的	-5407
产业链	-5408
和小	-5409
派出所	-5410
Sh	-5411
的效果	-5412
取得了	-5413
tern	-5414
消除	-5415
夫妇	-5416
垄断	-5417
传感器	-5418
候选人	-5419
▁目的	-5420
到位	-5421
总人口	-5422
代替	-5423
网页	-5424
通风	-5425
却是	-5426
min	-5427
创业板	-5428
公开发行	-5429
市场上	-5430
彼得	-5431
时光	-5432
影响力	-5433
也就是说	-5434
进场	-5435
广州市	-5436
地利	-5437
涵盖	-5438
持有的	-5439
沥青	-5440
今后	-5441
RO	-5442
分级	-5443
无关	-5444
市值	-5445
像素	-5446
这本书	-5447
界的	-5448
CH	-5449
独特的	-5450
精力	-5451
教材	-5452
ass	-5453
关注简介	-5454
▁之前	-5455
想吃	-5456
温州	-5457
高层	-5458
佛山	-5459
基督教	-5460
不去	-5461
局面	-5462
在国内	-5463
提出的	-5464
有两	-5465
还将	-5466
主打	-5467
退役	-5468
本届	-5469
▁不知道	-5470
报记者	-5471
坚决	-5472
客车	-5473
停车场	-5474
振动	-5475
复习	-5476
排列	-5477
百分点	-5478
国家队	-5479
金牌	-5480
办事处	-5481
在外	-5482
信息披露	-5483
当局	-5484
一定会	-5485
也都	-5486
旋转	-5487
ann	-5488
颁奖	-5489
宝马	-5490
规定的	-5491
ove	-5492
多项	-5493
首页	-5494
境外	-5495
提高了	-5496
sc	-5497
.()	-5498
指南	-5499
忽略	-5500
他们在	-5501
放大	-5502
推出的	-5503
暑假	-5504
内陆	-5505
滨海	-5506
走到	-5507
民营	-5508
被迫	-5509
的角度	-5510
细菌	-5511
就已经	-5512
栖息	-5513
货物	-5514
环球	-5515
每人	-5516
区分	-5517
视镜	-5518
一项	-5519
LA	-5520
几何	-5521
等到	-5522
▁at	-5523
在香港	-5524
IF	-5525
课堂	-5526
长安	-5527
的一次	-5528
出租车	-5529
火车站	-5530
交通运输	-5531
抑郁	-5532
这件事	-5533
主场	-5534
人事	-5535
灵魂	-5536
钓鱼	-5537
职能	-5538
▁来	-5539
食材	-5540
ert	-5541
:)	-5542
起点	-5543
多么	-5544
文化的	-5545
走进	-5546
阻止	-5547
户外	-5548
北起	-5549
入境	-5550
豆瓣	-5551
所得税	-5552
商店	-5553
寿命	-5554
时期的	-5555
还是不错的	-5556
吃起来	-5557
EN	-5558
龙头	-5559
▁随着	-5560
这一点	-5561
奋斗	-5562
为其	-5563
占地	-5564
情形	-5565
三个月	-5566
在新	-5567
斯克	-5568
相结合	-5569
遵守	-5570
会计师	-5571
人力资源	-5572
并以	-5573
焦点	-5574
不论	-5575
满满	-5576
生气	-5577
光谱	-5578
街头	-5579
辣的	-5580
就去	-5581
与接壤的市镇	-5582
万达	-5583
北美	-5584
的一家	-5585
的消息	-5586
送到	-5587
阿姨	-5588
还有一个	-5589
矩阵	-5590
负面	-5591
ical	-5592
布林带	-5593
医师	-5594
气氛	-5595
印尼	-5596
▁x	-5597
哪怕	-5598
热的	-5599
.”	-5600
军区	-5601
▁当时	-5602
上看	-5603
评选	-5604
拆除	-5605
▁林	-5606
点心	-5607
一小	-5608
店面	-5609
行政区划	-5610
征收	-5611
真相	-5612
、、	-5613
而来	-5614
形成的	-5615
大厅	-5616
中心的	-5617
再去	-5618
远远	-5619
MM	-5620
内涵	-5621
正规	-5622
可以用	-5623
户籍	-5624
布置	-5625
唯一的	-5626
条约	-5627
原因是	-5628
排行榜	-5629
打折	-5630
歧视	-5631
可以通过	-5632
柏林	-5633
全是	-5634
剩下	-5635
促销	-5636
陌生	-5637
承载	-5638
幸运	-5639
牌子	-5640
Th	-5641
家庄	-5642
印刷	-5643
学期	-5644
▁国家	-5645
ode	-5646
▁直	-5647
为基础	-5648
门槛	-5649
中等	-5650
我个人	-5651
最多的	-5652
潮流	-5653
毛泽	-5654
”:	-5655
只好	-5656
▁i	-5657
想去	-5658
口腔	-5659
第九	-5660
护肤	-5661
优雅	-5662
丹麦	-5663
公寓	-5664
宽松	-5665
碰撞	-5666
误导	-5667
他还	-5668
肌肤	-5669
代表大会	-5670
划分	-5671
的上	-5672
爱吃	-5673
文物保护	-5674
询问	-5675
意为	-5676
百货	-5677
气囊	-5678
价位	-5679
红包	-5680
温馨	-5681
绘画	-5682
也挺	-5683
两个月	-5684
个百分点	-5685
杀人	-5686
▁安	-5687
室友	-5688
社会的	-5689
就说	-5690
可以说	-5691
一百	-5692
Cl	-5693
▁被	-5694
潜在	-5695
两侧	-5696
米尔	-5697
两国	-5698
的所有	-5699
条款	-5700
VD	-5701
太子	-5702
补助	-5703
的钱	-5704
抗议	-5705
ef	-5706
pm	-5707
五大	-5708
的状态	-5709
保安	-5710
模特	-5711
到处	-5712
附加	-5713
第二个	-5714
所以我	-5715
特别的	-5716
皇后	-5717
都不会	-5718
司马	-5719
科目	-5720
词汇	-5721
组织的	-5722
不下	-5723
借鉴	-5724
和你	-5725
▁每	-5726
检察院	-5727
机遇	-5728
队友	-5729
网易	-5730
一杯	-5731
南宁	-5732
毛泽东	-5733
游戏的	-5734
假期	-5735
告知	-5736
疑问	-5737
索尼	-5738
告诉你	-5739
玛丽	-5740
潜力	-5741
意的	-5742
给自己	-5743
实的	-5744
日线	-5745
实质	-5746
上次	-5747
吃吃	-5748
关键词	-5749
后视镜	-5750
人文	-5751
页面	-5752
其实是	-5753
DA	-5754
探测	-5755
陈述	-5756
▁外	-5757
出资	-5758
懂得	-5759
光学	-5760
长达	-5761
ons	-5762
》()	-5763
▁下	-5764
盛顿	-5765
尔夫	-5766
SC	-5767
引领	-5768
信贷	-5769
码头	-5770
▁记者	-5771
看到的	-5772
酱油	-5773
颜值	-5774
有两个	-5775
希望能	-5776
经费	-5777
声称	-5778
专科	-5779
称号	-5780
现代化	-5781
三国	-5782
全民	-5783
靠谱	-5784
湖南省	-5785
纪律	-5786
恐惧	-5787
分析师	-5788
电流	-5789
率先	-5790
开放式	-5791
颁布	-5792
▁管理学	-5793
历任	-5794
▁红	-5795
的过程中	-5796
但他	-5797
目录	-5798
---------------	-5799
爱好者	-5800
介入	-5801
十足	-5802
anc	-5803
事后	-5804
来自于	-5805
个点	-5806
典型的	-5807
有些人	-5808
书法	-5809
火山	-5810
哪儿	-5811
▁总	-5812
学生的	-5813
布拉	-5814
不利	-5815
团结	-5816
受益	-5817
诞生	-5818
少的	-5819
马路	-5820
一一	-5821
付款	-5822
目的是	-5823
GA	-5824
除非	-5825
遇见	-5826
意识到	-5827
收视	-5828
立体	-5829
也可	-5830
落后	-5831
野生	-5832
无锡	-5833
尽快	-5834
的游戏	-5835
▁结果	-5836
人人	-5837
立刻	-5838
衍生	-5839
出场	-5840
政权	-5841
复印	-5842
脾气	-5843
扭矩	-5844
人次	-5845
标的	-5846
沙发	-5847
小伙伴	-5848
白天	-5849
太原	-5850
爱心	-5851
首批	-5852
十四	-5853
战士	-5854
预告	-5855
长征	-5856
单词	-5857
供应商	-5858
钥匙	-5859
仍在	-5860
有过	-5861
两岸	-5862
iss	-5863
原来的	-5864
有人说	-5865
年人口	-5866
之后的	-5867
贵族	-5868
给人	-5869
你在	-5870
借款	-5871
分散	-5872
命名为	-5873
材质	-5874
芝麻	-5875
抓住	-5876
删除	-5877
全长	-5878
功夫	-5879
▁圣	-5880
才发现	-5881
以色列	-5882
种族	-5883
的照片	-5884
灯光	-5885
别墅	-5886
法治	-5887
据悉	-5888
正义	-5889
日益	-5890
找个	-5891
普通的	-5892
▁通过	-5893
不开	-5894
备案	-5895
ys	-5896
把自己	-5897
over	-5898
极大	-5899
二楼	-5900
保罗	-5901
神话	-5902
洛杉	-5903
------	-5904
睡眠	-5905
水泥	-5906
白菜	-5907
北海	-5908
异地	-5909
▁我的	-5910
极限	-5911
经历了	-5912
碰到	-5913
资产管理	-5914
NO	-5915
哥伦	-5916
地域	-5917
这时	-5918
长得	-5919
出具	-5920
iversity	-5921
河北省	-5922
盆地	-5923
其中包括	-5924
手的	-5925
激动	-5926
太多了	-5927
剧本	-5928
朝阳	-5929
电器	-5930
起诉	-5931
可持续	-5932
公布的	-5933
审判	-5934
立场	-5935
篇文章	-5936
own	-5937
洛杉矶	-5938
乐视	-5939
动脉	-5940
法庭	-5941
port	-5942
脱离	-5943
柠檬	-5944
.....	-5945
喝酒	-5946
企业家	-5947
这段	-5948
的使用	-5949
途中	-5950
八年	-5951
暴露	-5952
pt	-5953
一碗	-5954
MV	-5955
之子	-5956
清洗	-5957
全身	-5958
几个月	-5959
的开	-5960
极其	-5961
国土	-5962
的支持	-5963
储备	-5964
电压	-5965
香味	-5966
▁于是	-5967
对自己	-5968
录音	-5969
推荐的	-5970
种种	-5971
喜爱	-5972
点半	-5973
谨慎	-5974
的目标	-5975
书中	-5976
以内	-5977
行程	-5978
▁请	-5979
是为	-5980
同样的	-5981
加了	-5982
比起	-5983
是非常	-5984
奥地利	-5985
典礼	-5986
克拉	-5987
忍不住	-5988
红利	-5989
亚历	-5990
年度报告	-5991
就很	-5992
较大的	-5993
联合会	-5994
搭建	-5995
领取	-5996
一遍	-5997
早已	-5998
剧场	-5999
美好	-6000
常态	-6001
-----	-6002
耳机	-6003
文中	-6004
发酵	-6005
一定的	-6006
跟随	-6007
乃至	-6008
仅有	-6009
▁这里	-6010
深的	-6011
使其	-6012
交所	-6013
矿业	-6014
溶液	-6015
电动车	-6016
决心	-6017
疗效	-6018
拿出	-6019
克里	-6020
抱怨	-6021
优惠政策	-6022
的选择	-6023
家乡	-6024
的双	-6025
空单	-6026
发型	-6027
气体	-6028
科的	-6029
▁not	-6030
英镑	-6031
来源于	-6032
奢侈	-6033
说什么	-6034
让他们	-6035
关注的	-6036
yth	-6037
就行	-6038
军的	-6039
ED	-6040
看好	-6041
某某	-6042
协商	-6043
浓郁	-6044
南至	-6045
起码	-6046
数十	-6047
DJ	-6048
志愿者	-6049
平板	-6050
方言	-6051
那时	-6052
酒吧	-6053
▁ex	-6054
方位	-6055
莫斯科	-6056
也比较	-6057
样本	-6058
没事	-6059
管道	-6060
ree	-6061
日语	-6062
玩笑	-6063
有关规定	-6064
的概念	-6065
做多	-6066
越来越多	-6067
没有人	-6068
光绪	-6069
默默	-6070
健全	-6071
▁一般	-6072
借助	-6073
上演	-6074
了一次	-6075
我认为	-6076
摄影师	-6077
初始	-6078
华盛顿	-6079
环比	-6080
斯塔	-6081
的音乐	-6082
三天	-6083
投资人	-6084
适用于	-6085
热爱	-6086
资助	-6087
▁同时	-6088
港口	-6089
入学	-6090
埃尔	-6091
yle	-6092
呼吁	-6093
部件	-6094
山大	-6095
品的	-6096
TM	-6097
唱歌	-6098
高管	-6099
打了	-6100
两大	-6101
味道不错	-6102
好处	-6103
小于	-6104
市政	-6105
分公司	-6106
BO	-6107
是一家	-6108
孤独	-6109
▁等	-6110
这项	-6111
牺牲	-6112
流传	-6113
日后	-6114
▁开	-6115
残疾	-6116
情侣	-6117
感受到	-6118
光明	-6119
情人	-6120
进来	-6121
动力学	-6122
qq	-6123
一期	-6124
冒险	-6125
兴奋	-6126
轮胎	-6127
下属	-6128
大队	-6129
养生	-6130
公分	-6131
混乱	-6132
代谢	-6133
逮捕	-6134
学费	-6135
精确	-6136
博览	-6137
····	-6138
====	-6139
%.	-6140
法的	-6141
斗争	-6142
独家	-6143
隐患	-6144
水利	-6145
▁除了	-6146
找到了	-6147
还是要	-6148
不愿意	-6149
▁杨	-6150
ics	-6151
之内	-6152
福建省	-6153
灾害	-6154
走出	-6155
始建于	-6156
模仿	-6157
东路	-6158
IM	-6159
之际	-6160
都知道	-6161
黑暗	-6162
的一座	-6163
时间为	-6164
行人	-6165
mer	-6166
心中	-6167
高压	-6168
吵架	-6169
总量	-6170
键盘	-6171
中国经济	-6172
形的	-6173
观光	-6174
▁&	-6175
多年的	-6176
类似于	-6177
早在	-6178
终点	-6179
在全国	-6180
改制	-6181
安徽省	-6182
的比例	-6183
▁教育学	-6184
院士	-6185
跟他	-6186
不仅仅	-6187
徒刑	-6188
社保	-6189
哈哈哈	-6190
▁do	-6191
智商	-6192
里面有	-6193
aw	-6194
民主党	-6195
个小	-6196
城的	-6197
车道	-6198
詹姆斯	-6199
兼任	-6200
PA	-6201
一点点	-6202
进行的	-6203
目前的	-6204
幻想	-6205
微笑	-6206
视野	-6207
领土	-6208
河畔	-6209
赠送	-6210
最重要的	-6211
及以上	-6212
鸡翅	-6213
近代	-6214
自从	-6215
下车	-6216
▁Sh	-6217
演奏	-6218
站台	-6219
之旅	-6220
纪录片	-6221
生产的	-6222
球会	-6223
来这里	-6224
知识产权	-6225
文物保护单位	-6226
说过	-6227
航线	-6228
步行	-6229
多久	-6230
产生了	-6231
阵容	-6232
商业银行	-6233
但是在	-6234
好奇	-6235
牛仔	-6236
我们在	-6237
跌幅	-6238
图案	-6239
监狱	-6240
ous	-6241
任意	-6242
那是	-6243
女的	-6244
护士	-6245
和朋友	-6246
亦有	-6247
新人	-6248
无疑	-6249
较高的	-6250
密集	-6251
战场	-6252
年以来	-6253
湿地	-6254
等的	-6255
org	-6256
优秀的	-6257
依托	-6258
甜的	-6259
之战	-6260
率领	-6261
难题	-6262
姐妹	-6263
缅甸	-6264
苏格兰	-6265
布尔	-6266
放心	-6267
三人	-6268
马克思	-6269
tr	-6270
年到	-6271
《》	-6272
克莱	-6273
三维	-6274
演化	-6275
CS	-6276
low	-6277
打包	-6278
渗透	-6279
正确的	-6280
狮子	-6281
新技术	-6282
产物	-6283
的人员	-6284
世界的	-6285
是怎么	-6286
概要	-6287
写了	-6288
战术	-6289
一日	-6290
推出了	-6291
站的	-6292
对他	-6293
天地	-6294
我没有	-6295
党组	-6296
新西兰	-6297
乐园	-6298
维生素	-6299
最有	-6300
的同	-6301
我有	-6302
pl	-6303
ci	-6304
料理	-6305
的标准	-6306
就好了	-6307
还挺	-6308
修建	-6309
分裂	-6310
云南省	-6311
是用	-6312
内阁	-6313
igh	-6314
▁he	-6315
里亚	-6316
电网	-6317
动能	-6318
▁第三	-6319
净化	-6320
全新的	-6321
并入	-6322
假日	-6323
耐心	-6324
拿下	-6325
自称	-6326
关系的	-6327
激素	-6328
线城市	-6329
只不过	-6330
卖出	-6331
港元	-6332
报导	-6333
好评	-6334
烤肉	-6335
答应	-6336
水中	-6337
就想	-6338
名人	-6339
防范	-6340
做一个	-6341
研制	-6342
登场	-6343
尚书	-6344
宠物	-6345
为中国	-6346
利润分配	-6347
计量	-6348
划算	-6349
类别	-6350
作物	-6351
孩子们	-6352
参谋	-6353
最爱	-6354
配音	-6355
ese	-6356
的原则	-6357
担当	-6358
地带	-6359
这也	-6360
科普	-6361
晚间	-6362
被判	-6363
px	-6364
月中	-6365
均有	-6366
更大的	-6367
的风险	-6368
▁我想	-6369
大选	-6370
的前提	-6371
古老	-6372
与此	-6373
就把	-6374
手法	-6375
相同的	-6376
了下	-6377
企业会计准则第	-6378
无聊	-6379
争夺	-6380
举办的	-6381
解答	-6382
上行	-6383
体检	-6384
BM	-6385
客户端	-6386
摇滚	-6387
的表现	-6388
高三	-6389
网民	-6390
航空公司	-6391
车内	-6392
圣诞	-6393
门店	-6394
▁+	-6395
永久	-6396
的关键	-6397
一轮	-6398
外界	-6399
当你	-6400
地方政府	-6401
完整的	-6402
干预	-6403
庆祝	-6404
温柔	-6405
服务业	-6406
什么时候	-6407
隔壁	-6408
知的	-6409
较多	-6410
赞助	-6411
高清	-6412
过后	-6413
美联储	-6414
转发	-6415
的经济	-6416
为你	-6417
Hz	-6418
英尺	-6419
完工	-6420
被认为是	-6421
头部	-6422
我喜欢	-6423
筛选	-6424
新城	-6425
的一切	-6426
石化	-6427
点赞	-6428
▁免费	-6429
评分	-6430
要有	-6431
学士	-6432
Ar	-6433
源自	-6434
ao	-6435
▁Q	-6436
国庆	-6437
一直是	-6438
▁大家	-6439
开发区	-6440
不含	-6441
研究员	-6442
的特点	-6443
攻略	-6444
奥迪	-6445
随即	-6446
总书记	-6447
吸附	-6448
薪酬	-6449
救助	-6450
▁your	-6451
专栏	-6452
的菜	-6453
带来了	-6454
说他	-6455
日正式	-6456
流域	-6457
蘑菇	-6458
图中	-6459
法人	-6460
牙齿	-6461
▁那么	-6462
均价	-6463
名词	-6464
山脉	-6465
甜品	-6466
急性	-6467
联想	-6468
热闹	-6469
一般般	-6470
就这样	-6471
▁刚	-6472
疫苗	-6473
演技	-6474
平常	-6475
发光	-6476
批判	-6477
atch	-6478
自觉	-6479
的风	-6480
城堡	-6481
干燥	-6482
大西洋	-6483
高兴	-6484
指令	-6485
较好	-6486
奥巴马	-6487
宝贝	-6488
仍有	-6489
如同	-6490
常委会	-6491
过年	-6492
楼上	-6493
af	-6494
民政	-6495
纯粹	-6496
不怎么	-6497
男的	-6498
统筹	-6499
有一点	-6500
lass	-6501
资质	-6502
缴纳	-6503
▁不是	-6504
巨头	-6505
万公里	-6506
做什么	-6507
隐藏	-6508
二战	-6509
身亡	-6510
前进	-6511
▁到	-6512
讲解	-6513
AA	-6514
可谓	-6515
和她	-6516
结构的	-6517
操作建议	-6518
了不少	-6519
画家	-6520
外交部	-6521
福特	-6522
多单	-6523
午餐	-6524
的功能	-6525
并无	-6526
教室	-6527
楼下	-6528
额度	-6529
感的	-6530
爱国	-6531
外地	-6532
考古	-6533
过渡	-6534
Android	-6535
金钱	-6536
无需	-6537
日凌晨	-6538
ash	-6539
资深	-6540
非常好	-6541
ational	-6542
异性	-6543
体积	-6544
在了	-6545
▁推荐	-6546
Un	-6547
这场	-6548
上年	-6549
ru	-6550
区内	-6551
南路	-6552
女孩子	-6553
年由	-6554
▁铝合金	-6555
前提	-6556
Pro	-6557
麦克	-6558
口的	-6559
比我	-6560
有点小	-6561
手游	-6562
orld	-6563
联络	-6564
数码	-6565
激发	-6566
染色	-6567
演艺	-6568
气旋	-6569
死后	-6570
灰色	-6571
说实话	-6572
陆地	-6573
海关	-6574
美军	-6575
装甲	-6576
相对于	-6577
鉴于	-6578
巡视	-6579
▁基金	-6580
珍珠	-6581
分开	-6582
爆料	-6583
类似的	-6584
▁东	-6585
住宿	-6586
闺蜜	-6587
日开始	-6588
邮箱	-6589
场合	-6590
犹豫	-6591
觉得很	-6592
NBA	-6593
平稳	-6594
▁香港	-6595
这座	-6596
均衡	-6597
的了	-6598
离职	-6599
诚信	-6600
的安全	-6601
条件的	-6602
cc	-6603
▁每次	-6604
驱逐	-6605
昨晚	-6606
遭受	-6607
推行	-6608
语的	-6609
媒体报道	-6610
给出了	-6611
IE	-6612
为每	-6613
挑选	-6614
抵抗	-6615
奶粉	-6616
半小时	-6617
结局	-6618
尔多	-6619
那就是	-6620
东北部	-6621
整车	-6622
分成	-6623
还是比较	-6624
HO	-6625
上菜	-6626
片的	-6627
建筑物	-6628
平米	-6629
的女人	-6630
到来	-6631
情况的	-6632
点多	-6633
在那里	-6634
化石	-6635
合理的	-6636
南瓜	-6637
▁如果你	-6638
床上	-6639
解散	-6640
之为	-6641
过去的	-6642
高位	-6643
集团有限公司	-6644
▁httpwww	-6645
期徒刑	-6646
▁黑	-6647
电站	-6648
隔离	-6649
分支	-6650
自一体	-6651
月起	-6652
大脑	-6653
一个是	-6654
东南亚	-6655
再来	-6656
里有	-6657
涡轮	-6658
公正	-6659
▁Ar	-6660
回头	-6661
商城	-6662
比利时	-6663
店内	-6664
另有	-6665
敌人	-6666
住院	-6667
最具	-6668
对你	-6669
百科	-6670
管制	-6671
的目的	-6672
我爸	-6673
高原	-6674
Google	-6675
得了	-6676
哥伦比亚	-6677
早就	-6678
表现出	-6679
车载	-6680
量化	-6681
化妆品	-6682
仿佛	-6683
东临	-6684
火灾	-6685
▁have	-6686
粒子	-6687
正常的	-6688
清水	-6689
强迫	-6690
特价	-6691
不确定	-6692
学金	-6693
七八	-6694
伊拉克	-6695
安卓	-6696
台北市	-6697
要了	-6698
酸奶	-6699
业务的	-6700
法案	-6701
自动化	-6702
骨头	-6703
擅长	-6704
;)	-6705
驾驶员	-6706
变革	-6707
他们家的	-6708
文鱼	-6709
西路	-6710
处长	-6711
扩散	-6712
基金资产净值	-6713
加利	-6714
什么样的	-6715
年和	-6716
我真的	-6717
失业	-6718
这张	-6719
同性恋	-6720
金额单位	-6721
道菜	-6722
内外	-6723
对中国	-6724
山的	-6725
癌症	-6726
研讨	-6727
男票	-6728
下调	-6729
分校	-6730
心灵	-6731
复印件	-6732
日电	-6733
又不	-6734
总数	-6735
的说法	-6736
▁可能	-6737
hans	-6738
▁自己	-6739
射击	-6740
已于	-6741
我已经	-6742
到期	-6743
迷茫	-6744
的反	-6745
▁喜欢	-6746
好像是	-6747
清新	-6748
交给	-6749
▁不要	-6750
son	-6751
将近	-6752
夜间	-6753
----------	-6754
康复	-6755
的女儿	-6756
建设的	-6757
HK	-6758
地形	-6759
回事	-6760
日本的	-6761
几点	-6762
套房	-6763
星级	-6764
根廷	-6765
▁非	-6766
巡回	-6767
的活动	-6768
营业收入	-6769
激情	-6770
真人	-6771
的应用	-6772
小镇	-6773
洛阳	-6774
DNA	-6775
杀死	-6776
克里斯	-6777
饺子	-6778
yst	-6779
米兰	-6780
职业生涯	-6781
是否有	-6782
起到	-6783
row	-6784
手指	-6785
本报告	-6786
最喜欢	-6787
▁from	-6788
用作	-6789
短暂	-6790
美国人	-6791
外卖	-6792
钻石	-6793
登上	-6794
紧密	-6795
最后的	-6796
相继	-6797
新股	-6798
ube	-6799
一根	-6800
平原	-6801
当事人	-6802
康熙	-6803
子上	-6804
注入	-6805
路人	-6806
不低于	-6807
路边	-6808
订阅哦	-6809
火爆	-6810
PM	-6811
的想法	-6812
两家	-6813
的比	-6814
治安	-6815
讲座	-6816
只想	-6817
此事	-6818
以便	-6819
)》	-6820
万平方米	-6821
疼痛	-6822
的无	-6823
尺度	-6824
的比较	-6825
VS	-6826
▁只是	-6827
▁■	-6828
欢乐	-6829
bl	-6830
的女生	-6831
发言人	-6832
乡试	-6833
油气	-6834
缓慢	-6835
枢纽	-6836
跟你	-6837
查处	-6838
龙虾	-6839
国家税务	-6840
黄河	-6841
店员	-6842
受理	-6843
时间的	-6844
遵循	-6845
不好意思	-6846
▁下面	-6847
算了	-6848
▁单	-6849
石家庄	-6850
▁每天	-6851
乐观	-6852
是可以	-6853
刹车	-6854
崛起	-6855
▁爱	-6856
erv	-6857
采访时	-6858
利的	-6859
▁把	-6860
一流	-6861
军团	-6862
特色的	-6863
没办法	-6864
第三次	-6865
之上	-6866
万桶	-6867
魔法	-6868
节日	-6869
仪器	-6870
▁这些	-6871
加入了	-6872
安置	-6873
用车	-6874
婆婆	-6875
年时	-6876
操作系统	-6877
记住	-6878
现今	-6879
外汇	-6880
就是一个	-6881
余人	-6882
汉族	-6883
涨停	-6884
但也	-6885
错过	-6886
公布了	-6887
章程	-6888
严肃	-6889
他被	-6890
除此	-6891
恒大	-6892
茄子	-6893
导向	-6894
的专业	-6895
OK	-6896
芬兰	-6897
极为	-6898
首位	-6899
ount	-6900
中海	-6901
食品安全	-6902
▁吃	-6903
我市	-6904
分局	-6905
没法	-6906
吉他	-6907
▁英国	-6908
布斯	-6909
截图	-6910
厚度	-6911
当地的	-6912
已经是	-6913
hk	-6914
机理	-6915
湖北省	-6916
红豆	-6917
伟大	-6918
分泌	-6919
日均线	-6920
久的	-6921
HR	-6922
公立	-6923
直升	-6924
克的	-6925
一楼	-6926
安慰	-6927
牵引	-6928
清华大学	-6929
主要有	-6930
年中国	-6931
新高	-6932
ual	-6933
依照	-6934
包子	-6935
中信	-6936
石头	-6937
◆◆◆◆◆◆◆◆◆◆◆◆◆◆◆◆	-6938
她是	-6939
富豪	-6940
防守	-6941
失踪	-6942
一台	-6943
女王	-6944
ta	-6945
所在地	-6946
了就	-6947
▁一直	-6948
感觉很	-6949
卡拉	-6950
▁会	-6951
公司在	-6952
为主题	-6953
突发	-6954
招标	-6955
县的	-6956
步兵	-6957
ech	-6958
特尔	-6959
嘿嘿	-6960
下半年	-6961
杠杆	-6962
产业发展	-6963
出战	-6964
上传	-6965
自己是	-6966
厂家	-6967
移动互联网	-6968
成品	-6969
▁很多	-6970
要在	-6971
背景下	-6972
市中心	-6973
兼职	-6974
引用	-6975
人心	-6976
值得一	-6977
手中	-6978
秋季	-6979
原名	-6980
厨师	-6981
可怕	-6982
的核心	-6983
今年的	-6984
选拔	-6985
评审	-6986
远程	-6987
减轻	-6988
不止	-6989
里程	-6990
更好地	-6991
笔记本	-6992
到大	-6993
他们家	-6994
副总裁	-6995
实业	-6996
小幅	-6997
满了	-6998
甲基	-6999
国家级	-7000
十月	-7001
▁期末	-7002
类型的	-7003
票价	-7004
羡慕	-7005
轨道交通	-7006
变量	-7007
电磁	-7008
聚焦	-7009
举人	-7010
▁去年	-7011
坚定	-7012
ould	-7013
友好	-7014
人是	-7015
感冒	-7016
护照	-7017
儿的	-7018
友谊	-7019
对称	-7020
周六	-7021
无效	-7022
▁北	-7023
to	-7024
鸡汤	-7025
斯顿	-7026
问答社区上	-7027
火星	-7028
me	-7029
一号	-7030
举措	-7031
的自	-7032
的声音	-7033
恶意	-7034
西北部	-7035
▁别	-7036
称作	-7037
公平交易	-7038
要去	-7039
分行	-7040
服务中心	-7041
迁移	-7042
降雨	-7043
开口	-7044
血压	-7045
TT	-7046
rou	-7047
▁将	-7048
课题	-7049
清淡	-7050
援助	-7051
lo	-7052
惊艳	-7053
万亿	-7054
▁今日	-7055
东南部	-7056
独立的	-7057
过滤	-7058
整改	-7059
农产品	-7060
用心	-7061
标准的	-7062
:"	-7063
都是在	-7064
三板	-7065
加以	-7066
困扰	-7067
压制	-7068
崩溃	-7069
CN	-7070
人与	-7071
一支	-7072
付费	-7073
我不知道	-7074
防护	-7075
断裂	-7076
态势	-7077
潜艇	-7078
发病	-7079
SM	-7080
▁罗	-7081
氨基	-7082
集中在	-7083
十九	-7084
的总	-7085
陕西省	-7086
疫情	-7087
处分	-7088
用水	-7089
是一部	-7090
三级	-7091
加拉	-7092
公安机关	-7093
摩托车	-7094
研究的	-7095
娃娃	-7096
开盘	-7097
终身	-7098
栽培	-7099
的光	-7100
也很好	-7101
德华	-7102
机构的	-7103
前来	-7104
中国人民解放军	-7105
CR	-7106
指引	-7107
水准	-7108
一时	-7109
对该	-7110
效力	-7111
▁--	-7112
上帝	-7113
走的	-7114
管理人员	-7115
挪威	-7116
克尔	-7117
流入	-7118
JR	-7119
得分	-7120
宁夏	-7121
召集	-7122
对策	-7123
剧集	-7124
噪声	-7125
马云	-7126
指责	-7127
裁判	-7128
香菇	-7129
来看看	-7130
▁这种	-7131
其在	-7132
东亚	-7133
绝大多数	-7134
平行	-7135
村落	-7136
以为是	-7137
应用于	-7138
山县	-7139
▁巴	-7140
出血	-7141
再生	-7142
伊利	-7143
偶然	-7144
ition	-7145
部部长	-7146
的面	-7147
▁为什么	-7148
使用了	-7149
分区	-7150
审美	-7151
未经	-7152
ric	-7153
我一直	-7154
轰炸	-7155
是没有	-7156
做饭	-7157
▁was	-7158
科技有限公司	-7159
进球	-7160
▁降	-7161
恶心	-7162
BD	-7163
次的	-7164
自己在	-7165
变为	-7166
累积	-7167
立案	-7168
中式	-7169
特意	-7170
主义者	-7171
我们就	-7172
服役	-7173
差的	-7174
晋级	-7175
工会	-7176
慢性	-7177
备受	-7178
解除	-7179
首发	-7180
次年	-7181
只需	-7182
草原	-7183
ild	-7184
清单	-7185
投降	-7186
黄瓜	-7187
搞笑	-7188
银河	-7189
不等	-7190
杰克	-7191
iew	-7192
之一的	-7193
生物学	-7194
广电	-7195
焦虑	-7196
的基础	-7197
事宜	-7198
▁比	-7199
御史	-7200
放到	-7201
的有效	-7202
able	-7203
简化	-7204
都不是	-7205
受贿	-7206
业余	-7207
金融资产	-7208
荣耀	-7209
间接	-7210
人多	-7211
阿根廷	-7212
ebook	-7213
发行的	-7214
书院	-7215
疲劳	-7216
体内	-7217
见证	-7218
▁正	-7219
周三	-7220
或者说	-7221
还是挺	-7222
合资	-7223
死刑	-7224
汉字	-7225
看书	-7226
酸盐	-7227
口碑	-7228
已成为	-7229
周四	-7230
老家	-7231
则为	-7232
中被	-7233
物价	-7234
着力	-7235
军人	-7236
同一个	-7237
路的	-7238
德拉	-7239
莫名	-7240
有助于	-7241
书店	-7242
该校	-7243
该方法	-7244
十七	-7245
样品	-7246
富士	-7247
办公厅	-7248
中级	-7249
硬盘	-7250
物资	-7251
可以看到	-7252
周二	-7253
污水	-7254
大批	-7255
过去了	-7256
HP	-7257
全线	-7258
ject	-7259
追溯	-7260
入围	-7261
见的	-7262
迹象	-7263
的存在	-7264
逛街	-7265
就知道	-7266
电机	-7267
起步	-7268
▁真	-7269
高手	-7270
获利	-7271
一枚	-7272
国际机场	-7273
匿名	-7274
侵权	-7275
扶持	-7276
非常的	-7277
点菜	-7278
开发的	-7279
较好的	-7280
关联交易	-7281
日治	-7282
货运	-7283
一辈子	-7284
▁历史	-7285
制片	-7286
lic	-7287
器官	-7288
还是有	-7289
互联	-7290
速率	-7291
起来的	-7292
葡萄酒	-7293
平台的	-7294
也算	-7295
称呼	-7296
EIA	-7297
▁zh	-7298
的都是	-7299
淀粉	-7300
部门的	-7301
;}-	-7302
鱼类	-7303
这是一个	-7304
文科	-7305
当下	-7306
派遣	-7307
名校	-7308
合适的	-7309
剩下的	-7310
与中国	-7311
net	-7312
和一个	-7313
担忧	-7314
晚报	-7315
涨价	-7316
代表团	-7317
尝尝	-7318
排序	-7319
品牌的	-7320
ier	-7321
帮你	-7322
博客	-7323
观赏	-7324
先锋	-7325
很香	-7326
欲望	-7327
马拉松	-7328
最大功率	-7329
定向	-7330
入手	-7331
此类	-7332
ty	-7333
业内人士	-7334
光伏	-7335
当场	-7336
西南部	-7337
du	-7338
营收	-7339
滤波	-7340
前者	-7341
红烧	-7342
原先	-7343
金刚	-7344
尼亚州	-7345
交易日	-7346
气息	-7347
下游	-7348
笔试	-7349
通过了	-7350
▁吴	-7351
的速度	-7352
说你	-7353
可乐	-7354
流动性	-7355
▁本来	-7356
PO	-7357
已经有	-7358
荣获	-7359
征求	-7360
北路	-7361
UN	-7362
大了	-7363
换乘	-7364
出品	-7365
零食	-7366
橄榄	-7367
年美国人口普查	-7368
应届	-7369
足以	-7370
业界	-7371
如果有	-7372
还是蛮	-7373
是他	-7374
经济增长	-7375
用户的	-7376
南非	-7377
等多	-7378
周岁	-7379
晋升	-7380
use	-7381
利好	-7382
炒饭	-7383
张家	-7384
▁此外	-7385
不一定	-7386
预定	-7387
将成为	-7388
奇葩	-7389
教程	-7390
分辨率	-7391
跟我说	-7392
评级	-7393
了吗	-7394
我又	-7395
五花	-7396
就觉得	-7397
的现象	-7398
江湖	-7399
短线	-7400
岛屿	-7401
考验	-7402
之地	-7403
意愿	-7404
国道	-7405
▁其他	-7406
在校	-7407
开拓	-7408
缩短	-7409
破产	-7410
起义	-7411
监督管理	-7412
首相	-7413
olog	-7414
假如	-7415
DE	-7416
多头	-7417
万历	-7418
成年人	-7419
反射	-7420
在前	-7421
以来的	-7422
时不	-7423
指控	-7424
基金的	-7425
处女	-7426
近年	-7427
-------	-7428
乌鲁	-7429
微博上	-7430
款式	-7431
还蛮	-7432
远离	-7433
程序员	-7434
强行	-7435
边境	-7436
已经被	-7437
是香港	-7438
动的	-7439
圆形	-7440
差点	-7441
宾馆	-7442
解决了	-7443
战队	-7444
强奸	-7445
旗下的	-7446
计入	-7447
网球	-7448
寝室	-7449
做个	-7450
人性	-7451
VT	-7452
得多	-7453
赎回	-7454
叙利亚	-7455
开始了	-7456
岩石	-7457
复杂的	-7458
商人	-7459
两条	-7460
怎样的	-7461
实战	-7462
流浪	-7463
眼里	-7464
能力的	-7465
月球	-7466
pro	-7467
的第	-7468
oss	-7469
亨利	-7470
楼盘	-7471
不管是	-7472
勇气	-7473
亚军	-7474
往返	-7475
事儿	-7476
一方	-7477
和中国	-7478
不着	-7479
不愿	-7480
rit	-7481
债券型证券投资基金	-7482
我们要	-7483
组成部分	-7484
在本	-7485
再到	-7486
好吧	-7487
执政	-7488
每股	-7489
这种情况	-7490
后果	-7491
需要的	-7492
战胜	-7493
社团	-7494
手工	-7495
调料	-7496
不受	-7497
好几	-7498
盒子	-7499
这份	-7500
原文	-7501
绩效	-7502
yn	-7503
出炉	-7504
▁la	-7505
想知道	-7506
中小企业	-7507
想过	-7508
邻居	-7509
体育场	-7510
首付	-7511
抵押	-7512
线索	-7513
夸张	-7514
格里	-7515
▁my	-7516
不吃	-7517
无意	-7518
遗漏	-7519
不爱	-7520
精华	-7521
和服务	-7522
号称	-7523
它们的	-7524
记者从	-7525
知县	-7526
我省	-7527
RT	-7528
▁希望	-7529
制作的	-7530
在意	-7531
注明	-7532
布莱	-7533
公示	-7534
提起	-7535
升高	-7536
人大常委会	-7537
城管	-7538
期刊	-7539
联通	-7540
一波	-7541
善良	-7542
交汇	-7543
局局长	-7544
基金托管人	-7545
布朗	-7546
成立了	-7547
树立	-7548
历程	-7549
供应链	-7550
球季	-7551
的精神	-7552
总觉得	-7553
车上	-7554
出自	-7555
度和	-7556
跨越	-7557
暗示	-7558
周刊	-7559
必须要	-7560
问问	-7561
是一座	-7562
前排	-7563
服饰	-7564
的国际	-7565
东海	-7566
批发	-7567
一道	-7568
洗澡	-7569
演绎	-7570
res	-7571
左右的	-7572
不好的	-7573
】:	-7574
餐馆	-7575
审理	-7576
年中	-7577
液晶	-7578
对了	-7579
毫不	-7580
GP	-7581
GO	-7582
脸上	-7583
基金管理有限公司	-7584
名额	-7585
机票	-7586
亲王	-7587
回调	-7588
系的	-7589
钱的	-7590
偷偷	-7591
只有一	-7592
常用	-7593
当作	-7594
陪伴	-7595
的文章	-7596
地说	-7597
才有	-7598
的角色	-7599
三文鱼	-7600
陶瓷	-7601
对着	-7602
少数民族	-7603
分红	-7604
其中一个	-7605
已经在	-7606
稳定的	-7607
CF	-7608
图形	-7609
杀害	-7610
机身	-7611
海口	-7612
膨胀	-7613
发音	-7614
▁采用	-7615
北京大学	-7616
华丽	-7617
)、《	-7618
唐朝	-7619
供电	-7620
似的	-7621
家常	-7622
的女性	-7623
小朋友	-7624
摩擦	-7625
一体化	-7626
飓风	-7627
▁都	-7628
忽视	-7629
众筹	-7630
omm	-7631
成立的	-7632
村庄	-7633
看待	-7634
的空间	-7635
提议	-7636
能力和	-7637
说到	-7638
同盟	-7639
法兰西	-7640
二代	-7641
非线性	-7642
看似	-7643
依次	-7644
为期	-7645
星座	-7646
捐赠	-7647
细腻	-7648
超声	-7649
ms	-7650
的一条	-7651
是被	-7652
包围	-7653
领事	-7654
起源	-7655
一句话	-7656
天猫	-7657
增压	-7658
物联网	-7659
奥尔	-7660
汉堡	-7661
这就	-7662
换了	-7663
珠宝	-7664
姿势	-7665
虾仁	-7666
年末	-7667
得到的	-7668
上面的	-7669
熊猫	-7670
停牌	-7671
新车	-7672
占有	-7673
他与	-7674
空头	-7675
江西省	-7676
定居	-7677
死叉	-7678
有序	-7679
婚纱	-7680
渴望	-7681
带的	-7682
家电	-7683
法语	-7684
半个	-7685
整天	-7686
证件	-7687
苏宁	-7688
顶尖	-7689
美好的	-7690
山西省	-7691
浦东	-7692
进化	-7693
文本	-7694
其中的	-7695
马里	-7696
成效	-7697
......”	-7698
▁日前	-7699
其他人	-7700
独自	-7701
我看	-7702
政务	-7703
病的	-7704
他和	-7705
▁tr	-7706
六个	-7707
AS	-7708
迷你	-7709
高尔夫	-7710
HD	-7711
You	-7712
享有	-7713
电影节	-7714
早点	-7715
正当	-7716
acebook	-7717
的分析	-7718
any	-7719
决于	-7720
愤怒	-7721
军官	-7722
子和	-7723
共识	-7724
有关部门	-7725
LC	-7726
洛克	-7727
位于该国	-7728
副部长	-7729
后台	-7730
县的一个	-7731
土木	-7732
的各种	-7733
参照	-7734
晚餐	-7735
沿线	-7736
莱坞	-7737
民航	-7738
精心	-7739
面条	-7740
半夜	-7741
缺少	-7742
Tr	-7743
此站	-7744
风情	-7745
olor	-7746
把它	-7747
】【	-7748
三四	-7749
优越	-7750
总共	-7751
匈牙	-7752
没了	-7753
限购	-7754
了一点	-7755
中原	-7756
雾霾	-7757
▁卡	-7758
red	-7759
失去了	-7760
中的应用	-7761
四季	-7762
.(	-7763
伦理	-7764
inux	-7765
不幸	-7766
在台湾	-7767
底部	-7768
主观	-7769
打扮	-7770
▁can	-7771
评为	-7772
的就	-7773
停电	-7774
称之为	-7775
尼克	-7776
ings	-7777
ble	-7778
▁至于	-7779
的儿子	-7780
-------------	-7781
结果显示	-7782
时间内	-7783
车厢	-7784
代言	-7785
节约	-7786
万科	-7787
撞击	-7788
对阵	-7789
亲子	-7790
物理学	-7791
够了	-7792
受到了	-7793
有问题	-7794
基斯坦	-7795
人死亡	-7796
运气	-7797
一顿	-7798
ME	-7799
山路	-7800
抗战	-7801
标记	-7802
锅底	-7803
尸体	-7804
远的	-7805
的不同	-7806
建国	-7807
上游	-7808
天津市	-7809
水分	-7810
ba	-7811
领导干部	-7812
馄饨	-7813
创业者	-7814
ins	-7815
万的	-7816
有种	-7817
去除	-7818
诱惑	-7819
-----------	-7820
的那个	-7821
鱼头	-7822
原有	-7823
春天	-7824
姿态	-7825
大三	-7826
穿过	-7827
第一位	-7828
爵士	-7829
大夫	-7830
股本	-7831
主播	-7832
一次性	-7833
德语	-7834
在内	-7835
没啥	-7836
数百	-7837
arg	-7838
发现的	-7839
在学校	-7840
进军	-7841
西接	-7842
淡水	-7843
全家	-7844
DI	-7845
一颗	-7846
售后	-7847
贬值	-7848
货车	-7849
我就是	-7850
同行	-7851
▁做	-7852
参选	-7853
投资的	-7854
政策的	-7855
会出现	-7856
↓↓	-7857
较小	-7858
太太	-7859
最新的	-7860
佛罗	-7861
进度	-7862
DVD	-7863
之时	-7864
动员	-7865
股票型证券投资基金	-7866
包裹	-7867
除外	-7868
君主	-7869
rpm	-7870
各方	-7871
一下子	-7872
科幻	-7873
工作者	-7874
延迟	-7875
楼梯	-7876
受不了	-7877
宣称	-7878
▁现价	-7879
容积	-7880
ck	-7881
从中	-7882
困境	-7883
公爵	-7884
胡萝卜	-7885
▁女	-7886
尼尔	-7887
山市	-7888
还是可以	-7889
取决于	-7890
水晶	-7891
侵犯	-7892
朝廷	-7893
不适合	-7894
在那	-7895
音响	-7896
席位	-7897
亦是	-7898
教育的	-7899
承包	-7900
木齐	-7901
自身的	-7902
以北	-7903
沙特	-7904
热水	-7905
▁地址	-7906
这个时候	-7907
▁拉	-7908
只需要	-7909
玩法	-7910
内在	-7911
指的是	-7912
奥斯卡	-7913
车队	-7914
螺旋	-7915
路面	-7916
不符合	-7917
下面的	-7918
越野	-7919
组的	-7920
▁信息	-7921
派的	-7922
form	-7923
使命	-7924
直属	-7925
繁殖	-7926
▁we	-7927
刺史	-7928
乌鲁木齐	-7929
口水	-7930
温和	-7931
无比	-7932
基亚	-7933
媳妇	-7934
enter	-7935
政法	-7936
的来说	-7937
▁主要	-7938
有意	-7939
看得	-7940
春秋	-7941
理科	-7942
相亲	-7943
坏了	-7944
▁深	-7945
草案	-7946
精灵	-7947
enc	-7948
首届	-7949
···	-7950
首播	-7951
必要的	-7952
无力	-7953
国家和	-7954
建模	-7955
足协	-7956
武术	-7957
副局长	-7958
的人物	-7959
ife	-7960
科院	-7961
ton	-7962
--------------	-7963
绝望	-7964
与此同时	-7965
时空	-7966
行走	-7967
过敏	-7968
改良	-7969
改名为	-7970
颠覆	-7971
主义的	-7972
华东	-7973
说要	-7974
隶属	-7975
非公开发行	-7976
时装	-7977
死的	-7978
AV	-7979
服务态度	-7980
立马	-7981
UI	-7982
即时	-7983
人大代表	-7984
阳县	-7985
啊啊	-7986
便宜的	-7987
恶劣	-7988
晚饭	-7989
预案	-7990
美金	-7991
低调	-7992
胡椒	-7993
临近	-7994
眼神	-7995
荧光	-7996
标本	-7997
合作伙伴	-7998
诗人	-7999
les	-8000
▁Tr	-8001
生活在	-8002
三是	-8003
可供	-8004
自学	-8005
还得	-8006
春季	-8007
移植	-8008
可怜	-8009
力和	-8010
宽度	-8011
重庆市	-8012
震撼	-8013
特里	-8014
消灭	-8015
核准	-8016
底层	-8017
中毒	-8018
明朝政治人物	-8019
pH	-8020
赋予	-8021
除此之外	-8022
嘉靖	-8023
Mac	-8024
医学院	-8025
投放	-8026
从来没有	-8027
the	-8028
糖尿	-8029
博士学位	-8030
步枪	-8031
塑造	-8032
购车	-8033
仅为	-8034
银行卡	-8035
完毕	-8036
明的	-8037
扩建	-8038
为由	-8039
达尔	-8040
浏览器	-8041
拘留	-8042
一词	-8043
脱贫	-8044
字体	-8045
法制	-8046
特区	-8047
巡航	-8048
西侧	-8049
但却	-8050
铁矿	-8051
跨境	-8052
个人的	-8053
书的	-8054
co	-8055
前一	-8056
抢救	-8057
是你	-8058
选了	-8059
价的	-8060
答题	-8061
改装	-8062
天空	-8063
着的	-8064
相关部门	-8065
可行	-8066
后被	-8067
不断的	-8068
%(	-8069
.“	-8070
基金经理	-8071
稳健	-8072
价值的	-8073
初级	-8074
店家	-8075
直升机	-8076
省政府	-8077
征服	-8078
定为	-8079
ople	-8080
卢瓦尔省	-8081
一起去	-8082
▁或者	-8083
▁跟	-8084
送的	-8085
▁And	-8086
人工智能	-8087
克强	-8088
找工作	-8089
总面积	-8090
的大型	-8091
环境保护	-8092
LG	-8093
是一款	-8094
的话题	-8095
届时	-8096
下一个	-8097
洗衣	-8098
携手	-8099
受损	-8100
成像	-8101
租房	-8102
阶层	-8103
哈佛	-8104
就是在	-8105
li	-8106
▁谢谢	-8107
邻近	-8108
轻易	-8109
po	-8110
等着	-8111
进行分析	-8112
雕塑	-8113
。。	-8114
录制	-8115
本线	-8116
日本人	-8117
这时候	-8118
便是	-8119
切尔	-8120
守护	-8121
封面	-8122
---------	-8123
优惠券	-8124
语法	-8125
陨石	-8126
几百	-8127
农场	-8128
时常	-8129
另一种	-8130
的管理	-8131
ram	-8132
负责管辖	-8133
作风	-8134
选取	-8135
开发者	-8136
匈牙利	-8137
功效	-8138
园艺	-8139
随之	-8140
合伙人	-8141
诸如	-8142
工作中	-8143
的成绩	-8144
较少	-8145
不清楚	-8146
很重要	-8147
诺贝尔	-8148
五月	-8149
有期徒刑	-8150
ally	-8151
萨尔	-8152
在上	-8153
ner	-8154
新能源汽车	-8155
无可	-8156
因为是	-8157
kW	-8158
建筑师	-8159
所有人	-8160
实地	-8161
过得	-8162
▁will	-8163
▁只	-8164
停靠	-8165
au	-8166
大同	-8167
齐全	-8168
edia	-8169
不让	-8170
感觉到	-8171
新媒体	-8172
快餐	-8173
可以去	-8174
梳理	-8175
地名	-8176
便捷	-8177
标准化	-8178
流水	-8179
鞋子	-8180
克林	-8181
等了	-8182
ython	-8183
搅拌	-8184
外国人	-8185
资本市场	-8186
门的	-8187
后来的	-8188
剧中	-8189
前辈	-8190
中路	-8191
配件	-8192
卡罗	-8193
恩省	-8194
多月	-8195
天皇	-8196
▁看了	-8197
巴克	-8198
筹备	-8199
额外	-8200
买到	-8201
并由	-8202
我不是	-8203
县级	-8204
站点	-8205
是我们	-8206
gh	-8207
个大	-8208
等为	-8209
和发展	-8210
翡翠	-8211
蒙特	-8212
打车	-8213
有效地	-8214
now	-8215
省道	-8216
亚太	-8217
同时也是	-8218
上阵	-8219
这样一个	-8220
毒品	-8221
波斯	-8222
弥补	-8223
扣除	-8224
细则	-8225
▁体育	-8226
白云	-8227
————	-8228
铁板	-8229
加息	-8230
外科	-8231
东侧	-8232
挺好的	-8233
液体	-8234
成交量	-8235
强劲	-8236
▁觉得	-8237
系列的	-8238
为准	-8239
雷斯	-8240
之家	-8241
饱和	-8242
红外	-8243
对不起	-8244
但这	-8245
将被	-8246
▁哲学	-8247
云计算	-8248
我也是	-8249
星的	-8250
冲动	-8251
的时候就	-8252
兴起	-8253
并通过	-8254
▁年度	-8255
那一	-8256
次会议	-8257
回升	-8258
大概是	-8259
物体	-8260
建筑面积	-8261
香蕉	-8262
油腻	-8263
相连	-8264
网址	-8265
所长	-8266
他会	-8267
冰淇	-8268
海底	-8269
清明	-8270
任命为	-8271
马斯	-8272
宝石	-8273
有大	-8274
▁this	-8275
的项目	-8276
一带一路	-8277
牌照	-8278
骑兵	-8279
▁太	-8280
线条	-8281
肉质	-8282
跑到	-8283
他对	-8284
许可证	-8285
后在	-8286
以南	-8287
ohn	-8288
科技大学	-8289
照明	-8290
起初	-8291
内陆省份	-8292
载体	-8293
An	-8294
弗朗	-8295
牛逼	-8296
等因素	-8297
古城	-8298
拯救	-8299
运算	-8300
▁Wh	-8301
也曾	-8302
三世	-8303
迪士	-8304
爱你	-8305
奖学金	-8306
▁谢邀	-8307
股东的	-8308
以前的	-8309
难受	-8310
看不到	-8311
破位	-8312
比如说	-8313
咱们	-8314
有限元	-8315
巴基斯坦	-8316
复旦	-8317
程度的	-8318
位子	-8319
沿着	-8320
鱿鱼	-8321
iOS	-8322
尽可能	-8323
华北	-8324
改革的	-8325
和中	-8326
新品	-8327
老百姓	-8328
日记	-8329
峰值	-8330
▁University	-8331
LS	-8332
乘车	-8333
eam	-8334
含义	-8335
波罗	-8336
怎么说	-8337
平民	-8338
榜单	-8339
什么都	-8340
ystem	-8341
草莓	-8342
保险公司	-8343
讲究	-8344
竞选	-8345
桂林	-8346
点位	-8347
废除	-8348
端的	-8349
家公司	-8350
留学生	-8351
迪士尼	-8352
艰难	-8353
收拾	-8354
亿元人民币	-8355
隐私	-8356
刷新	-8357
三位	-8358
德尔	-8359
大阪	-8360
求解	-8361
范畴	-8362
标识	-8363
水煮	-8364
繁荣	-8365
传闻	-8366
祝福	-8367
()。	-8368
让孩子	-8369
选项	-8370
应收	-8371
起床	-8372
reat	-8373
还真	-8374
大理	-8375
贴吧	-8376
大二	-8377
又要	-8378
一分	-8379
特拉	-8380
难过	-8381
了中国	-8382
味道很	-8383
老大	-8384
Ad	-8385
闻名	-8386
把他	-8387
地块	-8388
昭和	-8389
还有很多	-8390
丝绸	-8391
辩论	-8392
还需要	-8393
过多	-8394
都不错	-8395
性感	-8396
SH	-8397
主营	-8398
缩写	-8399
第二次世界大战	-8400
触及	-8401
协作	-8402
想的	-8403
比较喜欢	-8404
耳朵	-8405
了许多	-8406
追踪	-8407
转为	-8408
▁超	-8409
ews	-8410
病例	-8411
洋葱	-8412
盘式	-8413
▁农业	-8414
肯定是	-8415
招募	-8416
高架	-8417
每平方公里	-8418
自贸	-8419
我了	-8420
甚至是	-8421
储存	-8422
那个时候	-8423
的答案	-8424
独立悬挂	-8425
的美国	-8426
丸子	-8427
得名	-8428
机组	-8429
的可能性	-8430
俗称	-8431
第一时间	-8432
久了	-8433
ement	-8434
小伙	-8435
叔叔	-8436
▁哈哈	-8437
去的时候	-8438
ade	-8439
万余	-8440
确立	-8441
区和	-8442
酸菜	-8443
折扣	-8444
很简单	-8445
纳粹	-8446
孕妇	-8447
三月	-8448
等方式	-8449
变的	-8450
▁all	-8451
PEC	-8452
展会	-8453
晶体	-8454
真皮	-8455
起飞	-8456
▁更	-8457
总决赛	-8458
清爽	-8459
华南	-8460
鼻子	-8461
糯米	-8462
麦当	-8463
配上	-8464
西瓜	-8465
API	-8466
归属于	-8467
▁加	-8468
出色	-8469
外套	-8470
都觉得	-8471
支队	-8472
▁ab	-8473
幽默	-8474
彩色	-8475
减小	-8476
售票	-8477
我一	-8478
不易	-8479
山水	-8480
漏洞	-8481
电车	-8482
奇迹	-8483
冷却	-8484
微波	-8485
追究	-8486
面膜	-8487
新款	-8488
运转	-8489
沙漠	-8490
誉为	-8491
完全没有	-8492
可爱的	-8493
值的	-8494
说一下	-8495
希尔	-8496
劳动力	-8497
Fi	-8498
将是	-8499
拆迁	-8500
选为	-8501
有许多	-8502
干嘛	-8503
值为	-8504
离家	-8505
疑似	-8506
式月台	-8507
每个月	-8508
落在	-8509
说服	-8510
十二年	-8511
冰冰	-8512
名叫	-8513
杆菌	-8514
▁食品	-8515
塞纳	-8516
ern	-8517
很可能	-8518
▁由	-8519
伤亡	-8520
处在	-8521
]]	-8522
的具体	-8523
抓获	-8524
强烈的	-8525
ise	-8526
三亚	-8527
▁问答社区	-8528
完美的	-8529
承办	-8530
加利福	-8531
基本的	-8532
般的	-8533
起来了	-8534
克服	-8535
了对	-8536
格拉	-8537
缘故	-8538
披萨	-8539
要点	-8540
列出	-8541
天后	-8542
还是会	-8543
维埃	-8544
行为的	-8545
目前已	-8546
兼容	-8547
失误	-8548
格林	-8549
的前提下	-8550
清真	-8551
千年	-8552
上是	-8553
勉强	-8554
朋友们	-8555
发掘	-8556
KDJ	-8557
操控	-8558
公元前	-8559
既有	-8560
挺好	-8561
日元	-8562
子弹	-8563
机动	-8564
老年人	-8565
帖子	-8566
▁广州	-8567
量为	-8568
可选	-8569
很嫩	-8570
无人机	-8571
猜测	-8572
节省	-8573
ose	-8574
优于	-8575
的特	-8576
CM	-8577
芝加	-8578
DS	-8579
定理	-8580
的一点	-8581
经济的	-8582
一事	-8583
进门	-8584
增长率	-8585
内置	-8586
紫外	-8587
勇士	-8588
撰写	-8589
会对	-8590
被视为	-8591
落户	-8592
Ph	-8593
开门	-8594
是谁	-8595
出入口	-8596
月在	-8597
亲密	-8598
希望大家	-8599
可以说是	-8600
▁up	-8601
的用户	-8602
减弱	-8603
展望	-8604
理财产品	-8605
士顿	-8606
有意思	-8607
流体	-8608
后再	-8609
乐趣	-8610
意图	-8611
灵感	-8612
用人	-8613
开关	-8614
丧失	-8615
以至于	-8616
桃园	-8617
沪指	-8618
赛车	-8619
全日	-8620
因为他	-8621
摆脱	-8622
▁科	-8623
教科	-8624
木有	-8625
炒作	-8626
芝加哥	-8627
DR	-8628
缴费	-8629
巴拉	-8630
数据的	-8631
被打	-8632
代价	-8633
ower	-8634
att	-8635
精细	-8636
德的	-8637
飞行员	-8638
不堪	-8639
在你	-8640
攻坚	-8641
有三	-8642
▁六	-8643
底盘	-8644
误导性	-8645
造成了	-8646
汇报	-8647
高点	-8648
等相关	-8649
小白	-8650
炸弹	-8651
做事	-8652
彩票	-8653
茶叶	-8654
不好吃	-8655
为主的	-8656
市场化	-8657
land	-8658
%-	-8659
一堆	-8660
酒精	-8661
就不会	-8662
入住	-8663
我能	-8664
书面	-8665
为新	-8666
向量	-8667
圣经	-8668
涉案	-8669
适宜	-8670
的单	-8671
中所	-8672
饲料	-8673
水质	-8674
必备	-8675
看电影	-8676
菠萝	-8677
ky	-8678
入了	-8679
歌唱	-8680
冰淇淋	-8681
调味	-8682
位于该	-8683
屠杀	-8684
高档	-8685
足够的	-8686
分之一	-8687
公顷	-8688
耶稣	-8689
特的	-8690
%)、	-8691
的日子	-8692
▁同	-8693
侦查	-8694
联系方式	-8695
)”	-8696
又在	-8697
孵化	-8698
超出	-8699
ning	-8700
糖尿病	-8701
全会	-8702
海报	-8703
养老金	-8704
▁价格	-8705
人员的	-8706
[[	-8707
信息的	-8708
转会	-8709
勋章	-8710
气压	-8711
快捷	-8712
老虎	-8713
跌破	-8714
立方米	-8715
乐器	-8716
郁闷	-8717
格尔	-8718
已经成为	-8719
查看更多	-8720
》;	-8721
因其	-8722
大城市	-8723
心疼	-8724
吉尔	-8725
鲜美	-8726
吉利	-8727
的道路	-8728
作文	-8729
拍的	-8730
▁电	-8731
填写	-8732
常识	-8733
手里	-8734
豆浆	-8735
升任	-8736
原住	-8737
PPP	-8738
)-	-8739
▁'	-8740
维斯	-8741
ery	-8742
不合格	-8743
我当时	-8744
▁南京	-8745
增幅	-8746
con	-8747
注册资本	-8748
不必	-8749
老妈	-8750
个人觉得	-8751
改建	-8752
不小心	-8753
深夜	-8754
抄袭	-8755
耦合	-8756
克罗	-8757
聚落	-8758
悲剧	-8759
LL	-8760
▁我国	-8761
外语	-8762
选出	-8763
签名	-8764
还不如	-8765
恐怕	-8766
人民代表大会	-8767
全景	-8768
油耗	-8769
▁sp	-8770
▁大概	-8771
AK	-8772
为核心	-8773
今天的	-8774
盘中	-8775
伤心	-8776
的一项	-8777
切换	-8778
安全的	-8779
微生物	-8780
最美	-8781
分化	-8782
难得	-8783
老师的	-8784
召回	-8785
违纪	-8786
问他	-8787
玩游戏	-8788
,),	-8789
引起的	-8790
风水	-8791
吃得	-8792
班主任	-8793
多为	-8794
或其他	-8795
反思	-8796
年夏季	-8797
放弃了	-8798
大火	-8799
摘要	-8800
半径	-8801
▁赵	-8802
大门	-8803
一篇	-8804
西湖	-8805
扬州	-8806
限量	-8807
可靠性	-8808
对应的	-8809
钱包	-8810
行长	-8811
委员会委员	-8812
纳斯	-8813
则在	-8814
优良	-8815
材料的	-8816
两组	-8817
情的	-8818
和高	-8819
开除	-8820
烦恼	-8821
朋友的	-8822
说的是	-8823
的高度	-8824
icro	-8825
广义	-8826
城镇化	-8827
倒入	-8828
ele	-8829
拉面	-8830
安全性	-8831
日报道	-8832
放置	-8833
表白	-8834
天文学	-8835
联动	-8836
会议上	-8837
▁Sch	-8838
DC	-8839
传染	-8840
▁更新	-8841
当地时间	-8842
▁台湾	-8843
享年	-8844
不做	-8845
日晚间	-8846
鱼肉	-8847
俄国	-8848
没有了	-8849
OR	-8850
为您	-8851
ium	-8852
过剩	-8853
环境下	-8854
重大遗漏	-8855
低价	-8856
Sp	-8857
银行的	-8858
月中旬	-8859
手表	-8860
虚假记载	-8861
给我的	-8862
或将	-8863
信部	-8864
只有一个	-8865
▁能	-8866
促使	-8867
这个人	-8868
京津	-8869
这句话	-8870
金融工具	-8871
牛蛙	-8872
相差	-8873
的爱	-8874
厂商指导价	-8875
犯罪嫌疑人	-8876
合唱	-8877
销售额	-8878
女主角	-8879
凉菜	-8880
学习的	-8881
注意到	-8882
Wi	-8883
招呼	-8884
蜂蜜	-8885
控制系统	-8886
通往	-8887
line	-8888
会计师事务所	-8889
▁补充	-8890
次于	-8891
▁这样	-8892
短短	-8893
uk	-8894
新政	-8895
地板	-8896
港澳	-8897
橡胶	-8898
早晨	-8899
编译	-8900
核算	-8901
是台湾	-8902
揭示	-8903
学霸	-8904
曾被	-8905
班级	-8906
时许	-8907
也没什么	-8908
政协委员	-8909
很是	-8910
绿茶	-8911
了的	-8912
学业	-8913
总体来说	-8914
这对	-8915
礼拜	-8916
上调	-8917
影响的	-8918
▁文	-8919
此处	-8920
cr	-8921
局的	-8922
租金	-8923
技术和	-8924
排水	-8925
校友	-8926
▁听	-8927
多位	-8928
各界	-8929
少许	-8930
理工大学	-8931
不当	-8932
兵器	-8933
艾滋	-8934
连载	-8935
富有	-8936
投行	-8937
预订	-8938
分店	-8939
年报	-8940
河道	-8941
面粉	-8942
EX	-8943
火热	-8944
制约	-8945
华夏	-8946
竣工	-8947
输送	-8948
路由	-8949
事物	-8950
原件	-8951
备胎	-8952
我们可以	-8953
已在	-8954
TI	-8955
约有	-8956
示威	-8957
沿革	-8958
放量	-8959
水平的	-8960
详见	-8961
消费者的	-8962
鱼的	-8963
低的	-8964
太阳能	-8965
iel	-8966
▁con	-8967
专属	-8968
主编	-8969
请问	-8970
误导性陈述	-8971
▁An	-8972
然后就	-8973
有关的	-8974
信息请	-8975
脑子	-8976
描绘	-8977
我也不	-8978
伟大的	-8979
的最大	-8980
时机	-8981
自适应	-8982
仓库	-8983
▁im	-8984
的对	-8985
风味	-8986
不佳	-8987
一千	-8988
遇难	-8989
最快	-8990
批复	-8991
本地区	-8992
▁作为一个	-8993
蝴蝶	-8994
着我	-8995
很多的	-8996
▁毕竟	-8997
运河	-8998
mg	-8999
要把	-9000
后又	-9001
总计	-9002
我们是	-9003
土豪	-9004
未知	-9005
底线	-9006
%~	-9007
维多	-9008
医保	-9009
网络上	-9010
内战	-9011
和新	-9012
越大	-9013
长官	-9014
应付	-9015
▁材料	-9016
会展	-9017
哥们	-9018
不出来	-9019
主机	-9020
访谈	-9021
装的	-9022
人间	-9023
特殊的	-9024
led	-9025
ica	-9026
zhi	-9027
谈恋爱	-9028
双向	-9029
商业模式	-9030
意向	-9031
本市	-9032
客厅	-9033
四月	-9034
二氧化	-9035
职场	-9036
战斗机	-9037
;“	-9038
改革开放	-9039
观音	-9040
统计学	-9041
书画	-9042
开办	-9043
各方面	-9044
不舒服	-9045
▁深圳	-9046
块的	-9047
网购	-9048
▁电子	-9049
人类的	-9050
粤语	-9051
器械	-9052
上证	-9053
▁据了解	-9054
联系电话	-9055
轻轻	-9056
▁国际	-9057
▁真的	-9058
位居	-9059
旋律	-9060
被动	-9061
香的	-9062
一股	-9063
共有人口	-9064
风光	-9065
不合	-9066
第一名	-9067
弱势	-9068
奥林匹克运动会	-9069
折叠	-9070
万亿元	-9071
亚历山大	-9072
背后的	-9073
得起	-9074
糟糕	-9075
低温	-9076
地亚	-9077
就更	-9078
约会	-9079
细致	-9080
指导意见	-9081
口径	-9082
这首歌	-9083
往来	-9084
出轨	-9085
前端	-9086
执照	-9087
珍惜	-9088
▁截至	-9089
原谅	-9090
股指	-9091
出手	-9092
品尝	-9093
转入	-9094
在哪里	-9095
way	-9096
制作人	-9097
真实性	-9098
什么是	-9099
考上	-9100
的黑	-9101
体长	-9102
诺基亚	-9103
小小的	-9104
岁月	-9105
眼泪	-9106
轨迹	-9107
不来	-9108
各地的	-9109
啥的	-9110
简洁	-9111
及相关	-9112
周日	-9113
在英国	-9114
VC	-9115
be	-9116
要注意	-9117
震惊	-9118
感应	-9119
摧毁	-9120
角落	-9121
当成	-9122
争论	-9123
大人	-9124
的政治	-9125
Wh	-9126
系统中	-9127
马丁	-9128
湖泊	-9129
财税	-9130
BB	-9131
诱导	-9132
动手	-9133
媒介	-9134
充分发挥	-9135
越来越多的	-9136
国资	-9137
太高	-9138
配方	-9139
将领	-9140
公开赛	-9141
iPad	-9142
洗手	-9143
风格的	-9144
座谈	-9145
▁反正	-9146
底下	-9147
缩小	-9148
奉献	-9149
新三板	-9150
是这样	-9151
走过	-9152
交易的	-9153
▁You	-9154
屁股	-9155
射线	-9156
团的	-9157
ts	-9158
并且在	-9159
不怕	-9160
安东	-9161
旅行社	-9162
前十	-9163
巡逻	-9164
圈子	-9165
在我们	-9166
体质	-9167
自家	-9168
减持	-9169
议题	-9170
终结	-9171
了这个	-9172
动物园	-9173
并被	-9174
宽带	-9175
借贷	-9176
使用者	-9177
北极	-9178
国民政府	-9179
楼的	-9180
▁全国	-9181
清代	-9182
买家	-9183
晚期	-9184
大使馆	-9185
▁un	-9186
克萨斯	-9187
的头	-9188
该怎么	-9189
环形	-9190
魅族	-9191
有哪些	-9192
你能	-9193
所说的	-9194
问了	-9195
重返	-9196
尼西亚	-9197
太过	-9198
长相	-9199
确诊	-9200
峰会	-9201
二期	-9202
横向	-9203
带走	-9204
办学	-9205
alk	-9206
原型	-9207
更高的	-9208
有力	-9209
”),	-9210
以其	-9211
的教育	-9212
与之	-9213
原价	-9214
曼联	-9215
de	-9216
开学	-9217
超标	-9218
做为	-9219
城县	-9220
▁武汉	-9221
竞争对手	-9222
不给	-9223
推理	-9224
百分之	-9225
色拉	-9226
熟练	-9227
为大家	-9228
论证	-9229
麦当劳	-9230
考证	-9231
制造商	-9232
职员	-9233
我发现	-9234
倾斜	-9235
去买	-9236
没错	-9237
为中心	-9238
苏丹	-9239
突击	-9240
业的	-9241
EM	-9242
桃花	-9243
文化遗产	-9244
投影	-9245
计提	-9246
了该	-9247
颁发	-9248
自制	-9249
za	-9250
利斯	-9251
的家庭	-9252
交付	-9253
肥牛	-9254
武帝	-9255
首度	-9256
科夫	-9257
▁○	-9258
定量	-9259
宣告	-9260
搬迁	-9261
地理位置	-9262
北上	-9263
放假	-9264
年级	-9265
这不是	-9266
商户	-9267
消毒	-9268
urn	-9269
eople	-9270
一万	-9271
施行	-9272
▁哈	-9273
月开始	-9274
去找	-9275
uch	-9276
美术馆	-9277
功能的	-9278
激活	-9279
今晚	-9280
他于	-9281
人口密度每平方公里	-9282
阴影	-9283
目的地	-9284
引起了	-9285
一所	-9286
aut	-9287
活动中	-9288
度过	-9289
模板	-9290
的非	-9291
米粉	-9292
吸引了	-9293
DO	-9294
在对	-9295
肉的	-9296
rap	-9297
大妈	-9298
下令	-9299
ung	-9300
的身份	-9301
拿了	-9302
最优	-9303
权重	-9304
卡斯	-9305
千瓦	-9306
细分	-9307
贵阳	-9308
提到的	-9309
巴尔	-9310
档次	-9311
万元的	-9312
少量现车	-9313
货币政策	-9314
比特	-9315
先行	-9316
▁动力	-9317
蒸汽	-9318
mp	-9319
制度的	-9320
不同于	-9321
水上	-9322
眼光	-9323
相较	-9324
小小	-9325
国债	-9326
它在	-9327
以下的	-9328
中小学	-9329
年轻的	-9330
达人	-9331
出差	-9332
回合	-9333
民事	-9334
患者的	-9335
常用的	-9336
我感觉	-9337
吸毒	-9338
不安	-9339
可用	-9340
模型的	-9341
国内的	-9342
指纹	-9343
沪深	-9344
公共交通	-9345
老板娘	-9346
都比较	-9347
组长	-9348
主权	-9349
只能说	-9350
好莱坞	-9351
写字	-9352
洪水	-9353
教育局	-9354
管理和	-9355
一夜	-9356
活着	-9357
也开始	-9358
有多少	-9359
阐述	-9360
首尔	-9361
段子	-9362
体育馆	-9363
外出	-9364
帽子	-9365
摩根	-9366
排名第	-9367
米线	-9368
有的人	-9369
我可以	-9370
山地	-9371
容纳	-9372
在接受	-9373
III	-9374
▁us	-9375
辽宁省	-9376
证券股份有限公司	-9377
具体的	-9378
不敌	-9379
买单	-9380
Ex	-9381
独立董事	-9382
调度	-9383
了一场	-9384
参与了	-9385
哭了	-9386
州刺史	-9387
杰伦	-9388
确实是	-9389
省市	-9390
wit	-9391
狗狗	-9392
这家的	-9393
数值模拟	-9394
遇到了	-9395
事先	-9396
因为在	-9397
他曾	-9398
默认	-9399
博览会	-9400
举例	-9401
不一样的	-9402
by	-9403
高潮	-9404
主食	-9405
判处	-9406
更容易	-9407
称赞	-9408
▁打	-9409
现有的	-9410
你想	-9411
AI	-9412
为自己	-9413
元左右	-9414
▁具体车型	-9415
优惠政策如下	-9416
投稿	-9417
相邻	-9418
▁新闻	-9419
全场	-9420
年薪	-9421
推测	-9422
上门	-9423
GPS	-9424
七月	-9425
第一批	-9426
各有	-9427
电影的	-9428
沉默	-9429
开创	-9430
再说	-9431
走路	-9432
也可能	-9433
ater	-9434
困惑	-9435
内有	-9436
公安部	-9437
流畅	-9438
▁qu	-9439
ream	-9440
▁o	-9441
▁你们	-9442
京都	-9443
核桃	-9444
传教	-9445
套装	-9446
增多	-9447
做成	-9448
报讯	-9449
布里	-9450
切成	-9451
途经	-9452
进出口	-9453
诗歌	-9454
参展	-9455
无所	-9456
酸辣	-9457
▁*	-9458
赞同	-9459
吸烟	-9460
▁都是	-9461
光大	-9462
清除	-9463
明细	-9464
的几	-9465
交界	-9466
辉煌	-9467
▁Ex	-9468
Fe	-9469
叙述	-9470
织物	-9471
怀念	-9472
人权	-9473
▁App	-9474
你看	-9475
基本都是	-9476
用过	-9477
所以在	-9478
违约	-9479
任教	-9480
给的	-9481
是我的	-9482
球的	-9483
善于	-9484
意义的	-9485
官兵	-9486
他认为	-9487
巩固	-9488
燃气	-9489
▁具体车型优惠政策如下	-9490
备注	-9491
的白	-9492
家园	-9493
oft	-9494
放开	-9495
贯彻落实	-9496
上车	-9497
真诚	-9498
当今	-9499
结束了	-9500
为代表	-9501
导致的	-9502
为他	-9503
简约	-9504
省会	-9505
??????	-9506
附件	-9507
致使	-9508
我只是	-9509
一面	-9510
本作	-9511
动机	-9512
▁生	-9513
倡导	-9514
反腐	-9515
当晚	-9516
我来	-9517
将以	-9518
烤鸭	-9519
包间	-9520
放下	-9521
时间和	-9522
控制的	-9523
运动的	-9524
胡同	-9525
拉里	-9526
信息技术	-9527
不应	-9528
胃口	-9529
买了一	-9530
博弈	-9531
告别	-9532
混合型证券投资基金	-9533
片段	-9534
是如何	-9535
改制为	-9536
滑雪	-9537
关口	-9538
爱上	-9539
跟她	-9540
成都市	-9541
联系人	-9542
化解	-9543
忽然	-9544
德斯	-9545
TR	-9546
着手	-9547
进入了	-9548
制药	-9549
▁style	-9550
对她	-9551
联手	-9552
兵团	-9553
瓦尔	-9554
的金	-9555
为主要	-9556
一身	-9557
国际化	-9558
其中男性	-9559
司令部	-9560
听力	-9561
开玩笑	-9562
死于	-9563
房地产市场	-9564
老爸	-9565
下半	-9566
的花	-9567
生态环境	-9568
外形	-9569
步伐	-9570
中东	-9571
中轨	-9572
olle	-9573
地处	-9574
筷子	-9575
▁视频	-9576
▁艺术	-9577
一点的	-9578
收缩	-9579
农民工	-9580
真实的	-9581
级别的	-9582
据了解	-9583
九月	-9584
拼盘	-9585
房企	-9586
air	-9587
现身	-9588
然后再	-9589
神经网络	-9590
约合	-9591
助攻	-9592
买个	-9593
TS	-9594
免费的	-9595
盘子	-9596
涡轮增压	-9597
占用	-9598
中断	-9599
未有	-9600
车祸	-9601
勇敢	-9602
抹茶	-9603
交通事故	-9604
又被	-9605
龙的	-9606
描写	-9607
演变	-9608
电视节目	-9609
债权	-9610
天赋	-9611
抛弃	-9612
配送	-9613
娱乐圈	-9614
雅思	-9615
核查	-9616
众人	-9617
州府	-9618
紧凑	-9619
色谱	-9620
不理	-9621
事发	-9622
如果没有	-9623
长约	-9624
件事情	-9625
!!	-9626
▁徐	-9627
情怀	-9628
走廊	-9629
刻意	-9630
格为	-9631
统计局	-9632
缺失	-9633
新华社	-9634
用电	-9635
均可	-9636
导体	-9637
等多种	-9638
▁食品科学与工程	-9639
专注于	-9640
▁点	-9641
向东	-9642
夫卡	-9643
青睐	-9644
PI	-9645
来往	-9646
族自治	-9647
获得的	-9648
脉冲	-9649
直辖	-9650
棒球	-9651
监事会	-9652
主题曲	-9653
的要	-9654
的质量	-9655
一组	-9656
被捕	-9657
经济社会	-9658
省长	-9659
手上	-9660
诠释	-9661
崇拜	-9662
特地	-9663
英超	-9664
▁服务	-9665
征集	-9666
氨酸	-9667
畜牧	-9668
方向的	-9669
历史的	-9670
党委书记	-9671
高等教育	-9672
▁呵呵	-9673
愿望	-9674
的结构	-9675
严厉	-9676
流失	-9677
沉淀	-9678
感知	-9679
外围	-9680
县长	-9681
机型	-9682
您的	-9683
北侧	-9684
千人	-9685
名誉	-9686
为啥	-9687
聚合	-9688
国军	-9689
▁ad	-9690
成为一个	-9691
谣言	-9692
而出	-9693
合作的	-9694
实例	-9695
不成	-9696
此举	-9697
的神	-9698
其实就是	-9699
IG	-9700
足球队	-9701
黑龙江省	-9702
找了	-9703
反抗	-9704
违法行为	-9705
开采	-9706
分析和	-9707
安娜	-9708
▁八	-9709
新一代	-9710
嘉义	-9711
英里	-9712
lus	-9713
现行	-9714
不一	-9715
绿地	-9716
国人	-9717
马的	-9718
一番	-9719
不应该	-9720
的文化	-9721
各样的	-9722
工地	-9723
▁comp	-9724
▁mg	-9725
同名	-9726
ES	-9727
游行	-9728
聚餐	-9729
容器	-9730
外资	-9731
场面	-9732
黑人	-9733
被指	-9734
写着	-9735
的在	-9736
所致	-9737
蛋黄	-9738
存在着	-9739
会儿	-9740
当年的	-9741
将继续	-9742
的重	-9743
手枪	-9744
数为	-9745
极大的	-9746
金叉	-9747
年华	-9748
ISO	-9749
尼奥	-9750
健康的	-9751
淡的	-9752
可以选择	-9753
多万	-9754
打的	-9755
预备	-9756
放了	-9757
工作报告	-9758
中西	-9759
金融服务	-9760
的成员	-9761
最后一个	-9762
控股股东	-9763
不该	-9764
包容	-9765
▁如何	-9766
▁朋友	-9767
屋顶	-9768
在全球	-9769
催化剂	-9770
Mar	-9771
冷静	-9772
南侧	-9773
四驱	-9774
阿尔卑	-9775
改名	-9776
迄今	-9777
并不能	-9778
青菜	-9779
特种	-9780
笑话	-9781
ions	-9782
log	-9783
直线	-9784
的重要性	-9785
比较大	-9786
一手	-9787
BF	-9788
大卫	-9789
历经	-9790
拌饭	-9791
多年来	-9792
立足	-9793
衬衫	-9794
师生	-9795
波特	-9796
降至	-9797
▁Al	-9798
圣母	-9799
加剧	-9800
诺伊	-9801
间隔	-9802
西斯	-9803
春晚	-9804
自愿	-9805
我最	-9806
批次	-9807
普通人	-9808
用药	-9809
▁后	-9810
落成	-9811
难吃	-9812
大叔	-9813
矿物	-9814
▁经	-9815
商品房	-9816
指点	-9817
多功能	-9818
而后	-9819
门户	-9820
岛上	-9821
夺冠	-9822
▁大学	-9823
这是一	-9824
的吧	-9825
▁因	-9826
河谷	-9827
产地	-9828
的传统	-9829
没吃	-9830
要比	-9831
▁我在	-9832
▁近	-9833
▁以上	-9834
自来	-9835
▁谁	-9836
客机	-9837
燃油	-9838
走在	-9839
有好	-9840
一个个	-9841
水面	-9842
张专辑	-9843
的歌	-9844
极度	-9845
保卫	-9846
创下	-9847
分布在	-9848
实际情况	-9849
▁朱	-9850
冠状	-9851
千里	-9852
再也不	-9853
消息称	-9854
殖民地	-9855
倒车	-9856
刷卡	-9857
人格	-9858
告诉记者	-9859
科技创新	-9860
干线	-9861
接入	-9862
临床医学	-9863
以东	-9864
会导致	-9865
只在	-9866
“”	-9867
化和	-9868
地道	-9869
美丽的	-9870
好久	-9871
不被	-9872
白的	-9873
ames	-9874
信念	-9875
阿尔卑斯	-9876
套路	-9877
领导小组	-9878
一定是	-9879
与技术	-9880
显示屏	-9881
童年	-9882
迎接	-9883
了自己	-9884
esign	-9885
窗户	-9886
注意力	-9887
▁个	-9888
事件的	-9889
木耳	-9890
地段	-9891
▁but	-9892
提出了一种	-9893
关联方	-9894
官方网站	-9895
合影	-9896
的趋势	-9897
廉政	-9898
巅峰	-9899
直隶	-9900
提案	-9901
加尔	-9902
印发	-9903
例外	-9904
商学院	-9905
▁——	-9906
人称	-9907
代的	-9908
红的	-9909
选秀	-9910
将有	-9911
裤子	-9912
旧金山	-9913
家里的	-9914
现存	-9915
目光	-9916
换成	-9917
薄膜	-9918
没钱	-9919
经由	-9920
银行股份有限公司	-9921
但因	-9922
月薪	-9923
多少钱	-9924
特朗	-9925
合一	-9926
wh	-9927
大胆	-9928
抱歉	-9929
在不同	-9930
莱茵	-9931
▁据悉	-9932
仅次于	-9933
的做法	-9934
ara	-9935
转型升级	-9936
大专	-9937
的和	-9938
跨界	-9939
白酒	-9940
▁利用	-9941
两市	-9942
公共服务	-9943
还未	-9944
人说	-9945
碎片	-9946
就是要	-9947
这个词	-9948
连带	-9949
不太好	-9950
你自己	-9951
▁经济学	-9952
向前	-9953
干锅	-9954
的四	-9955
控制器	-9956
台上	-9957
残疾人	-9958
滴滴	-9959
车窗	-9960
上限	-9961
手册	-9962
三季度	-9963
推送	-9964
ve	-9965
家用	-9966
饼干	-9967
问题是	-9968
传达	-9969
口语	-9970
来吃	-9971
向北	-9972
连任	-9973
亲切	-9974
应聘	-9975
收回	-9976
加分	-9977
也非常	-9978
span	-9979
▁one	-9980
主管部门	-9981
日于	-9982
质的	-9983
针菇	-9984
要求的	-9985
坐着	-9986
一律	-9987
航母	-9988
花的	-9989
街上	-9990
惩罚	-9991
全方位	-9992
夜晚	-9993
布丁	-9994
养成	-9995
废弃	-9996
甜点	-9997
太极	-9998
向南	-9999
同类	-10000
一眼	-10001
▁;	-10002
穿衣	-10003
礼品	-10004
知情	-10005
选用	-10006
病情	-10007
稀土	-10008
捐款	-10009
洗净	-10010
.......	-10011
口号	-10012
▁so	-10013
超过了	-10014
蓝牙	-10015
千元	-10016
骚扰	-10017
ale	-10018
双手	-10019
ma	-10020
结账	-10021
HE	-10022
▁它	-10023
阻碍	-10024
最近的	-10025
骄傲	-10026
维权	-10027
人民日报	-10028
冰激	-10029
这些人	-10030
当我	-10031
降温	-10032
▁中央	-10033
比较有	-10034
刊登	-10035
曾是	-10036
最早的	-10037
公里的	-10038
民俗	-10039
大宗	-10040
将对	-10041
也蛮	-10042
犹太人	-10043
扎实	-10044
ors	-10045
面子	-10046
的第二	-10047
自拍	-10048
伴随着	-10049
的女孩	-10050
该如何	-10051
设于	-10052
累了	-10053
感恩	-10054
行使	-10055
却在	-10056
电影院	-10057
灾难	-10058
头上	-10059
罗德	-10060
▁min	-10061
▁历史学	-10062
该怎么办	-10063
多媒体	-10064
更改	-10065
自驾	-10066
固体	-10067
抬头	-10068
bo	-10069
所以就	-10070
维多利亚	-10071
▁国内	-10072
风云	-10073
导游	-10074
ft	-10075
版本的	-10076
已经开始	-10077
AB	-10078
的时代	-10079
女方	-10080
锁定	-10081
▁降价	-10082
仍是	-10083
收敛	-10084
公车	-10085
前身	-10086
出境	-10087
有不少	-10088
新闻网	-10089
大鼠	-10090
电动调节	-10091
之间的关系	-10092
前几天	-10093
波士顿	-10094
受害者	-10095
top	-10096
人了	-10097
有色	-10098
嘴里	-10099
祖国	-10100
这意味着	-10101
常年	-10102
卫队	-10103
代表人	-10104
lex	-10105
小店	-10106
影院	-10107
曾于	-10108
严谨	-10109
欺负	-10110
谈话	-10111
附注	-10112
的理论	-10113
泄露	-10114
海水	-10115
降低了	-10116
认真的	-10117
他为	-10118
获胜	-10119
ley	-10120
望远	-10121
最大扭矩	-10122
月亮	-10123
围观	-10124
企图	-10125
母公司	-10126
还有一些	-10127
实名	-10128
保护区	-10129
的模式	-10130
的学习	-10131
一小时	-10132
▁少量现车	-10133
增值税	-10134
大革命	-10135
被认为	-10136
的个人	-10137
发性	-10138
低位	-10139
死者	-10140
年获	-10141
欺骗	-10142
年糕	-10143
极致	-10144
沙滩	-10145
头条	-10146
男主角	-10147
发现自己	-10148
损坏	-10149
推销	-10150
按钮	-10151
让大家	-10152
一职	-10153
伊斯兰教	-10154
银行业	-10155
延安	-10156
限定	-10157
门诊	-10158
说自己	-10159
满分	-10160
下一步	-10161
很长	-10162
塔尔	-10163
出局	-10164
警示	-10165
同学们	-10166
一类	-10167
台的	-10168
硫酸	-10169
和美国	-10170
建制	-10171
吉祥	-10172
星系	-10173
衡量	-10174
ated	-10175
市级	-10176
威尔士	-10177
自卑	-10178
凸显	-10179
抽象	-10180
鱼片	-10181
何况	-10182
本田	-10183
一行	-10184
的事件	-10185
作了	-10186
转化为	-10187
一副	-10188
汇总	-10189
区议会	-10190
到我	-10191
为什么要	-10192
大片	-10193
幼稚	-10194
不会再	-10195
▁~	-10196
▁以及	-10197
改变了	-10198
平凡	-10199
男方	-10200
MC	-10201
栏目首页	-10202
中国证券	-10203
高低	-10204
降价信息请	-10205
和他的	-10206
在里面	-10207
降价信息请进	-10208
查看更多降价信息请进	-10209
为首	-10210
天生	-10211
但还是	-10212
▁按照	-10213
在职	-10214
中将	-10215
▁曾经	-10216
部分的	-10217
副总经理	-10218
协定	-10219
菩萨	-10220
▁降价栏目首页	-10221
巨额	-10222
嵌入	-10223
来回	-10224
组件	-10225
▁//	-10226
▁mm	-10227
万辆	-10228
原住民	-10229
是小	-10230
生病	-10231
停留	-10232
较强的	-10233
ents	-10234
Re	-10235
▁韩	-10236
制表	-10237
恐龙	-10238
几乎没有	-10239
商会	-10240
吉林省	-10241
▁基础	-10242
上半	-10243
单位的	-10244
PD	-10245
弘扬	-10246
Java	-10247
支部	-10248
起的	-10249
平台上	-10250
是位于美国	-10251
就可以了	-10252
过分	-10253
的小伙伴	-10254
宗旨	-10255
还有个	-10256
惊讶	-10257
净资产	-10258
石锅	-10259
录用	-10260
itt	-10261
万人次	-10262
负荷	-10263
磷酸	-10264
五花肉	-10265
出一个	-10266
的比赛	-10267
都不知道	-10268
包房	-10269
几个人	-10270
▁或	-10271
接替	-10272
的计算	-10273
,"	-10274
但其	-10275
卖家	-10276
的父亲	-10277
表现为	-10278
叫我	-10279
工作经验	-10280
书写	-10281
举个	-10282
操纵	-10283
的一般	-10284
一间	-10285
火的	-10286
▁例如	-10287
人民群众	-10288
购物中心	-10289
生菜	-10290
ron	-10291
证券公司	-10292
一说	-10293
抑郁症	-10294
拿来	-10295
的一位	-10296
向西	-10297
轴距	-10298
早期的	-10299
助手	-10300
非要	-10301
一中	-10302
▁no	-10303
的力量	-10304
国籍	-10305
建设和	-10306
桌上	-10307
逆转	-10308
感觉自己	-10309
治愈	-10310
吃着	-10311
讽刺	-10312
ML	-10313
中外	-10314
全面的	-10315
是真的	-10316
过程中的	-10317
▁非常	-10318
▁活动	-10319
专线	-10320
罗拉	-10321
这方面	-10322
星际	-10323
权限	-10324
倾向于	-10325
归属	-10326
上市的	-10327
带上	-10328
盲目	-10329
至此	-10330
中医药	-10331
深受	-10332
并对其	-10333
互通	-10334
堪称	-10335
MT	-10336
现已	-10337
发力	-10338
转基因	-10339
后就	-10340
住建	-10341
卖的	-10342
台币	-10343
巨人	-10344
瑜伽	-10345
千万不要	-10346
是想	-10347
文档	-10348
aster	-10349
ype	-10350
交会	-10351
着重	-10352
我相信	-10353
的一款	-10354
杭州市	-10355
遥控	-10356
煤矿	-10357
AL	-10358
丽莎	-10359
伯爵	-10360
生殖	-10361
折腾	-10362
命中	-10363
米亚	-10364
网格	-10365
全文	-10366
场上	-10367
应用程序	-10368
足球俱乐部	-10369
社群	-10370
代数	-10371
和对	-10372
始于	-10373
Dr	-10374
一会儿	-10375
纠正	-10376
损益	-10377
私立	-10378
射手	-10379
屌丝	-10380
如有	-10381
了一条	-10382
▁新华	-10383
第十二	-10384
还包括	-10385
部电影	-10386
前任	-10387
聘请	-10388
的建议	-10389
公会	-10390
城际	-10391
”?	-10392
总站	-10393
导致了	-10394
药业	-10395
一声	-10396
off	-10397
富汗	-10398
感叹	-10399
太小	-10400
抢劫	-10401
那里的	-10402
复活	-10403
杀手	-10404
几位	-10405
学长	-10406
流行的	-10407
右侧	-10408
位列	-10409
天府	-10410
▁世界	-10411
硕士学位	-10412
是一颗	-10413
投资管理	-10414
大纲	-10415
恶性	-10416
科学技术	-10417
市公安局	-10418
八月	-10419
车展	-10420
杰出	-10421
▁Sp	-10422
如果不	-10423
偏向	-10424
祭祀	-10425
吃货	-10426
时至	-10427
uper	-10428
编写	-10429
要想	-10430
放缓	-10431
道教	-10432
飞船	-10433
ations	-10434
罕见	-10435
都需要	-10436
到最后	-10437
拉开	-10438
时会	-10439
▁花	-10440
力争	-10441
恶化	-10442
,)	-10443
丢失	-10444
公告称	-10445
用餐	-10446
乒乓	-10447
整个人	-10448
六月	-10449
斯洛	-10450
▁号	-10451
环卫	-10452
用的是	-10453
自带	-10454
光电	-10455
Pa	-10456
赢得了	-10457
在西	-10458
▁He	-10459
找我	-10460
▁机械	-10461
人们的	-10462
甜蜜	-10463
痕迹	-10464
盘点	-10465
创造了	-10466
冷的	-10467
水电	-10468
空白	-10469
讲师	-10470
被告人	-10471
aby	-10472
愉快	-10473
剂量	-10474
普通话	-10475
最强	-10476
大国	-10477
男神	-10478
局势	-10479
游戏中	-10480
式独立悬挂	-10481
器材	-10482
临界	-10483
战国	-10484
会让	-10485
农家	-10486
个月的	-10487
加密	-10488
大涨	-10489
离合	-10490
棉花	-10491
民用	-10492
年与	-10493
该片	-10494
▁§	-10495
了啊	-10496
料的	-10497
录像	-10498
影业	-10499
的政策	-10500
太多的	-10501
跳舞	-10502
抗日战争	-10503
岛的	-10504
县政府	-10505
★★★★	-10506
影子	-10507
USB	-10508
前方	-10509
前锋	-10510
能够在	-10511
提琴	-10512
▁奥	-10513
虚构	-10514
空气质量	-10515
露天	-10516
不多的	-10517
的价值	-10518
着急	-10519
绍兴	-10520
▁米	-10521
偏差	-10522
征求意见	-10523
影响了	-10524
否定	-10525
侧面	-10526
现在是	-10527
巴萨	-10528
在南	-10529
美人	-10530
所在的	-10531
放射	-10532
CPU	-10533
PG	-10534
人民币元注	-10535
八卦	-10536
的情形	-10537
后方	-10538
的经验	-10539
人口密度为每	-10540
▁麦	-10541
侍郎	-10542
油田	-10543
从不	-10544
表述	-10545
新竹	-10546
第一届	-10547
人民医院	-10548
怎么看	-10549
大哥	-10550
传统文化	-10551
在与	-10552
不定	-10553
用手	-10554
首府	-10555
二月	-10556
下旬	-10557
ren	-10558
知名度	-10559
国泰	-10560
%),	-10561
贵州省	-10562
会议员	-10563
流的	-10564
形式的	-10565
弯曲	-10566
诉求	-10567
改成	-10568
受访	-10569
在乎	-10570
斯托	-10571
平静	-10572
用以	-10573
福德	-10574
果断	-10575
号为	-10576
一阵	-10577
奢侈品	-10578
游击	-10579
红酒	-10580
lan	-10581
教训	-10582
史密	-10583
第二届	-10584
我只	-10585
画画	-10586
一年的	-10587
支配	-10588
原有的	-10589
▁其	-10590
的大小	-10591
抽烟	-10592
通讯员	-10593
▁某	-10594
满洲	-10595
大联盟	-10596
以西	-10597
新一轮	-10598
可前往	-10599
▁里面	-10600
▁像	-10601
刑法	-10602
局限	-10603
达州	-10604
召开的	-10605
NG	-10606
一盘	-10607
篮板	-10608
其妙	-10609
青山	-10610
山寨	-10611
授课	-10612
▁公共	-10613
拥抱	-10614
报酬	-10615
求助	-10616
党内	-10617
近似	-10618
RNA	-10619
灭绝	-10620
送给	-10621
制成	-10622
晚会	-10623
年了	-10624
▁其次	-10625
时针	-10626
ouse	-10627
粗糙	-10628
破解	-10629
▁什么	-10630
后排座椅	-10631
交响	-10632
者和	-10633
安纳	-10634
其中有	-10635
仪表	-10636
副院长	-10637
被发现	-10638
不会有	-10639
四种	-10640
关门	-10641
pen	-10642
路易斯	-10643
▁晚上	-10644
传动	-10645
健身房	-10646
增设	-10647
节度	-10648
模式的	-10649
红旗	-10650
过来的	-10651
他又	-10652
搞定	-10653
营业部	-10654
上海证券交易所	-10655
可以直接	-10656
别克	-10657
的正	-10658
安全感	-10659
启发	-10660
ize	-10661
防空	-10662
最后一次	-10663
个性化	-10664
面部	-10665
总的来说	-10666
的事实	-10667
我所	-10668
忠诚	-10669
党中央	-10670
不同意	-10671
外来	-10672
北海道	-10673
执业	-10674
▁韩国	-10675
不通	-10676
不顾	-10677
秋天	-10678
呈现出	-10679
▁因此	-10680
见识	-10681
越多	-10682
德基	-10683
药学	-10684
去年同期	-10685
房贷	-10686
资源的	-10687
box	-10688
日间	-10689
烈士	-10690
政治学	-10691
可口	-10692
省的	-10693
静脉	-10694
天窗	-10695
得主	-10696
亲属	-10697
好在	-10698
综合性	-10699
赛的	-10700
却被	-10701
舍友	-10702
环境的	-10703
大地	-10704
不容	-10705
于此	-10706
的方向	-10707
一两	-10708
备用	-10709
接受了	-10710
不妨	-10711
等你	-10712
和技术	-10713
Le	-10714
残留	-10715
复古	-10716
改称	-10717
汤汁	-10718
绑架	-10719
委屈	-10720
是自己	-10721
以及其他	-10722
望远镜	-10723
原油库存	-10724
开出	-10725
置换	-10726
美元附近	-10727
光线	-10728
黑白	-10729
https	-10730
位移	-10731
▁我也	-10732
的交易	-10733
高大	-10734
本月	-10735
沿岸	-10736
露出	-10737
标注	-10738
usic	-10739
▁此	-10740
广阔	-10741
身心	-10742
想起来	-10743
十三五	-10744
斯拉夫	-10745
领地	-10746
都已经	-10747
不分	-10748
都好	-10749
现为	-10750
质感	-10751
▁小行星	-10752
字符	-10753
族群	-10754
▁明	-10755
▁香	-10756
赶到	-10757
酸的	-10758
的手机	-10759
无线电视	-10760
复核	-10761
干脆	-10762
火腿	-10763
并为	-10764
一点都不	-10765
新网	-10766
诺夫	-10767
人被	-10768
我把	-10769
风雨	-10770
门外	-10771
经历过	-10772
一首	-10773
一季度	-10774
很一般	-10775
(;	-10776
是通过	-10777
ull	-10778
影响到	-10779
不可以	-10780
so	-10781
总投资	-10782
现在已经	-10783
中控	-10784
无非	-10785
不已	-10786
富裕	-10787
华侨	-10788
弗里	-10789
ict	-10790
▁伊	-10791
国有企业	-10792
▁连	-10793
后卫	-10794
比重	-10795
前沿	-10796
要做	-10797
贯穿	-10798
"。	-10799
分歧	-10800
工信部	-10801
年限	-10802
月任	-10803
吸引力	-10804
好朋友	-10805
莫名其妙	-10806
▁欧	-10807
oll	-10808
忍受	-10809
网贷	-10810
集团公司	-10811
卡通	-10812
班次	-10813
发表了	-10814
客场	-10815
时速	-10816
铁路局	-10817
有兴趣	-10818
点了个	-10819
优异	-10820
泡菜	-10821
从业人员	-10822
来得	-10823
很多时候	-10824
绝对是	-10825
开辟	-10826
果实	-10827
斯蒂	-10828
相关负责人	-10829
下发	-10830
中方	-10831
综述	-10832
悉尼	-10833
腹部	-10834
下周	-10835
出让	-10836
听过	-10837
鸟类	-10838
父母的	-10839
值得一提	-10840
Ti	-10841
前列	-10842
全日制	-10843
刺身	-10844
eep	-10845
▁本次	-10846
中药学	-10847
术语	-10848
计划的	-10849
同日	-10850
田径	-10851
骨干	-10852
东京都	-10853
杯子	-10854
推介	-10855
复苏	-10856
数目	-10857
TF	-10858
双重	-10859
以下是	-10860
备考	-10861
文的	-10862
莲花	-10863
过往	-10864
新鲜的	-10865
▁清	-10866
品味	-10867
有小	-10868
借口	-10869
长子	-10870
;"	-10871
喝的	-10872
防晒	-10873
布雷	-10874
赛中	-10875
桌面	-10876
先进的	-10877
ology	-10878
嘉实	-10879
."	-10880
丽江	-10881
食欲	-10882
▁我就	-10883
本身的	-10884
央企	-10885
术后	-10886
末期	-10887
口岸	-10888
在小	-10889
郑州市	-10890
弟子	-10891
世纪的	-10892
副市长	-10893
玩意	-10894
世纪初	-10895
手自一体	-10896
喜好	-10897
完整性	-10898
另外一个	-10899
▁买	-10900
核实	-10901
胶囊	-10902
馒头	-10903
兑换	-10904
展出	-10905
罢了	-10906
阿富汗	-10907
丝绸之路	-10908
供参考	-10909
可能的	-10910
ji	-10911
高二	-10912
奶酪	-10913
热带气旋	-10914
埔寨	-10915
农历	-10916
素养	-10917
你们的	-10918
my	-10919
▁分	-10920
以免	-10921
证券代码	-10922
参见	-10923
▁pr	-10924
到一个	-10925
能让	-10926
工作日	-10927
升至	-10928
▁让	-10929
口袋	-10930
专员	-10931
光顾	-10932
就连	-10933
很高的	-10934
httpwww	-10935
深深	-10936
立交	-10937
求职	-10938
普拉	-10939
六十	-10940
完成的	-10941
嘻嘻	-10942
或者重大遗漏	-10943
喝了	-10944
柬埔寨	-10945
德意志	-10946
接下来的	-10947
第二季	-10948
附图	-10949
包含了	-10950
等领域	-10951
凝聚	-10952
TSI	-10953
其为	-10954
let	-10955
Note	-10956
打败	-10957
自有	-10958
器件	-10959
很差	-10960
国旗	-10961
二手房	-10962
农药	-10963
完成后	-10964
误导性陈述或者重大遗漏	-10965
未必	-10966
到这里	-10967
定律	-10968
验收	-10969
探讨了	-10970
还说	-10971
各式	-10972
▁来源	-10973
▁给	-10974
▁胡	-10975
有线	-10976
游览	-10977
启示	-10978
多大	-10979
拼命	-10980
游玩	-10981
东区	-10982
有几个	-10983
关爱	-10984
得上	-10985
全资	-10986
是比较	-10987
▁七	-10988
转速	-10989
百合	-10990
上诉	-10991
太差	-10992
ener	-10993
▁some	-10994
却又	-10995
和国家	-10996
票据	-10997
发布会上	-10998
次日	-10999
躺在	-11000
跑道	-11001
明亮	-11002
▁古	-11003
首家	-11004
会试	-11005
新手	-11006
伴侣	-11007
摩尔	-11008
有害	-11009
绝大部分	-11010
目标看	-11011
年任	-11012
懂的	-11013
做出了	-11014
▁化学	-11015
加之	-11016
寂寞	-11017
探险	-11018
这块	-11019
船只	-11020
并发	-11021
女性的	-11022
IR	-11023
地层	-11024
夏威	-11025
紧紧	-11026
科员	-11027
orn	-11028
会觉得	-11029
变迁	-11030
的大部分	-11031
ude	-11032
的压力	-11033
写道	-11034
增持	-11035
无所谓	-11036
▁苏	-11037
大股东	-11038
对这个	-11039
不适	-11040
静态	-11041
对公司	-11042
午饭	-11043
冰激凌	-11044
心动	-11045
不稳定	-11046
的优势	-11047
▁res	-11048
直观	-11049
老实	-11050
激进	-11051
老鼠	-11052
走访	-11053
▁图片	-11054
发展和	-11055
几张	-11056
结尾	-11057
地表	-11058
一脸	-11059
没能	-11060
上大学	-11061
第十一	-11062
素的	-11063
拥堵	-11064
伯格	-11065
外表	-11066
澄清	-11067
个国家	-11068
难免	-11069
率的	-11070
开会	-11071
开展了	-11072
bla	-11073
短期内	-11074
果汁	-11075
日式	-11076
司长	-11077
下水	-11078
走上	-11079
天桥	-11080
牡丹	-11081
大字	-11082
坚守	-11083
高新区	-11084
iam	-11085
因此在	-11086
吾尔	-11087
多多	-11088
三观	-11089
EC	-11090
▁...	-11091
中全会	-11092
RMB	-11093
制定了	-11094
股权投资	-11095
▁学	-11096
曾祖	-11097
北京时间	-11098
适中	-11099
银监会	-11100
ony	-11101
▁https	-11102
干货	-11103
irst	-11104
ota	-11105
金针菇	-11106
赶上	-11107
片区	-11108
跨国	-11109
地中海	-11110
同比下降	-11111
自己也	-11112
~~~~~~~~	-11113
’,	-11114
城墙	-11115
还是在	-11116
MR	-11117
▁特	-11118
中美	-11119
回了	-11120
内衣	-11121
夏威夷	-11122
抚养	-11123
ily	-11124
个头	-11125
嫩的	-11126
西里	-11127
的人们	-11128
▁应用	-11129
向往	-11130
综艺节目	-11131
▁浙江	-11132
成立后	-11133
ital	-11134
子宫	-11135
即位	-11136
氯化	-11137
一定程度上	-11138
一斤	-11139
事的	-11140
计生	-11141
)/	-11142
虽说	-11143
任期	-11144
博会	-11145
概括	-11146
假的	-11147
脖子	-11148
眼前	-11149
懒得	-11150
间隙	-11151
介质	-11152
漂亮的	-11153
天才	-11154
程式	-11155
却没有	-11156
感激	-11157
查理	-11158
阴阳	-11159
的评价	-11160
evel	-11161
最重要	-11162
左侧	-11163
概述	-11164
都将	-11165
团长	-11166
来临	-11167
都非常	-11168
合规	-11169
后面的	-11170
估算	-11171
▁网	-11172
当期	-11173
树木	-11174
略有	-11175
报复	-11176
暴跌	-11177
管控	-11178
特别好	-11179
会很	-11180
中兴	-11181
兹省	-11182
逃离	-11183
会场	-11184
秋冬	-11185
维度	-11186
置业	-11187
▁Cl	-11188
知道了	-11189
▁ac	-11190
重启	-11191
旧址	-11192
树脂	-11193
畅销	-11194
哈萨克	-11195
台湾的	-11196
经典的	-11197
土木工程	-11198
不远	-11199
致命	-11200
专访	-11201
开户	-11202
Facebook	-11203
星星	-11204
给他们	-11205
太少	-11206
,,,	-11207
▁has	-11208
吸气	-11209
面体	-11210
实际控制	-11211
▁文学	-11212
道具	-11213
万个	-11214
户型	-11215
衔接	-11216
脑袋	-11217
UC	-11218
说出	-11219
irl	-11220
清算	-11221
在其他	-11222
就来	-11223
公约	-11224
实物	-11225
成熟的	-11226
人民检察院	-11227
叉烧	-11228
音频	-11229
微观	-11230
一个人的	-11231
可持续发展	-11232
洛特	-11233
出土	-11234
”——	-11235
华语	-11236
普京	-11237
大成	-11238
▁Ph	-11239
几家	-11240
关村	-11241
醒来	-11242
集群	-11243
即是	-11244
马克思主义	-11245
你不	-11246
泉水	-11247
加强对	-11248
半导体	-11249
一来	-11250
▁时间	-11251
车子	-11252
还款	-11253
一二	-11254
▁现车情况	-11255
山顶	-11256
入场	-11257
喇叭	-11258
佩戴	-11259
不限	-11260
则有	-11261
格雷	-11262
维吾尔	-11263
却不	-11264
句子	-11265
就此	-11266
有点像	-11267
》)	-11268
zhihu	-11269
你有	-11270
太后	-11271
服用	-11272
团伙	-11273
有网友	-11274
旁边的	-11275
开源	-11276
▁计算机	-11277
开支	-11278
Pr	-11279
孙子	-11280
房租	-11281
长了	-11282
可以让	-11283
的可能	-11284
▁雷	-11285
艾滋病	-11286
瞄准	-11287
特定的	-11288
色情	-11289
不动产	-11290
趣味	-11291
可通过	-11292
ited	-11293
的观点	-11294
********	-11295
脆弱	-11296
网点	-11297
南极	-11298
无穷	-11299
论述	-11300
▁园艺	-11301
段的	-11302
民进	-11303
副会长	-11304
得好	-11305
境界	-11306
血清	-11307
试行	-11308
建材	-11309
抵制	-11310
拨打	-11311
斯卡	-11312
嫌弃	-11313
全天	-11314
体型	-11315
公关	-11316
年会	-11317
智力	-11318
▁Re	-11319
教宗	-11320
重伤	-11321
▁作者	-11322
的最佳	-11323
bb	-11324
搜集	-11325
干涉	-11326
本片	-11327
集资	-11328
经济学家	-11329
▁龙	-11330
赫尔	-11331
胜出	-11332
法师	-11333
疑惑	-11334
会所	-11335
入驻	-11336
好人	-11337
宣言	-11338
▁more	-11339
▁记得	-11340
的经历	-11341
普罗	-11342
传出	-11343
还很	-11344
重心	-11345
oid	-11346
但仍	-11347
小平	-11348
Web	-11349
管理层	-11350
瘦身	-11351
位于中国	-11352
最长	-11353
在他的	-11354
也为	-11355
冶金	-11356
单纯的	-11357
我这	-11358
二号	-11359
曲目	-11360
西门	-11361
主板	-11362
后于	-11363
相近	-11364
进驻	-11365
选择的	-11366
较强	-11367
特勒	-11368
标配	-11369
警报	-11370
开头	-11371
▁Pr	-11372
▁点击	-11373
占了	-11374
回来了	-11375
指向	-11376
整数	-11377
与发展	-11378
包包	-11379
高空	-11380
弗雷	-11381
去医院	-11382
拉萨	-11383
图中二维码	-11384
京津冀	-11385
更多的是	-11386
不仅是	-11387
中证	-11388
▁德	-11389
餐具	-11390
企业和	-11391
调解	-11392
领导的	-11393
下雨	-11394
日举行	-11395
▁手机	-11396
▁app	-11397
盗窃	-11398
决定了	-11399
▁中医学	-11400
确定了	-11401
排查	-11402
辆车	-11403
地铁站	-11404
伴随	-11405
神社	-11406
酱汁	-11407
也因此	-11408
一键	-11409
在国际	-11410
热议	-11411
谴责	-11412
方针	-11413
Si	-11414
不是一个	-11415
毛病	-11416
命题	-11417
发散	-11418
降解	-11419
ret	-11420
▁people	-11421
极具	-11422
西游	-11423
去哪儿	-11424
▁II	-11425
▁那个	-11426
都不能	-11427
小孩子	-11428
可以从	-11429
里克	-11430
生活方式	-11431
要的	-11432
比尔	-11433
毛衣	-11434
礼仪	-11435
从来没	-11436
大事	-11437
分工	-11438
嘴巴	-11439
贪污	-11440
下午茶	-11441
质量的	-11442
研究表明	-11443
疗法	-11444
自然的	-11445
识别图中二维码	-11446
大声	-11447
丽的	-11448
栗子	-11449
▁河南	-11450
三百	-11451
性地	-11452
房地产开发	-11453
亲身	-11454
▁园艺学	-11455
彰显	-11456
鲁迅	-11457
▁广东	-11458
▁感谢	-11459
北区	-11460
TD	-11461
童话	-11462
产业的	-11463
保密	-11464
分组	-11465
祖先	-11466
初衷	-11467
社会学	-11468
▁{	-11469
越好	-11470
▁苹果	-11471
每天都	-11472
▁英	-11473
的网络	-11474
信徒	-11475
饲养	-11476
个城市	-11477
增量	-11478
法定代表人	-11479
修道	-11480
监局	-11481
▁微信	-11482
莱斯	-11483
大米	-11484
给孩子	-11485
某一	-11486
治疗组	-11487
的知识	-11488
流感	-11489
脆的	-11490
产出	-11491
▁they	-11492
证明了	-11493
________	-11494
表征	-11495
这一切	-11496
肯德基	-11497
表彰	-11498
▁也是	-11499
劳工	-11500
体制改革	-11501
一个大	-11502
最初的	-11503
意思是	-11504
要不要	-11505
GS	-11506
拥挤	-11507
率和	-11508
谈到	-11509
热量	-11510
我们都	-11511
多小时	-11512
便于	-11513
两地	-11514
线和	-11515
elf	-11516
调侃	-11517
人社	-11518
设在	-11519
要看	-11520
Co	-11521
▁Ad	-11522
资产负债	-11523
直达	-11524
压抑	-11525
吃饱	-11526
uck	-11527
▁于	-11528
下单	-11529
▁if	-11530
earch	-11531
Li	-11532
uan	-11533
名气	-11534
充满了	-11535
标志着	-11536
受限	-11537
了很久	-11538
约瑟	-11539
体现在	-11540
▁Man	-11541
对流	-11542
病逝	-11543
搭档	-11544
自己去	-11545
^^	-11546
奴隶	-11547
软的	-11548
几句	-11549
华尔	-11550
▁like	-11551
优酷	-11552
侮辱	-11553
硬币	-11554
▁HD	-11555
二者	-11556
由中国	-11557
预售	-11558
低迷	-11559
眼的	-11560
归纳	-11561
村的	-11562
逃避	-11563
火焰	-11564
闲置	-11565
年前的	-11566
牛市	-11567
自贸区	-11568
瀑布	-11569
认识的	-11570
暂行	-11571
最少	-11572
身边的	-11573
女演员	-11574
忽悠	-11575
设计了	-11576
可以看出	-11577
合作社	-11578
财务指标	-11579
共振	-11580
任天堂	-11581
安县	-11582
贝克	-11583
物浦	-11584
穿上	-11585
卫生间	-11586
政治局	-11587
的资金	-11588
状元	-11589
配菜	-11590
买过	-11591
带到	-11592
显微	-11593
外面的	-11594
服务平台	-11595
并有	-11596
配料	-11597
模范	-11598
毁灭	-11599
嘲笑	-11600
装逼	-11601
存在于	-11602
养老保险	-11603
该剧	-11604
熬夜	-11605
军委	-11606
误解	-11607
的家	-11608
佛罗里	-11609
年以上	-11610
基金财产	-11611
官至	-11612
纳德	-11613
之称	-11614
▁尽管	-11615
反击	-11616
ump	-11617
▁厂商指导价	-11618
基金投资	-11619
水域面积为	-11620
才可以	-11621
听取	-11622
陆地面积为	-11623
艺术品	-11624
假装	-11625
就读于	-11626
也许是	-11627
▁go	-11628
法和	-11629
理事会	-11630
单打	-11631
终极	-11632
绘制	-11633
交通大学	-11634
quest	-11635
格勒	-11636
酸甜	-11637
▁嗯	-11638
外贸	-11639
眼中	-11640
作的	-11641
找出	-11642
开始在	-11643
该市	-11644
人身	-11645
▁It	-11646
▁这次	-11647
持平	-11648
素材	-11649
各省	-11650
推翻	-11651
IL	-11652
创作的	-11653
为一个	-11654
两周	-11655
薪资	-11656
彩虹	-11657
支行	-11658
设计和	-11659
规矩	-11660
难民	-11661
色内饰	-11662
涉及到	-11663
▁湖南	-11664
警惕	-11665
没收	-11666
保定	-11667
型车	-11668
人有	-11669
罗伯特	-11670
高科技	-11671
样式	-11672
中考	-11673
中华民族	-11674
▁比较	-11675
当做	-11676
第十三	-11677
年美国人口普查的数据	-11678
前途	-11679
等方面的	-11680
enn	-11681
▁Be	-11682
骗子	-11683
塞尔维亚	-11684
的心态	-11685
;&	-11686
人口密度为每平方千米	-11687
轻微	-11688
厅长	-11689
仲裁	-11690
▁out	-11691
自此	-11692
结构性	-11693
Apple	-11694
之初	-11695
幕后	-11696
出版的	-11697
进去了	-11698
并向	-11699
然后在	-11700
家企业	-11701
当地共有人口	-11702
开播	-11703
维基	-11704
重金属	-11705
这事	-11706
泰勒	-11707
真理	-11708
出色的	-11709
清晨	-11710
边上	-11711
而人口密度为每平方千米	-11712
只是一个	-11713
长途	-11714
在这种	-11715
修饰	-11716
知名的	-11717
上年同期	-11718
大学毕业	-11719
▁转	-11720
取得的	-11721
的发生	-11722
部副部长	-11723
动词	-11724
自习	-11725
大海	-11726
故宫	-11727
利物浦	-11728
增至	-11729
▁Mar	-11730
老外	-11731
节假日	-11732
说明书	-11733
注意的是	-11734
严禁	-11735
星球	-11736
朗德	-11737
三甲	-11738
的山	-11739
共产主义	-11740
右手	-11741
用到	-11742
开水	-11743
想做	-11744
暧昧	-11745
战绩	-11746
服务生	-11747
噪音	-11748
干的	-11749
学院的	-11750
日讯	-11751
不相	-11752
仅仅是	-11753
中途	-11754
年世界	-11755
(,;)	-11756
晚了	-11757
那家	-11758
就这么	-11759
运行于	-11760
干了	-11761
正如	-11762
睡着	-11763
股的	-11764
急救	-11765
哈利	-11766
EL	-11767
帮扶	-11768
列举	-11769
印花	-11770
的视频	-11771
生肖	-11772
已知	-11773
车门	-11774
VIP	-11775
爱德华	-11776
体现了	-11777
虽然是	-11778
的生产	-11779
相互作用	-11780
存在的问题	-11781
号召	-11782
扭转	-11783
▁万元	-11784
体力	-11785
三层	-11786
又能	-11787
越高	-11788
豪华版	-11789
SN	-11790
完全是	-11791
不爽	-11792
浓的	-11793
历时	-11794
UR	-11795
在她	-11796
入市	-11797
小康	-11798
第一天	-11799
麻将	-11800
▁光	-11801
提倡	-11802
早盘	-11803
屏蔽	-11804
了一张	-11805
交代	-11806
画的	-11807
变态	-11808
微信公众	-11809
环绕	-11810
对自己的	-11811
在中国大陆	-11812
与人	-11813
文革	-11814
Play	-11815
推导	-11816
高通	-11817
之名	-11818
方法的	-11819
指甲	-11820
赌博	-11821
封为	-11822
商贸	-11823
普鲁	-11824
路站	-11825
古巴	-11826
四人	-11827
play	-11828
寺庙	-11829
蝙蝠	-11830
十余	-11831
款项	-11832
残酷	-11833
坚强	-11834
破裂	-11835
的心情	-11836
河口	-11837
瓶颈	-11838
网红	-11839
cod	-11840
任性	-11841
化了	-11842
患有	-11843
卧室	-11844
交叉口	-11845
花样	-11846
▁直降	-11847
主要为	-11848
fl	-11849
金价	-11850
单车	-11851
加重	-11852
研讨会	-11853
取向	-11854
接管	-11855
音乐会	-11856
潜水	-11857
解决问题	-11858
检疫	-11859
特朗普	-11860
一站	-11861
陷阱	-11862
留守	-11863
还想	-11864
建立的	-11865
江户	-11866
基本面	-11867
狂欢	-11868
还有就是	-11869
捷克	-11870
县委	-11871
繁忙	-11872
省接壤	-11873
阳性	-11874
相遇	-11875
见了	-11876
礼貌	-11877
也算是	-11878
路与	-11879
心思	-11880
缺口	-11881
选的	-11882
方形	-11883
颁奖典礼	-11884
接任	-11885
一般是	-11886
讨论了	-11887
当选为	-11888
季后	-11889
库尔	-11890
共和党	-11891
一处	-11892
日均	-11893
言语	-11894
问卷	-11895
你说	-11896
分布式	-11897
rac	-11898
主教练	-11899
外加	-11900
字号	-11901
拿出来	-11902
川菜	-11903
溢价	-11904
遗体	-11905
庞大的	-11906
ana	-11907
执行官	-11908
郊区	-11909
反映了	-11910
请客	-11911
添加剂	-11912
南站	-11913
打出	-11914
比较少	-11915
应变	-11916
陨石坑	-11917
烟台	-11918
狭窄	-11919
Car	-11920
忘记了	-11921
在做	-11922
太好	-11923
FF	-11924
▁内	-11925
的时候我	-11926
卡的	-11927
长久	-11928
中日	-11929
遇上	-11930
墙上	-11931
一直到	-11932
住所	-11933
剑桥	-11934
私信	-11935
星期一	-11936
污染物	-11937
珊瑚	-11938
五百	-11939
齿轮	-11940
集聚	-11941
不是很好	-11942
上级	-11943
在水	-11944
神圣	-11945
的平均	-11946
初恋	-11947
防水	-11948
万圣	-11949
Br	-11950
的决定	-11951
樱花	-11952
▁突然	-11953
良心	-11954
骨折	-11955
ublic	-11956
数位	-11957
谈谈	-11958
▁微	-11959
原为	-11960
小麦	-11961
关于公司	-11962
都会有	-11963
等多个	-11964
▁热	-11965
未成年人	-11966
两会	-11967
见解	-11968
请教	-11969
鄙视	-11970
高出	-11971
我们会	-11972
励志	-11973
ifi	-11974
图的	-11975
她就	-11976
深刻的	-11977
一审	-11978
▁服务员	-11979
反驳	-11980
弹药	-11981
塔尼	-11982
一瓶	-11983
曹操	-11984
南京市	-11985
无语	-11986
姓氏	-11987
性与	-11988
ground	-11989
在不	-11990
室外	-11991
科尔	-11992
李克强	-11993
烹饪	-11994
罗马尼亚	-11995
多点	-11996
想不到	-11997
back	-11998
位于该省	-11999
基金托管	-12000
公务员考试	-12001
雪山	-12002
作品的	-12003
捕捉	-12004
正经	-12005
小学生	-12006
糊涂	-12007
BP	-12008
纪检	-12009
开始的	-12010
港通	-12011
大家的回答	-12012
ene	-12013
活泼	-12014
知道的	-12015
创投	-12016
日发布	-12017
峡谷	-12018
必定	-12019
珠江	-12020
之意	-12021
油的	-12022
农户	-12023
断层	-12024
笑容	-12025
参谋长	-12026
滥用	-12027
出入	-12028
制裁	-12029
要不	-12030
法兰克	-12031
的本	-12032
▁四川	-12033
届中国	-12034
考入	-12035
后发现	-12036
贴心	-12037
三个人	-12038
台词	-12039
武昌	-12040
▁石	-12041
名牌	-12042
双打	-12043
大方	-12044
民办	-12045
维也	-12046
的水平	-12047
梦幻	-12048
孟加拉	-12049
武汉市	-12050
同业	-12051
关键是	-12052
che	-12053
多元化	-12054
就是个	-12055
▁成都	-12056
号汽油	-12057
杀了	-12058
但没有	-12059
家里人	-12060
战略合作	-12061
等位	-12062
下手	-12063
我俩	-12064
▁电动	-12065
的定义	-12066
每小时	-12067
十个	-12068
吃喝	-12069
年获得	-12070
招录	-12071
外婆	-12072
经贸	-12073
脑洞	-12074
加斯	-12075
idth	-12076
内部控制	-12077
泽尔省	-12078
先是	-12079
谢谢大家	-12080
溶解	-12081
万名	-12082
同胞	-12083
OL	-12084
医科	-12085
不准	-12086
味儿	-12087
ari	-12088
宇航	-12089
我不想	-12090
ETF	-12091
分钟后	-12092
渔业	-12093
一圈	-12094
偏好	-12095
我跟	-12096
牛津	-12097
sm	-12098
旗帜	-12099
和水	-12100
商铺	-12101
格鲁	-12102
周杰伦	-12103
一无	-12104
是新	-12105
蜘蛛	-12106
节度使	-12107
一线城市	-12108
撤退	-12109
面板	-12110
cp	-12111
费率	-12112
部尚书	-12113
进出	-12114
get	-12115
在今年	-12116
被誉为	-12117
契约	-12118
拉升	-12119
小波	-12120
带你	-12121
住房公积金	-12122
食品药品	-12123
的超	-12124
转到	-12125
鲜肉	-12126
ipt	-12127
▁孙	-12128
艺兴	-12129
直流	-12130
服务有限公司	-12131
感慨	-12132
化学工程	-12133
多伦	-12134
简易	-12135
第一部	-12136
ange	-12137
体系的	-12138
网站上	-12139
不明白	-12140
智利	-12141
▁论	-12142
渤海	-12143
一角	-12144
车款	-12145
医疗机构	-12146
火力	-12147
的品牌	-12148
年终	-12149
上百	-12150
经济管理	-12151
时被	-12152
的马	-12153
逼近	-12154
主要包括	-12155
掌控	-12156
该庄	-12157
存放	-12158
情商	-12159
从前	-12160
他自己	-12161
哺乳	-12162
学到	-12163
真空	-12164
参演	-12165
霸王	-12166
TOP	-12167
雕刻	-12168
的意义	-12169
失效	-12170
安心	-12171
资产重组	-12172
盗版	-12173
▁艺术学	-12174
登山	-12175
和管理	-12176
威尼斯	-12177
纪念碑	-12178
甘肃省	-12179
来做	-12180
胖子	-12181
也都是	-12182
兴业	-12183
强力	-12184
氨基酸	-12185
鹿晗	-12186
烤鱼	-12187
之后就	-12188
火了	-12189
营业税	-12190
阐述了	-12191
汽车销售	-12192
伊利诺伊	-12193
区域的	-12194
比的	-12195
过大	-12196
在当地	-12197
之道	-12198
投标	-12199
收视率	-12200
培根	-12201
明珠	-12202
杂交	-12203
泊尔	-12204
▁原来	-12205
中国政府	-12206
升格为	-12207
真的好	-12208
表态	-12209
ection	-12210
扇贝	-12211
挣扎	-12212
柜台	-12213
color	-12214
传播学	-12215
了自己的	-12216
比分	-12217
跳水	-12218
重力	-12219
侵略	-12220
签字	-12221
面料	-12222
的点	-12223
pd	-12224
▁男	-12225
二本	-12226
▁am	-12227
会把	-12228
购置	-12229
打通	-12230
支线	-12231
史蒂	-12232
洛夫	-12233
的代表	-12234
▁只要	-12235
理论上	-12236
这套	-12237
得不到	-12238
▁郑	-12239
悲伤	-12240
而水域面积为	-12241
当中陆地面积为	-12242
人受伤	-12243
尼黑	-12244
创新创业	-12245
听了	-12246
领衔	-12247
基本情况	-12248
万多	-12249
调动	-12250
皇马	-12251
阵营	-12252
IX	-12253
三名	-12254
▁交通运输	-12255
yl	-12256
眼球	-12257
VA	-12258
道光	-12259
资本主义	-12260
顶部	-12261
▁Eng	-12262
年以	-12263
替换	-12264
▁重庆	-12265
▁这家店	-12266
变身	-12267
班的	-12268
北京的	-12269
续航	-12270
美国总统	-12271
ae	-12272
ific	-12273
显现	-12274
测绘	-12275
work	-12276
实施方案	-12277
ott	-12278
多吃	-12279
拥有的	-12280
二层	-12281
伪造	-12282
长假	-12283
报告显示	-12284
概况	-12285
淋巴	-12286
▁德国	-12287
八大	-12288
将为	-12289
行政院	-12290
乌克兰的	-12291
佣金	-12292
小菜	-12293
生死	-12294
年毕业于	-12295
法令	-12296
万像素	-12297
实证	-12298
维克	-12299
撤离	-12300
映射	-12301
突变	-12302
国防部	-12303
不知道怎么	-12304
排斥	-12305
参与者	-12306
何时	-12307
关怀	-12308
很足	-12309
GT	-12310
三家	-12311
的风格	-12312
定于	-12313
年均	-12314
鳍鱼	-12315
的理由	-12316
试着	-12317
▁time	-12318
鼠标	-12319
以下为	-12320
万户	-12321
两只	-12322
教导	-12323
地狱	-12324
▁近年来	-12325
法则	-12326
指挥官	-12327
先天	-12328
军方	-12329
青岛市	-12330
党政	-12331
头脑	-12332
效能	-12333
专区	-12334
梅西	-12335
的最高	-12336
波音	-12337
婚后	-12338
锤子	-12339
检出	-12340
步入	-12341
镜子	-12342
就不要	-12343
离散	-12344
裙子	-12345
萃取	-12346
资管	-12347
办案	-12348
航行	-12349
是目前	-12350
加利福尼亚州	-12351
爽口	-12352
的店	-12353
也只是	-12354
女人的	-12355
由来	-12356
锅炉	-12357
。&	-12358
尼日	-12359
毒素	-12360
叶片	-12361
转股	-12362
方程式	-12363
福音	-12364
立陶	-12365
部分地区	-12366
八十	-12367
叠加	-12368
山药	-12369
过一次	-12370
ternational	-12371
将从	-12372
海淀	-12373
内心的	-12374
插入	-12375
中年	-12376
一般都是	-12377
为大	-12378
九州	-12379
告诉他	-12380
小微	-12381
▁简介	-12382
了一年	-12383
减少了	-12384
FO	-12385
接连	-12386
老了	-12387
一直没有	-12388
所说	-12389
监护	-12390
鸡腿	-12391
在家里	-12392
川县	-12393
天鹅	-12394
产业化	-12395
单子	-12396
总公司	-12397
触摸	-12398
铁路车站	-12399
在此基础上	-12400
而且还	-12401
iu	-12402
机电	-12403
特兰	-12404
录得	-12405
微分	-12406
众议院	-12407
可能有	-12408
冠状病毒	-12409
了一家	-12410
条纹	-12411
推迟	-12412
波尔	-12413
大跌	-12414
腐蚀	-12415
重点关注	-12416
像我	-12417
惊人	-12418
月饼	-12419
手套	-12420
cess	-12421
高一	-12422
慕尼黑	-12423
首席执行官	-12424
的红	-12425
固定的	-12426
级联赛	-12427
葫芦	-12428
滋味	-12429
每次都	-12430
很想	-12431
合法权益	-12432
肥胖	-12433
达标	-12434
开幕式	-12435
尼古	-12436
理查	-12437
▁!	-12438
公社	-12439
"(	-12440
年份	-12441
看我	-12442
星巴克	-12443
在问答社区	-12444
▁·	-12445
ely	-12446
▁网络	-12447
上台	-12448
总队	-12449
维也纳	-12450
报销	-12451
日产	-12452
改正	-12453
健康发展	-12454
与大	-12455
不允许	-12456
设备的	-12457
安全生产	-12458
建设项目	-12459
高等学校	-12460
租用	-12461
才开始	-12462
数字化	-12463
▁平	-12464
四处	-12465
电极	-12466
固定资产	-12467
华安	-12468
送往	-12469
钢筋	-12470
顺时针	-12471
福田	-12472
零件	-12473
▁郭	-12474
南区	-12475
▁全球	-12476
实测	-12477
宽敞	-12478
集结	-12479
天文台	-12480
会员卡	-12481
了一系列	-12482
里约	-12483
的人都	-12484
给力	-12485
不宜	-12486
保湿	-12487
▁前置	-12488
保本	-12489
职权	-12490
乙烯	-12491
之日起	-12492
▁更多	-12493
当周	-12494
半个月	-12495
徐州	-12496
立陶宛	-12497
储蓄	-12498
任何一个	-12499
不信	-12500
▁第四	-12501
昆虫	-12502
有余	-12503
王者	-12504
处理的	-12505
"),	-12506
▁ar	-12507
YouT	-12508
东东	-12509
财物	-12510
............	-12511
希拉里	-12512
美学	-12513
▁这家	-12514
许多人	-12515
win	-12516
开封	-12517
等一系列	-12518
中央电视台	-12519
繁华	-12520
公认	-12521
内幕	-12522
整整	-12523
时有	-12524
三部	-12525
大四	-12526
▁ID	-12527
裂缝	-12528
不仅仅是	-12529
isc	-12530
▁神	-12531
胸部	-12532
日被	-12533
古镇	-12534
玩了	-12535
▁男子	-12536
▁有时候	-12537
并行	-12538
商务部	-12539
星人	-12540
发展战略	-12541
制服	-12542
过高	-12543
在自己	-12544
供热	-12545
业态	-12546
年期间	-12547
SB	-12548
乌拉	-12549
Linux	-12550
一举	-12551
了呢	-12552
结晶	-12553
印度尼西亚	-12554
年代初	-12555
回避	-12556
美白	-12557
Qu	-12558
这些都是	-12559
媒体的	-12560
▁只有	-12561
搬到	-12562
▁有些	-12563
特别喜欢	-12564
的西	-12565
而我	-12566
需求的	-12567
森林公园	-12568
阶段的	-12569
史密斯	-12570
核电	-12571
薄弱	-12572
饮品	-12573
彰化	-12574
规模的	-12575
痘痘	-12576
采用的	-12577
注意事项	-12578
奇幻	-12579
鳗鱼	-12580
奖最佳	-12581
习俗	-12582
榴莲	-12583
旅游局	-12584
这个世界	-12585
He	-12586
商量	-12587
早饭	-12588
智能化	-12589
小时图	-12590
水源	-12591
的对象	-12592
在世界	-12593
的两个	-12594
的路	-12595
Na	-12596
短片	-12597
肉丝	-12598
传说中的	-12599
折磨	-12600
▁PS	-12601
正月	-12602
值得一提的是	-12603
六大	-12604
供水	-12605
攻打	-12606
的思想	-12607
利于	-12608
看不	-12609
洛斯	-12610
德军	-12611
排量	-12612
管理制度	-12613
为我	-12614
传言	-12615
市内	-12616
之心	-12617
很舒服	-12618
脑残	-12619
▁待	-12620
↓↓↓	-12621
出入境	-12622
杏仁	-12623
CPI	-12624
▁有点	-12625
没必要	-12626
动工	-12627
中和	-12628
恶魔	-12629
公司章程	-12630
即使是	-12631
一门	-12632
说她	-12633
再加	-12634
不知道是不是	-12635
托福	-12636
任何人	-12637
ward	-12638
这样做	-12639
暴涨	-12640
摆放	-12641
一向	-12642
有用	-12643
止于	-12644
偏离	-12645
▁–	-12646
四周	-12647
for	-12648
弗拉	-12649
首选	-12650
一架	-12651
主线	-12652
开着	-12653
作曲家	-12654
理事长	-12655
离开了	-12656
同等	-12657
拉伸	-12658
氧化物	-12659
选民	-12660
风力	-12661
该项目	-12662
居多	-12663
不便	-12664
其间	-12665
大堂	-12666
那年	-12667
包括了	-12668
技术面	-12669
世的	-12670
高山	-12671
▁此次	-12672
▁经常	-12673
质押	-12674
Be	-12675
树林	-12676
▁不管	-12677
菲尔德	-12678
觉得我	-12679
足球运动员	-12680
角的	-12681
体长可达	-12682
游乐	-12683
显卡	-12684
基金合同生效	-12685
海滩	-12686
阴谋	-12687
魔术	-12688
买东西	-12689
的低	-12690
复读	-12691
他们是	-12692
华裔	-12693
亲人	-12694
契机	-12695
经营者	-12696
代购	-12697
等内容	-12698
最重要的是	-12699
主事	-12700
尊贵	-12701
脚步	-12702
ris	-12703
▁cont	-12704
左翼	-12705
星期六	-12706
满意的	-12707
但是他	-12708
就是这样	-12709
▁青	-12710
的你	-12711
的土地	-12712
黑客	-12713
La	-12714
完全不	-12715
没那么	-12716
即为	-12717
gram	-12718
语气	-12719
两点	-12720
意识形态	-12721
傍晚	-12722
发文	-12723
证券简称	-12724
韭菜	-12725
▁各种	-12726
头衔	-12727
凭证	-12728
叛乱	-12729
存量	-12730
PK	-12731
目标是	-12732
乳腺	-12733
座标	-12734
蚂蚁	-12735
支流	-12736
吃了一	-12737
年成立	-12738
纪念馆	-12739
坐下	-12740
菲利	-12741
都督	-12742
无线电	-12743
▁家	-12744
获取更多	-12745
豪华型	-12746
+”	-12747
管理系统	-12748
"、	-12749
麻辣烫	-12750
手机的	-12751
就跟	-12752
泉州	-12753
钓鱼岛	-12754
实习生	-12755
社会保障	-12756
救灾	-12757
全书	-12758
战车	-12759
鲜明	-12760
正能量	-12761
高新技术	-12762
法拉	-12763
动车组	-12764
等情况	-12765
得不	-12766
离心	-12767
监督管理委员会	-12768
情景	-12769
评测	-12770
▁饰	-12771
翌年	-12772
实在太	-12773
凝胶	-12774
▁江	-12775
穿的	-12776
两款	-12777
偿还	-12778
仍未	-12779
在外面	-12780
发烧	-12781
表格	-12782
遗迹	-12783
sk	-12784
▁Comp	-12785
精密	-12786
▁唐	-12787
奢华	-12788
的意见	-12789
▁广	-12790
塞罗	-12791
有次	-12792
中南	-12793
编号为	-12794
mb	-12795
昆明市	-12796
详细的	-12797
▁about	-12798
数据分析	-12799
世代	-12800
厢轿车	-12801
这个是	-12802
soft	-12803
国家公园	-12804
习近平总书记	-12805
布兰	-12806
升为	-12807
取自	-12808
之星	-12809
解剖	-12810
热带风暴	-12811
本科生	-12812
;/	-12813
很低	-12814
针织	-12815
点儿	-12816
日由	-12817
生子	-12818
了大	-12819
把你	-12820
而该	-12821
而这	-12822
出处	-12823
新娘	-12824
蔓延	-12825
国家安全	-12826
货币市场	-12827
调查显示	-12828
这么多人	-12829
中队	-12830
甲醛	-12831
要用	-12832
说起	-12833
的地区	-12834
年第	-12835
在北	-12836
骑行	-12837
成名	-12838
锈钢	-12839
LP	-12840
会是	-12841
随手	-12842
特效	-12843
兔子	-12844
拒绝了	-12845
初次	-12846
也让	-12847
水位	-12848
投机	-12849
OC	-12850
花椒	-12851
通话	-12852
国家税务局	-12853
简直是	-12854
前台	-12855
放宽	-12856
ateg	-12857
原著	-12858
▁来自	-12859
咨询电话	-12860
她也	-12861
大幅度	-12862
辐鳍鱼	-12863
▁工作	-12864
年代的	-12865
EP	-12866
不包括	-12867
二手车	-12868
木材	-12869
神器	-12870
气象局	-12871
中场	-12872
领队	-12873
根本没有	-12874
开朗	-12875
男人的	-12876
▁@	-12877
揭秘	-12878
换个	-12879
新村	-12880
肉类	-12881
▁按	-12882
两张	-12883
eed	-12884
比亚迪	-12885
出货	-12886
陌生人	-12887
全县	-12888
模样	-12889
解说	-12890
与美国	-12891
========	-12892
三线	-12893
上个	-12894
兼顾	-12895
的一大	-12896
招收	-12897
科医生	-12898
在华	-12899
恰好	-12900
的一面	-12901
节目中	-12902
期权	-12903
测评	-12904
空的	-12905
零部件	-12906
党籍	-12907
账面	-12908
定义为	-12909
封建	-12910
刚才	-12911
弃权	-12912
驾照	-12913
灾区	-12914
ates	-12915
的一系列	-12916
左手	-12917
流出	-12918
褐色	-12919
的人群	-12920
odel	-12921
集团的	-12922
文书	-12923
在当时	-12924
的数量	-12925
万一	-12926
和我们	-12927
名列	-12928
▁基本	-12929
市场份额	-12930
体操	-12931
帅哥	-12932
亚目	-12933
MD	-12934
曾为	-12935
上图	-12936
在欧洲	-12937
背部	-12938
生化	-12939
招待	-12940
嘲讽	-12941
师大	-12942
了些	-12943
基隆	-12944
封锁	-12945
油炸	-12946
并不会	-12947
▁ro	-12948
的主题	-12949
的区域	-12950
计时	-12951
看病	-12952
政治部	-12953
战争中	-12954
香港的	-12955
试用	-12956
▁主	-12957
反感	-12958
日消息	-12959
加入中国共产党	-12960
正交	-12961
▁云南	-12962
还可	-12963
牛腩	-12964
的都	-12965
域名	-12966
echn	-12967
▁免费订阅哦	-12968
的他	-12969
▁???	-12970
宣判	-12971
庄园	-12972
精通	-12973
建构	-12974
▁之后	-12975
辐鳍鱼纲	-12976
▁平时	-12977
发行股份	-12978
争执	-12979
摄入	-12980
可能在	-12981
家庭的	-12982
John	-12983
迫使	-12984
▁材料科学与工程	-12985
古迹	-12986
两边	-12987
想说	-12988
▁经过	-12989
erson	-12990
一发	-12991
划归	-12992
调的	-12993
通常是	-12994
带头	-12995
期间的	-12996
其实我	-12997
受众	-12998
深处	-12999
变化的	-13000
arket	-13001
▁若	-13002
而来的	-13003
▁who	-13004
▁China	-13005
层次的	-13006
巡洋	-13007
火烧	-13008
要说	-13009
▁市	-13010
收到了	-13011
殴打	-13012
监视	-13013
不是我	-13014
组委会	-13015
实拍	-13016
片子	-13017
重度	-13018
高级管理人员	-13019
变异	-13020
对的	-13021
免费订阅哦	-13022
拿破	-13023
每一次	-13024
大公	-13025
▁总之	-13026
就是因为	-13027
中华人民共和国政治人物	-13028
又一次	-13029
ino	-13030
古老的	-13031
更喜欢	-13032
结构和	-13033
移居	-13034
之余	-13035
在地	-13036
隐形	-13037
在法国	-13038
侵害	-13039
监制	-13040
留意	-13041
阳台	-13042
魔兽	-13043
gov	-13044
read	-13045
展示了	-13046
盛宴	-13047
跑了	-13048
味道一般	-13049
▁开始	-13050
味道还不错	-13051
房源	-13052
的小说	-13053
舍不得	-13054
元件	-13055
扶手	-13056
纵向	-13057
申请人	-13058
▁per	-13059
稳步	-13060
ative	-13061
和不	-13062
熟悉的	-13063
心中的	-13064
妹纸	-13065
前驱	-13066
台阶	-13067
男士	-13068
▁山东	-13069
绿豆	-13070
送了	-13071
冷冻	-13072
复仇	-13073
同情	-13074
专项整治	-13075
这部电影	-13076
干什么	-13077
椅子	-13078
▁int	-13079
渲染	-13080
)《	-13081
安市	-13082
培训班	-13083
拉德	-13084
专卖	-13085
无一	-13086
轮廓	-13087
roup	-13088
▁九	-13089
分会	-13090
后代	-13091
主营业务	-13092
散步	-13093
财报	-13094
高地	-13095
前置	-13096
到底是	-13097
行政管理	-13098
驱逐舰	-13099
这么多年	-13100
▁这个问题	-13101
风口	-13102
借此	-13103
所示	-13104
湖区	-13105
那样的	-13106
真题	-13107
选中	-13108
通胀	-13109
仍然是	-13110
食性	-13111
最喜欢的	-13112
国家税务总局	-13113
中正	-13114
我问	-13115
职称	-13116
可以看	-13117
学堂	-13118
▁基础医学	-13119
OPEC	-13120
回族	-13121
汇聚	-13122
骨骼	-13123
face	-13124
发达国家	-13125
双眼	-13126
出去玩	-13127
的出现	-13128
rist	-13129
水稻	-13130
液压	-13131
尼泊尔	-13132
的名	-13133
生活费	-13134
精美	-13135
OM	-13136
背面	-13137
旅馆	-13138
介石	-13139
▁亚	-13140
倒闭	-13141
芥末	-13142
三千	-13143
中型	-13144
注定	-13145
明确的	-13146
用在	-13147
信息系统	-13148
孔子	-13149
我爱	-13150
大学教授	-13151
公职	-13152
举动	-13153
年他	-13154
加载	-13155
ute	-13156
舒适型	-13157
一到	-13158
北市	-13159
缓冲	-13160
肯定会	-13161
委任	-13162
徒步	-13163
防控	-13164
▁高中	-13165
大腿	-13166
螃蟹	-13167
定增	-13168
场馆	-13169
数额	-13170
同样是	-13171
的重大	-13172
参议院	-13173
搜索引擎	-13174
只为	-13175
饱满	-13176
无敌	-13177
木瓜	-13178
网站的	-13179
好多人	-13180
也不好	-13181
华尔街	-13182
元帅	-13183
规中	-13184
慢慢的	-13185
僵尸	-13186
多尔	-13187
天王	-13188
镇压	-13189
全区	-13190
形目	-13191
wer	-13192
更能	-13193
字幕	-13194
者在	-13195
亲爱的	-13196
岁以下	-13197
UTC	-13198
▁Le	-13199
庞大	-13200
萨拉	-13201
网的	-13202
在建	-13203
大牌	-13204
总值	-13205
角逐	-13206
石墨	-13207
从来不	-13208
不详	-13209
手臂	-13210
▁小时候	-13211
政变	-13212
拿破仑	-13213
明代	-13214
ush	-13215
电视动画	-13216
新浪微博	-13217
流氓	-13218
销售的	-13219
外包	-13220
要好	-13221
金曲	-13222
地理学	-13223
沙田	-13224
也不要	-13225
我们也	-13226
丙烯	-13227
▁know	-13228
德罗	-13229
中性	-13230
金银	-13231
留下了	-13232
怎么做	-13233
奔跑	-13234
赛道	-13235
▁交通运输工程	-13236
大爷	-13237
增添	-13238
就行了	-13239
社长	-13240
人际	-13241
这名	-13242
DD	-13243
电解	-13244
无视	-13245
鱼雷	-13246
影响因素	-13247
把自己的	-13248
玩手机	-13249
尾巴	-13250
理工学院	-13251
打压	-13252
相关性	-13253
▁车	-13254
一笔	-13255
南山	-13256
标致	-13257
下来了	-13258
改编自	-13259
共建	-13260
再现	-13261
但因为	-13262
.,	-13263
女主	-13264
海尔	-13265
排在	-13266
吃完了	-13267
起伏	-13268
二的	-13269
耕地	-13270
总数的	-13271
加勒	-13272
圆满	-13273
几千	-13274
测算	-13275
rain	-13276
环境中	-13277
▁体育学	-13278
▁百	-13279
光的	-13280
机枪	-13281
川普	-13282
未婚	-13283
ouch	-13284
二十年	-13285
ior	-13286
▁ag	-13287
的特征	-13288
边形	-13289
招考	-13290
▁时	-13291
与他	-13292
影响力的	-13293
出席会议	-13294
交通安全	-13295
恋情	-13296
lish	-13297
但又	-13298
克利	-13299
崇祯	-13300
亿元的	-13301
指挥部	-13302
GL	-13303
升降	-13304
我这个	-13305
每次去	-13306
乌斯	-13307
冻结	-13308
▁有人	-13309
足球联赛	-13310
穿戴	-13311
同为	-13312
后勤	-13313
好事	-13314
的一份	-13315
判定	-13316
日期间	-13317
本着	-13318
BI	-13319
拓扑	-13320
悄悄	-13321
配角	-13322
▁曾	-13323
才华	-13324
▁CVT	-13325
收益分配	-13326
特大	-13327
▁建议	-13328
三角形	-13329
比较基准	-13330
特有的	-13331
蒋介石	-13332
锅里	-13333
js	-13334
来进行	-13335
源头	-13336
医院的	-13337
侦察	-13338
Fr	-13339
不服	-13340
余名	-13341
巨星	-13342
理智	-13343
引发了	-13344
的控制	-13345
座的	-13346
大佬	-13347
一等奖	-13348
内容不存在	-13349
之作	-13350
政治家	-13351
热血	-13352
名进士	-13353
格斯	-13354
聚合物	-13355
▁艾	-13356
号文	-13357
些什么	-13358
尼迪	-13359
▁很多人	-13360
多是	-13361
坐落	-13362
政府部门	-13363
年左右	-13364
红柿	-13365
的颜色	-13366
整形	-13367
译为	-13368
打着	-13369
电动汽车	-13370
失眠	-13371
掉的	-13372
信息服务	-13373
运势	-13374
充分利用	-13375
避开	-13376
音乐节	-13377
白人	-13378
▁心	-13379
都挺	-13380
▁—	-13381
统一的	-13382
这个名字	-13383
大豆	-13384
机油	-13385
oci	-13386
▁这一	-13387
红色的	-13388
原材料	-13389
eter	-13390
不胜	-13391
诊疗	-13392
会产生	-13393
拖延	-13394
自然吸气	-13395
老是	-13396
复合材料	-13397
位数	-13398
也比	-13399
切入	-13400
的人民	-13401
产值	-13402
带我	-13403
不断地	-13404
不忘	-13405
朋友说	-13406
▁何	-13407
还真是	-13408
他将	-13409
掀起	-13410
设立的	-13411
膝盖	-13412
廉价	-13413
广泛的	-13414
hy	-13415
)“	-13416
风速	-13417
双十一	-13418
经营的	-13419
这几天	-13420
爸爸妈妈	-13421
更快	-13422
能的	-13423
Net	-13424
往下	-13425
妥协	-13426
对我的	-13427
自助餐	-13428
个人认为	-13429
肺炎	-13430
个月内	-13431
看点	-13432
热烈	-13433
配偶	-13434
三峡	-13435
体外	-13436
街区	-13437
七个	-13438
经验的	-13439
植入	-13440
政委	-13441
外国语	-13442
传送	-13443
学了	-13444
三点	-13445
alax	-13446
切割	-13447
单个	-13448
osh	-13449
欧冠	-13450
副总	-13451
▁受	-13452
则由	-13453
税率	-13454
西区	-13455
战中	-13456
十二月	-13457
史上最	-13458
天线	-13459
毒性	-13460
而且是	-13461
先前	-13462
私有	-13463
被盗	-13464
宏观经济	-13465
切的	-13466
勘探	-13467
持久	-13468
总额为	-13469
第三个	-13470
前夕	-13471
次列车	-13472
仅供参考	-13473
遮阳	-13474
▁简单	-13475
建筑学	-13476
身上的	-13477
身体健康	-13478
的日本	-13479
知府	-13480
查找	-13481
的内	-13482
划分为	-13483
之王	-13484
发芽	-13485
国语	-13486
幸存	-13487
查阅	-13488
网吧	-13489
业绩比较基准	-13490
转移到	-13491
不是很多	-13492
天体	-13493
成因	-13494
的新闻	-13495
▁data	-13496
全额	-13497
加利亚	-13498
灭亡	-13499
和他们	-13500
▁肉	-13501
矿山	-13502
▁??	-13503
几乎所有	-13504
全美	-13505
著有	-13506
的学校	-13507
▁汤	-13508
话语	-13509
的人才	-13510
车票	-13511
运会	-13512
不过是	-13513
乒乓球	-13514
小笼	-13515
联军	-13516
保证金	-13517
▁their	-13518
上千	-13519
酱料	-13520
菊花	-13521
陪同	-13522
不考虑	-13523
并用	-13524
玩耍	-13525
被我	-13526
请大家	-13527
上榜	-13528
是的	-13529
月末	-13530
分别在	-13531
字的	-13532
可分为	-13533
的成功	-13534
快速发展	-13535
▁写	-13536
表扬	-13537
▁),	-13538
巡洋舰	-13539
站房	-13540
挣钱	-13541
验证了	-13542
EA	-13543
武警	-13544
白领	-13545
不知道为什么	-13546
夺取	-13547
督促	-13548
跟鞋	-13549
各部门	-13550
科学的	-13551
银行间	-13552
托马斯	-13553
高血压	-13554
严格的	-13555
比例为	-13556
投资有限公司	-13557
品位	-13558
▁并且	-13559
冲着	-13560
饿了	-13561
对方的	-13562
五星	-13563
收银	-13564
数千	-13565
考量	-13566
五一	-13567
国安	-13568
赞成	-13569
了他的	-13570
连带责任	-13571
副驾驶	-13572
就不能	-13573
苏维埃	-13574
大军	-13575
就得	-13576
迭代	-13577
液晶屏	-13578
▁民族	-13579
改性	-13580
大风	-13581
可用于	-13582
都比	-13583
在被	-13584
族的	-13585
新常态	-13586
直辖市	-13587
▁发现	-13588
万里	-13589
积水	-13590
读研	-13591
顿时	-13592
其中一种	-13593
点了一个	-13594
组装	-13595
和一些	-13596
霉素	-13597
护肤品	-13598
来袭	-13599
谈论	-13600
str	-13601
▁通风	-13602
优惠信息	-13603
为辐鳍鱼纲	-13604
OP	-13605
是其	-13606
新台币	-13607
做完	-13608
这首	-13609
落的	-13610
在这一	-13611
年上半年	-13612
召唤	-13613
▁op	-13614
▁特别	-13615
并获得	-13616
上海的	-13617
规章	-13618
感和	-13619
留下的	-13620
世界上最	-13621
hant	-13622
的计划	-13623
▁z	-13624
戈尔	-13625
年为	-13626
有权	-13627
白色的	-13628
万元人民币	-13629
▁Ed	-13630
▁江苏	-13631
本基金管理人	-13632
反向	-13633
部委	-13634
这几个	-13635
做工	-13636
毗邻	-13637
▁学校	-13638
系统和	-13639
中立	-13640
候车	-13641
的下	-13642
开机	-13643
而又	-13644
防卫	-13645
靠着	-13646
通信工程	-13647
RS	-13648
▁已经	-13649
致电	-13650
保修	-13651
艰苦	-13652
长辈	-13653
一如	-13654
突厥	-13655
诸葛	-13656
不少人	-13657
必需	-13658
灵敏	-13659
谋杀	-13660
等职	-13661
红灯	-13662
播出的	-13663
防火	-13664
na	-13665
雍正	-13666
山上	-13667
年的时间	-13668
作词	-13669
戒指	-13670
自私	-13671
接受的	-13672
▁man	-13673
后才	-13674
客家	-13675
大面积	-13676
任中共	-13677
报道称	-13678
▁甚至	-13679
▁what	-13680
斯里	-13681
人寿	-13682
人生的	-13683
在一些	-13684
用户体验	-13685
了她	-13686
将与	-13687
当然是	-13688
就是为了	-13689
为目标	-13690
因为他们	-13691
可视	-13692
▁数学	-13693
整容	-13694
海南省	-13695
第一百	-13696
经常会	-13697
奖牌	-13698
带给	-13699
▁宋	-13700
▁蓝	-13701
全局	-13702
围棋	-13703
的平台	-13704
要知道	-13705
端上来	-13706
的母亲	-13707
驾车	-13708
Am	-13709
尔顿	-13710
黎明	-13711
上层	-13712
创客	-13713
多半	-13714
检索	-13715
修道院	-13716
公开招聘	-13717
》("	-13718
车手	-13719
借由	-13720
浸泡	-13721
效力于	-13722
微商	-13723
中奖	-13724
家务	-13725
所以想	-13726
alaxy	-13727
集团股份有限公司	-13728
血糖	-13729
拉米	-13730
准备好	-13731
溶剂	-13732
色素	-13733
解锁	-13734
了我的	-13735
款的	-13736
好转	-13737
ald	-13738
,”	-13739
ND	-13740
气管	-13741
茅台	-13742
守信	-13743
的一段	-13744
第二轮	-13745
歌舞	-13746
存活	-13747
▁Car	-13748
牧师	-13749
势头	-13750
譬如	-13751
但如果	-13752
的歌曲	-13753
日常生活	-13754
就和	-13755
aj	-13756
童鞋	-13757
投资者的	-13758
并称	-13759
意义上的	-13760
但对	-13761
OH	-13762
姊妹	-13763
生动	-13764
正宗的	-13765
民进党	-13766
欺诈	-13767
的一年	-13768
互助	-13769
第三季度	-13770
负载	-13771
购入	-13772
三条	-13773
耶夫	-13774
榜首	-13775
第一季	-13776
这个行业	-13777
)【	-13778
水量	-13779
迁至	-13780
门前	-13781
▁一种	-13782
好不容易	-13783
律师事务所	-13784
军舰	-13785
错误的	-13786
▁菜	-13787
也成为	-13788
你觉得	-13789
化学工程与技术	-13790
汉子	-13791
点左右	-13792
——“	-13793
月下旬	-13794
新年	-13795
造价	-13796
比较高	-13797
能吃	-13798
具有良好的	-13799
油画	-13800
路虎	-13801
战机	-13802
诺曼	-13803
香气	-13804
经纪人	-13805
清醒	-13806
大洋	-13807
的一名	-13808
ular	-13809
引人	-13810
拜仁	-13811
议席	-13812
单价	-13813
拓宽	-13814
按规定	-13815
厌恶	-13816
▁莫	-13817
水产	-13818
网讯	-13819
也无法	-13820
片中	-13821
他不	-13822
冰雪	-13823
烟草	-13824
画风	-13825
之父	-13826
多重	-13827
汽缸	-13828
的量	-13829
股东的净利润	-13830
戏曲	-13831
也不算	-13832
RA	-13833
抗氧化	-13834
消极	-13835
后来又	-13836
双人	-13837
后市	-13838
触发	-13839
频频	-13840
处以	-13841
vs	-13842
境内共有	-13843
擅自	-13844
染料	-13845
遍布	-13846
和的	-13847
发行人	-13848
生了	-13849
高新	-13850
的心理	-13851
▁山	-13852
FA	-13853
',	-13854
在没有	-13855
只是一	-13856
确定的	-13857
的去	-13858
该党	-13859
巴斯	-13860
调整为	-13861
▁国务院	-13862
多达	-13863
相位	-13864
也需要	-13865
相色谱	-13866
以致	-13867
整顿	-13868
车牌	-13869
很强	-13870
干旱	-13871
替补	-13872
一起来	-13873
十八大	-13874
金枪	-13875
嫉妒	-13876
是英国	-13877
生命的	-13878
海盗	-13879
(“	-13880
堪萨斯	-13881
▁皮	-13882
错的	-13883
▁Con	-13884
一般来说	-13885
入职	-13886
印第	-13887
广播电台	-13888
仓位	-13889
月经	-13890
小时的	-13891
提升了	-13892
CI	-13893
归类	-13894
Gr	-13895
多彩	-13896
大林	-13897
????????	-13898
扭曲	-13899
私家	-13900
从严	-13901
左边	-13902
▁通风盘式	-13903
能有	-13904
河流域	-13905
郎中	-13906
剖析	-13907
▁when	-13908
前三季度	-13909
从头	-13910
倒数	-13911
▁love	-13912
真爱	-13913
闪电	-13914
发作	-13915
磁场	-13916
不予	-13917
回味	-13918
会社	-13919
充值	-13920
家境	-13921
车轮	-13922
这几	-13923
恐慌	-13924
一心	-13925
取出	-13926
十一年	-13927
依然是	-13928
注射液	-13929
前所	-13930
已是	-13931
是中华人民共和国	-13932
不属于	-13933
浪潮	-13934
你知道	-13935
的权利	-13936
学姐	-13937
市场经济	-13938
少将	-13939
陈列	-13940
▁所有	-13941
校舍	-13942
udio	-13943
二甲	-13944
不觉	-13945
的王	-13946
习性	-13947
太守	-13948
微微	-13949
做不到	-13950
占地面积	-13951
公告本公司	-13952
压迫	-13953
报废	-13954
贵了	-13955
转账	-13956
格拉斯	-13957
转运	-13958
主要由	-13959
影评	-13960
十万	-13961
号楼	-13962
和文化	-13963
编组	-13964
都很好	-13965
GE	-13966
造假	-13967
机上	-13968
田园	-13969
汕头	-13970
天河	-13971
监管部门	-13972
金正	-13973
麻麻	-13974
港股	-13975
”......	-13976
住户	-13977
YouTube	-13978
植被	-13979
移交	-13980
▁Me	-13981
教徒	-13982
加的	-13983
热菜	-13984
传真	-13985
精神病	-13986
非常有	-13987
领事馆	-13988
向社会	-13989
美景	-13990
站查看更多降价信息请进	-13991
萎缩	-13992
订购	-13993
GC	-13994
页岩	-13995
的法律	-13996
寒假	-13997
一些人	-13998
保管	-13999
技术分析	-14000
中级人民法院	-14001
住的	-14002
去吃的	-14003
会说	-14004
凉拌	-14005
趋于	-14006
拉的	-14007
好玩	-14008
阵地	-14009
BBC	-14010
企业在	-14011
词语	-14012
▁选	-14013
第一家	-14014
居住在	-14015
华中	-14016
目前为止	-14017
▁怎么	-14018
宣传部	-14019
盯着	-14020
和分析	-14021
远了	-14022
采样	-14023
的一天	-14024
歇尔	-14025
满满的	-14026
碳酸	-14027
完全可以	-14028
和非	-14029
星光	-14030
竞价	-14031
减速	-14032
受体	-14033
剧烈	-14034
领军	-14035
准决赛	-14036
评论区	-14037
的电	-14038
被害	-14039
era	-14040
马德里	-14041
ator	-14042
北站	-14043
名录	-14044
olo	-14045
出生在	-14046
发货	-14047
辩护	-14048
友情	-14049
”()	-14050
没关系	-14051
军工	-14052
刘海	-14053
此地	-14054
ift	-14055
半个小时	-14056
这些问题	-14057
客流	-14058
值班	-14059
裁员	-14060
和社会保障	-14061
能看到	-14062
门面	-14063
引来	-14064
秘鲁	-14065
几乎是	-14066
将该	-14067
工科	-14068
代理人	-14069
热心	-14070
养护	-14071
成型	-14072
中秋	-14073
剧团	-14074
重型	-14075
辞去	-14076
听听	-14077
短篇	-14078
coms	-14079
制度改革	-14080
自律	-14081
罪名	-14082
转弯	-14083
不能再	-14084
相较于	-14085
座堂	-14086
▁NO	-14087
规中矩	-14088
Cu	-14089
日和	-14090
制定的	-14091
心脏病	-14092
官方微博	-14093
▁过	-14094
常州	-14095
传销	-14096
女装	-14097
柔软	-14098
上一个	-14099
PU	-14100
ane	-14101
港币	-14102
▁反	-14103
印地	-14104
ism	-14105
offer	-14106
克鲁	-14107
web	-14108
上报	-14109
▁en	-14110
成长的	-14111
空间的	-14112
午后	-14113
inese	-14114
切片	-14115
麻醉	-14116
成员国	-14117
iness	-14118
lu	-14119
▁iPhone	-14120
那位	-14121
可以是	-14122
总股本	-14123
我看到	-14124
毕业的	-14125
干事	-14126
打个	-14127
文凭	-14128
▁杭州	-14129
手续费	-14130
矿业工程	-14131
cript	-14132
偏见	-14133
巴赫	-14134
有以下	-14135
多样性	-14136
特斯拉	-14137
均在	-14138
雅典	-14139
重构	-14140
副秘书长	-14141
还被	-14142
wik	-14143
停留在	-14144
废水	-14145
通俗	-14146
徘徊	-14147
基金份额持有人大会	-14148
我从	-14149
计划生育	-14150
万亩	-14151
不同的是	-14152
振兴	-14153
责令	-14154
口味的	-14155
气门	-14156
实务	-14157
全球化	-14158
的合作	-14159
的运动	-14160
保加利亚	-14161
拦截	-14162
年全国	-14163
▁也许	-14164
分期	-14165
受过	-14166
tel	-14167
▁Windows	-14168
nm	-14169
写成	-14170
合力	-14171
将他	-14172
清真寺	-14173
武侠	-14174
满意度	-14175
党校	-14176
自达	-14177
和个人	-14178
境内的	-14179
工业大学	-14180
得票	-14181
▁银	-14182
血统	-14183
则以	-14184
开行	-14185
旅游业	-14186
剧组	-14187
栖息在	-14188
罗讷	-14189
他表示	-14190
蓝筹	-14191
鲜花	-14192
商圈	-14193
oto	-14194
蒸发	-14195
专场	-14196
两项	-14197
产的	-14198
包厢	-14199
珍贵	-14200
都想	-14201
中国国家	-14202
之人	-14203
亿港元	-14204
所持	-14205
范冰冰	-14206
店主	-14207
乙醇	-14208
写真	-14209
班子	-14210
有两种	-14211
后备	-14212
与社会	-14213
ature	-14214
第三届	-14215
身影	-14216
多伦多	-14217
广播电视	-14218
金华	-14219
也是一个	-14220
▁风	-14221
香肠	-14222
德州	-14223
▁new	-14224
录影	-14225
每位	-14226
操作上	-14227
图文	-14228
念头	-14229
最高点	-14230
跑去	-14231
和自己	-14232
一点也不	-14233
死去	-14234
ala	-14235
牛仔裤	-14236
化名	-14237
发帖	-14238
恰恰	-14239
进取	-14240
首任	-14241
升温	-14242
混淆	-14243
旗舰店	-14244
爱我	-14245
科技股份有限公司	-14246
浩特	-14247
补充一下	-14248
今年以来	-14249
img	-14250
中书	-14251
踏实	-14252
香辣	-14253
散热	-14254
集的	-14255
居委会	-14256
故乡	-14257
实际控制人	-14258
怪的	-14259
行列	-14260
打游戏	-14261
检察官	-14262
可以使用	-14263
预言	-14264
之声	-14265
两层	-14266
已达	-14267
▁直到	-14268
没问题	-14269
职棒	-14270
随身	-14271
之力	-14272
也有很多	-14273
族人	-14274
各种各样的	-14275
icrosoft	-14276
也想	-14277
No	-14278
▁城市	-14279
BE	-14280
会影响	-14281
▁北京时间	-14282
因应	-14283
抗菌	-14284
父子	-14285
补给	-14286
低点	-14287
被杀	-14288
卖相	-14289
津贴	-14290
相传	-14291
标示	-14292
在国外	-14293
头痛	-14294
车体	-14295
的理解	-14296
BL	-14297
油条	-14298
▁近期	-14299
公告编号	-14300
放的	-14301
什么东西	-14302
卖给	-14303
太郎	-14304
课本	-14305
▁西安	-14306
不小	-14307
看重	-14308
违背	-14309
奇妙	-14310
永恒	-14311
▁work	-14312
被查	-14313
所能	-14314
日宣布	-14315
必胜	-14316
在京	-14317
位于美国	-14318
oud	-14319
质量和	-14320
派对	-14321
审议通过	-14322
和人	-14323
平日	-14324
四级	-14325
开庭	-14326
十一月	-14327
薄的	-14328
好看的	-14329
iy	-14330
My	-14331
还记得	-14332
的五	-14333
不方便	-14334
净水	-14335
真菌	-14336
草地	-14337
SK	-14338
华润	-14339
上将	-14340
供奉	-14341
并进行	-14342
▁Res	-14343
这个地方	-14344
科会试	-14345
发展趋势	-14346
小伙伴们	-14347
置于	-14348
船员	-14349
别说	-14350
原味	-14351
车间	-14352
▁既然	-14353
大多数人	-14354
基数	-14355
view	-14356
农田	-14357
季报	-14358
长远	-14359
既往	-14360
在未来	-14361
东站	-14362
尤为	-14363
基金份额净值	-14364
了三	-14365
亿股	-14366
水深	-14367
后因	-14368
约车	-14369
表决权	-14370
▁初	-14371
隆重	-14372
编曲	-14373
的语言	-14374
冲锋	-14375
ini	-14376
的条件	-14377
认识到	-14378
wo	-14379
不肯	-14380
搞得	-14381
▁文章	-14382
义务教育	-14383
黄油	-14384
第一次世界大战	-14385
进行了分析	-14386
光纤	-14387
▁Gr	-14388
▁矿业工程	-14389
剥夺	-14390
被抓	-14391
放送	-14392
填报	-14393
寄生	-14394
规避	-14395
中关村	-14396
骁龙	-14397
▁ever	-14398
根源	-14399
不了解	-14400
了一大	-14401
做生意	-14402
目前在	-14403
耽误	-14404
为公司	-14405
LD	-14406
他有	-14407
年才	-14408
可比	-14409
长寿	-14410
查尔斯	-14411
延期	-14412
失控	-14413
打进	-14414
量和	-14415
盛大	-14416
这儿	-14417
这本	-14418
香水	-14419
安检	-14420
慕容	-14421
的建筑	-14422
估计是	-14423
大奖赛	-14424
的因素	-14425
NT	-14426
并表示	-14427
处处	-14428
客户的	-14429
中了	-14430
发生后	-14431
请关注	-14432
就是我	-14433
沿途	-14434
▁快	-14435
使人	-14436
哈根	-14437
讯息	-14438
叶子	-14439
仓储	-14440
评判	-14441
间谍	-14442
走红	-14443
很强的	-14444
遏制	-14445
可行性	-14446
avid	-14447
执教	-14448
白金	-14449
丁目	-14450
致富	-14451
抽奖	-14452
中发现	-14453
塞罗那	-14454
劳务	-14455
密封	-14456
说下	-14457
若是	-14458
▁Br	-14459
争吵	-14460
产业园	-14461
环形山	-14462
在哪	-14463
引爆	-14464
eel	-14465
▁俄罗斯	-14466
敢于	-14467
雕像	-14468
单品	-14469
股息	-14470
世纪末	-14471
>>	-14472
历代	-14473
继任	-14474
权证	-14475
NE	-14476
右边	-14477
胎儿	-14478
给出的	-14479
调任	-14480
副作用	-14481
来到了	-14482
▁his	-14483
用法	-14484
硬的	-14485
ili	-14486
ody	-14487
很快就	-14488
账款	-14489
元音	-14490
邮报	-14491
墓地	-14492
尤其是在	-14493
天涯	-14494
琉球	-14495
Zn	-14496
首映	-14497
中国科学院	-14498
交汇处	-14499
城中	-14500
转乘	-14501
Sc	-14502
因为它	-14503
班车	-14504
习惯了	-14505
▁En	-14506
与前	-14507
过一个	-14508
完后	-14509
亚美	-14510
VE	-14511
唐代	-14512
八个	-14513
很大程度上	-14514
介于	-14515
充实	-14516
按键	-14517
its	-14518
很像	-14519
离去	-14520
行道	-14521
衰退	-14522
甜甜的	-14523
佩服	-14524
等信息	-14525
研究人员	-14526
全都	-14527
近几年	-14528
▁凯	-14529
开售	-14530
下辖的一个	-14531
开花	-14532
搭乘	-14533
和解	-14534
琼斯	-14535
肠道	-14536
放电	-14537
看你	-14538
日发行	-14539
翻炒	-14540
基督徒	-14541
uff	-14542
省内	-14543
回应称	-14544
这三个	-14545
严峻	-14546
中超	-14547
衣裙	-14548
裁定	-14549
因为你	-14550
翰林	-14551
香菜	-14552
▁好吧	-14553
学士学位	-14554
新闻发布会	-14555
安区	-14556
放映	-14557
青铜	-14558
▁农业工程	-14559
常数	-14560
在广州	-14561
不尽	-14562
国考	-14563
宫廷	-14564
白了	-14565
press	-14566
硬化	-14567
福尔	-14568
专业技术	-14569
光了	-14570
炫耀	-14571
网游	-14572
有必要	-14573
加龙	-14574
就一直	-14575
罗夫	-14576
梯度	-14577
aid	-14578
▁真是	-14579
有益	-14580
我一个	-14581
长沙市	-14582
会将	-14583
帅气	-14584
eta	-14585
一汽	-14586
口服	-14587
用力	-14588
静静	-14589
延误	-14590
最高人民法院	-14591
离不开	-14592
航天员	-14593
巡抚	-14594
蒙德	-14595
的女子	-14596
词典	-14597
辨识	-14598
工业化	-14599
专业人士	-14600
BR	-14601
主办的	-14602
但从	-14603
少林	-14604
收受	-14605
等同	-14606
制订	-14607
节的	-14608
顺势	-14609
喝水	-14610
意料	-14611
了一句	-14612
工作会议	-14613
▁让我	-14614
供给侧	-14615
北平	-14616
做一些	-14617
本来就	-14618
比较好的	-14619
储层	-14620
后来在	-14621
马恩省	-14622
评委	-14623
红烧肉	-14624
讨伐	-14625
▁现代	-14626
经济效益	-14627
动了	-14628
第一代	-14629
公投	-14630
少儿	-14631
岁了	-14632
红茶	-14633
如果不是	-14634
的人来说	-14635
众所	-14636
光滑	-14637
风的	-14638
重大资产重组	-14639
中标	-14640
亮度	-14641
也很多	-14642
这几年	-14643
但她	-14644
同时在	-14645
神的	-14646
民意	-14647
irect	-14648
劣势	-14649
▁One	-14650
阿基	-14651
对我来说	-14652
而去	-14653
营业执照	-14654
晚年	-14655
航海	-14656
购票	-14657
(%)	-14658
约瑟夫	-14659
几率	-14660
薯条	-14661
ars	-14662
vip	-14663
英特尔	-14664
督导	-14665
身后	-14666
不合理	-14667
灌溉	-14668
践行	-14669
诚实	-14670
条规定	-14671
基建	-14672
女童	-14673
也是很	-14674
的一样	-14675
有自己的	-14676
吃个	-14677
GHz	-14678
江县	-14679
误会	-14680
Mo	-14681
怪物	-14682
任内	-14683
景色	-14684
本名	-14685
是将	-14686
显示器	-14687
春运	-14688
正统	-14689
私下	-14690
傻逼	-14691
多方	-14692
降落	-14693
年成为	-14694
有时间	-14695
医科大学	-14696
大正	-14697
▁Mac	-14698
只剩下	-14699
周围的	-14700
服务费	-14701
什么都不	-14702
肩膀	-14703
ora	-14704
的看法	-14705
区块	-14706
区负责管辖	-14707
男主	-14708
过程的	-14709
加权	-14710
北宋	-14711
奇异	-14712
数据和	-14713
军在	-14714
饮水	-14715
主要以	-14716
街道办事处	-14717
举行了	-14718
IBM	-14719
oot	-14720
罗马帝国	-14721
挤压	-14722
能为	-14723
Book	-14724
大帝	-14725
的责任	-14726
不为	-14727
捷运	-14728
火炮	-14729
等我	-14730
分享一下	-14731
oint	-14732
发觉	-14733
板的	-14734
语言的	-14735
准确性和	-14736
▁year	-14737
婚宴	-14738
风险管理	-14739
警务	-14740
证券投资基金法	-14741
假冒	-14742
就可	-14743
淡淡的	-14744
远东	-14745
一丝	-14746
imes	-14747
打死	-14748
inal	-14749
▁如今	-14750
阻尼	-14751
紫外线	-14752
中产	-14753
研究发现	-14754
台灣	-14755
面和	-14756
▁汽油	-14757
个人感觉	-14758
光灯	-14759
流转	-14760
三元	-14761
eck	-14762
▁No	-14763
十三年	-14764
的说明	-14765
撕逼	-14766
负责任	-14767
▁梅	-14768
告诉我们	-14769
办的	-14770
尊严	-14771
硅谷	-14772
州区	-14773
▁斯	-14774
.)	-14775
与否	-14776
达克	-14777
寻常	-14778
青团	-14779
过瘾	-14780
鸡排	-14781
witter	-14782
东汉	-14783
风波	-14784
首日	-14785
在读	-14786
手持	-14787
是非	-14788
配乐	-14789
公司和	-14790
缩减	-14791
▁We	-14792
海马	-14793
赞赏	-14794
加固	-14795
逼格	-14796
等部门	-14797
上任	-14798
惯例	-14799
更适合	-14800
的阿	-14801
的形象	-14802
油脂	-14803
接种	-14804
调试	-14805
特别是在	-14806
佛兰	-14807
还是可以的	-14808
承载式	-14809
生态系统	-14810
豪宅	-14811
命名的	-14812
的广告	-14813
起源于	-14814
抓好	-14815
野外	-14816
小时内	-14817
设计与	-14818
市委书记	-14819
▁$	-14820
各路	-14821
选举中	-14822
高雄市	-14823
有毒	-14824
水下	-14825
航运	-14826
孙中山	-14827
-{}-	-14828
▁end	-14829
唐山	-14830
YS	-14831
▁军事	-14832
并列	-14833
相声	-14834
金牛	-14835
就直接	-14836
炒菜	-14837
是乌克兰的	-14838
是该	-14839
对立	-14840
资产支持	-14841
具有重要	-14842
法学院	-14843
▁手自一体	-14844
主帅	-14845
配的	-14846
西红柿	-14847
着你	-14848
的动作	-14849
炎症	-14850
的艺术	-14851
▁普	-14852
美式	-14853
小事	-14854
男孩子	-14855
州长	-14856
顶置	-14857
开心的	-14858
屯门	-14859
社会科学	-14860
头像	-14861
水体	-14862
的股权	-14863
每股收益	-14864
互补	-14865
冷空气	-14866
面临着	-14867
无形	-14868
上也	-14869
卡片	-14870
ason	-14871
专业课	-14872
野生动物	-14873
伊利诺伊州	-14874
然后我	-14875
▁好像	-14876
限度	-14877
迪亚	-14878
违法违规	-14879
企稳	-14880
厂房	-14881
墙壁	-14882
中也	-14883
马达	-14884
整齐	-14885
生前	-14886
胎压	-14887
综合征	-14888
这两种	-14889
发热	-14890
湿度	-14891
除去	-14892
▁浅	-14893
连结	-14894
inc	-14895
和企业	-14896
来回答	-14897
关于进一步	-14898
▁十	-14899
大会上	-14900
肇事	-14901
复旦大学	-14902
花岗	-14903
可以把	-14904
迈克尔	-14905
小鼠	-14906
旅程	-14907
问责	-14908
冷菜	-14909
千万别	-14910
就不用	-14911
事中	-14912
队在	-14913
在高	-14914
沸腾	-14915
打架	-14916
接地	-14917
科长	-14918
肝脏	-14919
实现的	-14920
欧阳	-14921
热衷	-14922
五六	-14923
列宁	-14924
呆了	-14925
等工作	-14926
凑合	-14927
▁大气	-14928
调用	-14929
重重	-14930
转身	-14931
大雨	-14932
李某	-14933
que	-14934
Ge	-14935
▁博	-14936
史料	-14937
期为	-14938
只是在	-14939
演习	-14940
座谈会	-14941
味道还可以	-14942
比你	-14943
一直以来	-14944
罕默	-14945
了一遍	-14946
几分钟	-14947
研究和	-14948
润滑	-14949
蛋挞	-14950
丽莎白	-14951
的系统	-14952
uy	-14953
产后	-14954
金斯	-14955
cel	-14956
色调	-14957
连同	-14958
的男人	-14959
党组书记	-14960
这么说	-14961
南宋	-14962
心得	-14963
掺杂	-14964
英国的	-14965
本报告期	-14966
的动力	-14967
代号	-14968
内向	-14969
蓝莓	-14970
预期的	-14971
NS	-14972
演示	-14973
纸质	-14974
想买	-14975
字样	-14976
地在	-14977
奖品	-14978
或称	-14979
皆为	-14980
坐标为	-14981
抗生素	-14982
codice	-14983
外媒	-14984
难点	-14985
季后赛	-14986
安倍	-14987
盐水	-14988
▁天津	-14989
壮族	-14990
金色	-14991
aa	-14992
变了	-14993
打入	-14994
归属于上市公司	-14995
受灾	-14996
外籍	-14997
女权	-14998
风景区	-14999
我希望	-15000
战的	-15001
顺时针与	-15002
KTV	-15003
的一场	-15004
安利	-15005
菜式	-15006
吃什么	-15007
侦探	-15008
王室	-15009
New	-15010
器类型	-15011
第二代	-15012
TG	-15013
秦皇	-15014
以外的	-15015
中环	-15016
就任	-15017
案的	-15018
贩卖	-15019
将由	-15020
比赛的	-15021
++	-15022
小偷	-15023
蓝天	-15024
七八糟	-15025
方法和	-15026
东县	-15027
收复	-15028
但其实	-15029
口罩	-15030
追逐	-15031
酰胺	-15032
三环	-15033
:),	-15034
自媒体	-15035
▁For	-15036
官方微信	-15037
不得超过	-15038
安全气囊	-15039
激烈的	-15040
达斯	-15041
化为	-15042
后会	-15043
特质	-15044
车速	-15045
公子	-15046
以及在	-15047
点到	-15048
视星	-15049
了其	-15050
州立	-15051
▁以后	-15052
奠定了	-15053
概念股	-15054
分配利润	-15055
跟进	-15056
我之前	-15057
觉得他	-15058
医疗卫生	-15059
小三	-15060
再一次	-15061
Ca	-15062
追捧	-15063
倡议	-15064
很近	-15065
普勒	-15066
克雷	-15067
公款	-15068
主办方	-15069
更具	-15070
海湾	-15071
她和	-15072
检察机关	-15073
伦斯	-15074
大牛	-15075
自在	-15076
了好多	-15077
的重点	-15078
破碎	-15079
没怎么	-15080
文化大革命	-15081
生产经营	-15082
center	-15083
老子	-15084
和尚	-15085
在某	-15086
无缘	-15087
只要你	-15088
好几个	-15089
da	-15090
ero	-15091
前段时间	-15092
不经	-15093
为该	-15094
视力	-15095
uss	-15096
中规中矩	-15097
按时	-15098
入股	-15099
举办了	-15100
在过去	-15101
被告知	-15102
发展有限公司	-15103
供需	-15104
江市	-15105
财务会计	-15106
运载	-15107
即日起	-15108
也对	-15109
执着	-15110
运送	-15111
报告中	-15112
DM	-15113
明清	-15114
电缆	-15115
相似的	-15116
不值	-15117
持仓	-15118
ING	-15119
这段时间	-15120
探究	-15121
用人单位	-15122
保利	-15123
答复	-15124
Ni	-15125
致敬	-15126
拼音	-15127
象棋	-15128
鹅肝	-15129
合并为	-15130
▁中午	-15131
兵力	-15132
寺院	-15133
回来的	-15134
南下	-15135
排名第一	-15136
魔鬼	-15137
相当的	-15138
兰卡	-15139
▁关注	-15140
只是想	-15141
台中市	-15142
三楼	-15143
暑期	-15144
菠菜	-15145
通勤	-15146
气象台	-15147
与通信工程	-15148
不再是	-15149
我父母	-15150
普鲁士	-15151
高分	-15152
▁Fr	-15153
放学	-15154
堆积	-15155
板上	-15156
不完全	-15157
的成本	-15158
一笑	-15159
哈拉	-15160
东盟	-15161
减产	-15162
尽力	-15163
预留	-15164
这一次	-15165
提速	-15166
所以我们	-15167
用量	-15168
什么样	-15169
多余	-15170
成龙	-15171
日为	-15172
处方	-15173
结构调整	-15174
有无	-15175
同位	-15176
递交	-15177
上场	-15178
忙碌	-15179
不锈钢	-15180
提到了	-15181
为了让	-15182
小组赛	-15183
是德国	-15184
关东	-15185
add	-15186
修理	-15187
原生	-15188
孤立	-15189
巴勒	-15190
服从	-15191
的地位	-15192
事迹	-15193
本部	-15194
ler	-15195
电阻	-15196
准备的	-15197
混沌	-15198
救护	-15199
▁新疆	-15200
司令员	-15201
幕府	-15202
财运	-15203
十五年	-15204
在微博	-15205
环境和	-15206
说道	-15207
利空	-15208
澎湖	-15209
首款	-15210
的战略	-15211
都喜欢	-15212
秉承	-15213
副教授	-15214
料酒	-15215
试探	-15216
锅中	-15217
不绝	-15218
荷载	-15219
参加过	-15220
儿女	-15221
北魏	-15222
反转	-15223
费尔	-15224
立法会	-15225
最高法院	-15226
PR	-15227
黑的	-15228
的事业	-15229
公募	-15230
转任	-15231
大酒店	-15232
助力转向	-15233
底的	-15234
平成	-15235
人才培养	-15236
拉动	-15237
挽回	-15238
本剧	-15239
▁点了	-15240
comp	-15241
深化改革	-15242
ision	-15243
致电商	-15244
原版	-15245
也不想	-15246
都不敢	-15247
咳嗽	-15248
金融危机	-15249
为名	-15250
气味	-15251
特长	-15252
请不要	-15253
日系	-15254
▁直接	-15255
大体	-15256
致电商家	-15257
时就	-15258
被骗	-15259
试过	-15260
尼日利亚	-15261
助推	-15262
该文	-15263
霸气	-15264
党组织	-15265
ays	-15266
新规	-15267
是无	-15268
乱七八糟	-15269
▁牛	-15270
也称	-15271
张国	-15272
教科书	-15273
under	-15274
初年	-15275
于是就	-15276
公司与	-15277
护航	-15278
Ed	-15279
一贯	-15280
坏账	-15281
不少于	-15282
元朝	-15283
医疗保险	-15284
王的	-15285
主人公	-15286
有力的	-15287
的关注	-15288
安全隐患	-15289
考了	-15290
薪水	-15291
报刊	-15292
重回	-15293
明确了	-15294
▁雪	-15295
配有	-15296
巴塞罗那	-15297
跑车	-15298
细胞的	-15299
进修	-15300
的高速	-15301
不难	-15302
则会	-15303
毛巾	-15304
皮书	-15305
原来是	-15306
引力	-15307
技术创新	-15308
iphone	-15309
奇艺	-15310
好感	-15311
中以	-15312
心肌	-15313
樱桃	-15314
听着	-15315
涨跌	-15316
皮的	-15317
美观	-15318
归来	-15319
暴雪	-15320
高价	-15321
这部分	-15322
嘉诚	-15323
不看	-15324
名家	-15325
承担个别	-15326
upp	-15327
▁企业	-15328
邓小平	-15329
跳槽	-15330
mac	-15331
伐克	-15332
车位	-15333
听见	-15334
想问	-15335
三项	-15336
吻合	-15337
瘦肉	-15338
到场	-15339
计划在	-15340
有几	-15341
▁布	-15342
把她	-15343
磨损	-15344
灵活配置	-15345
见于	-15346
贯通	-15347
evelop	-15348
年于	-15349
管家	-15350
很适合	-15351
伪装	-15352
友善	-15353
散文	-15354
把手	-15355
回到了	-15356
:【	-15357
弹道	-15358
▁class	-15359
群的	-15360
赛马	-15361
差不多了	-15362
▁计算机科学与技术	-15363
女星	-15364
以后的	-15365
生煎	-15366
We	-15367
一等	-15368
侵蚀	-15369
衰老	-15370
保温	-15371
说不定	-15372
工程建设	-15373
▁综合	-15374
太湖	-15375
格斗	-15376
王府	-15377
载人	-15378
口红	-15379
布政	-15380
观望	-15381
风电	-15382
的一家店	-15383
削减	-15384
干净的	-15385
宜兰	-15386
聘用	-15387
Sm	-15388
东日本	-15389
突出的	-15390
▁School	-15391
新界	-15392
而这些	-15393
获取更多优惠信息	-15394
送货	-15395
沃尔玛	-15396
得益	-15397
▁New	-15398
得的	-15399
桂花	-15400
▁which	-15401
建有	-15402
折合	-15403
曾有	-15404
可以将	-15405
的范围	-15406
卡车	-15407
众所周	-15408
歌剧	-15409
相爱	-15410
写字楼	-15411
做单	-15412
管局	-15413
中国国民党	-15414
出名	-15415
司职	-15416
起亚	-15417
起火	-15418
万圣节	-15419
睡不着	-15420
尊敬	-15421
虐待	-15422
党员干部	-15423
▁水产	-15424
导入	-15425
明白了	-15426
呼和	-15427
朝阳区	-15428
▁沙	-15429
表面的	-15430
之女	-15431
腰部	-15432
自豪	-15433
重磅	-15434
也不是很	-15435
▁兵器	-15436
的股份	-15437
开场	-15438
的开发	-15439
之美	-15440
深水	-15441
结识	-15442
视线	-15443
双双	-15444
不得了	-15445
中世纪	-15446
地方的	-15447
资产支持证券	-15448
管理中心	-15449
Ag	-15450
年仅	-15451
元和	-15452
设想	-15453
▁法国	-15454
很多次	-15455
EF	-15456
六级	-15457
得太	-15458
爆破	-15459
项目建设	-15460
港铁	-15461
国资委	-15462
我也很	-15463
有很大	-15464
国土资源	-15465
之势	-15466
济南市	-15467
低头	-15468
天宫	-15469
很棒	-15470
纳税人	-15471
盎司	-15472
鱼丸	-15473
▁力学	-15474
和在	-15475
贫穷	-15476
单反	-15477
首先要	-15478
味道很好	-15479
统计学意义	-15480
高开	-15481
》:	-15482
拥有一	-15483
活的	-15484
问题的通知	-15485
answer	-15486
是一件	-15487
这个东西	-15488
病变	-15489
遥感	-15490
重叠	-15491
好不好	-15492
大爱	-15493
翻新	-15494
肢体	-15495
通知书	-15496
买车	-15497
原油价格	-15498
两驱	-15499
出路	-15500
入球	-15501
八字	-15502
远征	-15503
拿到了	-15504
群里	-15505
贴近	-15506
行业协会	-15507
调查发现	-15508
多糖	-15509
本赛季	-15510
~(	-15511
两份	-15512
师资	-15513
紫色	-15514
连衣裙	-15515
格栅	-15516
净值表现	-15517
支架	-15518
个人生活	-15519
流向	-15520
特性的	-15521
老化	-15522
积极性	-15523
ring	-15524
一个小时	-15525
读了	-15526
的程度	-15527
▁没想到	-15528
定点	-15529
普林	-15530
腕表	-15531
美国海军	-15532
▁埃	-15533
社交媒体	-15534
结婚了	-15535
适时	-15536
情人节	-15537
俄语	-15538
余额宝	-15539
日晚上	-15540
新开	-15541
泄漏	-15542
理论和	-15543
更重要的是	-15544
内亚	-15545
焊接	-15546
▁刚刚	-15547
lack	-15548
要多	-15549
专业知识	-15550
作弊	-15551
共鸣	-15552
承接	-15553
贿赂	-15554
所需的	-15555
的名义	-15556
介意	-15557
就医	-15558
抓紧	-15559
▁电话	-15560
保持着	-15561
界线	-15562
白糖	-15563
年香港	-15564
为台湾	-15565
的区别	-15566
了一套	-15567
支球队	-15568
穆罕默	-15569
四五	-15570
▁以下是	-15571
进气	-15572
PPT	-15573
公允价值计量	-15574
而成的	-15575
宫殿	-15576
误区	-15577
曾担任	-15578
cept	-15579
上来了	-15580
上来的	-15581
承载式车身	-15582
一桌	-15583
想要的	-15584
曲面	-15585
转播	-15586
了一圈	-15587
找一个	-15588
ij	-15589
写下	-15590
非常非常	-15591
租界	-15592
必须在	-15593
冷战	-15594
日照	-15595
的商业	-15596
和国际	-15597
就应该	-15598
但是现在	-15599
中线	-15600
的综合	-15601
不禁	-15602
元旦	-15603
昔日	-15604
层层	-15605
很鲜	-15606
是由于	-15607
▁兵器科学与技术	-15608
载荷	-15609
分析方法	-15610
味精	-15611
电竞	-15612
的工作人员	-15613
点点	-15614
家协会	-15615
恰当	-15616
排球	-15617
海里	-15618
身的	-15619
人们对	-15620
同龄	-15621
海事	-15622
很新鲜	-15623
四方	-15624
整洁	-15625
识字	-15626
房的	-15627
量大	-15628
嘉庆	-15629
金马	-15630
台南市	-15631
礼包	-15632
▁普通	-15633
集团军	-15634
▁◆	-15635
鸭子	-15636
固醇	-15637
皇室	-15638
起始	-15639
可为	-15640
抢购	-15641
align	-15642
声优	-15643
沿用	-15644
老挝	-15645
韦尔	-15646
▁小米	-15647
适度	-15648
取消了	-15649
研究会	-15650
高丽	-15651
相识	-15652
西站	-15653
小姑娘	-15654
NF	-15655
even	-15656
投入使用	-15657
音乐学院	-15658
壁画	-15659
插件	-15660
个人信息	-15661
相关规定	-15662
El	-15663
只剩	-15664
代表作	-15665
不忍	-15666
二百	-15667
种的	-15668
智库	-15669
question	-15670
天花	-15671
鸳鸯	-15672
Con	-15673
动感	-15674
岭南	-15675
快要	-15676
ael	-15677
讲述了	-15678
下图	-15679
新版	-15680
冲刺	-15681
攻势	-15682
等候	-15683
这是我	-15684
其子	-15685
打造的	-15686
人选	-15687
▁工商	-15688
剪辑	-15689
的最后	-15690
界定	-15691
黄埔	-15692
并对其内容的	-15693
嫁给	-15694
弱的	-15695
颁布的	-15696
你会发现	-15697
网络的	-15698
承担个别及	-15699
数次	-15700
简要	-15701
一下吧	-15702
归还	-15703
格外	-15704
的一半	-15705
的理念	-15706
但是因为	-15707
大兴	-15708
但是由于	-15709
人不	-15710
巧妙	-15711
目击	-15712
挂钩	-15713
工作了	-15714
不确定性	-15715
研究成果	-15716
七十	-15717
其父	-15718
影展	-15719
ios	-15720
情愿	-15721
专门的	-15722
西安市	-15723
嘉兴	-15724
有待	-15725
借用	-15726
邪恶	-15727
中西部	-15728
实践中	-15729
模态	-15730
在这些	-15731
壮大	-15732
大巴	-15733
略微	-15734
学生会	-15735
水资源	-15736
克罗地亚	-15737
及以下	-15738
ole	-15739
政策和	-15740
半球	-15741
束缚	-15742
正值	-15743
犹如	-15744
eek	-15745
牵头	-15746
▁百度	-15747
自来水	-15748
逾期	-15749
全资子公司	-15750
冲高	-15751
悬浮	-15752
▁信息与通信工程	-15753
就算是	-15754
该地区	-15755
▁专家	-15756
理想的	-15757
再见	-15758
还有什么	-15759
▁继	-15760
中天	-15761
我才	-15762
制止	-15763
车友	-15764
降幅	-15765
年欧洲	-15766
提出一种	-15767
嘉年华	-15768
居家	-15769
接纳	-15770
日文	-15771
捆绑	-15772
造船	-15773
邮轮	-15774
"、"	-15775
带宽	-15776
在第	-15777
▁纺织	-15778
很明显	-15779
最受欢迎	-15780
净利	-15781
温带	-15782
状的	-15783
点和	-15784
java	-15785
劳动者	-15786
对外开放	-15787
的销售	-15788
管委会	-15789
的不是	-15790
下一代	-15791
追溯到	-15792
大肠	-15793
山口	-15794
预估	-15795
增资	-15796
质地	-15797
退货	-15798
lect	-15799
变相	-15800
香草	-15801
生长于	-15802
副使	-15803
英军	-15804
算法的	-15805
攻占	-15806
时长	-15807
岁以上	-15808
连续剧	-15809
胞胎	-15810
副校长	-15811
有这么	-15812
比特币	-15813
猪笼	-15814
这只	-15815
以及对	-15816
年担任	-15817
汉口	-15818
十八届	-15819
二环	-15820
会用	-15821
ats	-15822
ral	-15823
ield	-15824
周恩	-15825
收养	-15826
棕色	-15827
至尊	-15828
酒水	-15829
曼谷	-15830
unction	-15831
交替	-15832
并成为	-15833
集团董事长	-15834
主唱	-15835
处处长	-15836
reen	-15837
乎乎	-15838
明日	-15839
校方	-15840
个人所得税	-15841
ref	-15842
For	-15843
汇丰	-15844
我们将	-15845
正文	-15846
真人秀	-15847
委员会主席	-15848
纳省	-15849
帮助下	-15850
iver	-15851
▁各	-15852
支柱	-15853
填充	-15854
明了	-15855
荔枝	-15856
铃木	-15857
首张	-15858
作用下	-15859
毛孔	-15860
▁ps	-15861
多米	-15862
足联	-15863
眼中的	-15864
红楼	-15865
和工作	-15866
有很大的	-15867
▁那些	-15868
ideo	-15869
四位	-15870
保荐	-15871
旧的	-15872
面临的	-15873
哈里	-15874
幸好	-15875
想在	-15876
渔民	-15877
人民网	-15878
弗兰	-15879
有那么	-15880
切尔西	-15881
年加入	-15882
下达	-15883
座标为	-15884
低碳	-15885
玩乐	-15886
细心	-15887
接手	-15888
啪啪	-15889
背叛	-15890
波长	-15891
实用的	-15892
为之	-15893
业协会	-15894
伦特	-15895
赛后	-15896
咖啡馆	-15897
轰炸机	-15898
▁Air	-15899
反响	-15900
颈椎	-15901
研究机构	-15902
不听	-15903
PPO	-15904
我也不知道	-15905
出具的	-15906
把这个	-15907
伊丽莎白	-15908
热潮	-15909
生产线	-15910
北斗	-15911
师长	-15912
实体经济	-15913
偏偏	-15914
亚美尼亚	-15915
多条	-15916
期初	-15917
炒股	-15918
▁云	-15919
和三	-15920
掩盖	-15921
散发	-15922
制片人	-15923
四世	-15924
的习惯	-15925
来着	-15926
而且在	-15927
适当的	-15928
是印度	-15929
松江	-15930
我记得	-15931
一头	-15932
几年前	-15933
▁求	-15934
平淡	-15935
悠久	-15936
舍得	-15937
上世纪	-15938
因为我们	-15939
artic	-15940
缩水	-15941
讲的	-15942
感悟	-15943
使馆	-15944
时表示	-15945
As	-15946
但最终	-15947
因为这个	-15948
公墓	-15949
的任务	-15950
实验结果表明	-15951
ett	-15952
专职	-15953
再用	-15954
超大	-15955
也很好吃	-15956
梅花	-15957
医疗服务	-15958
如果说	-15959
中国大陆的	-15960
一书	-15961
携程	-15962
选票	-15963
同时还	-15964
▁新闻传播学	-15965
大将军	-15966
发声	-15967
古希腊	-15968
多地	-15969
理发	-15970
历史文化	-15971
花卉	-15972
直通	-15973
公署	-15974
搜寻	-15975
债转股	-15976
叙事	-15977
的增长	-15978
中的一个	-15979
也只有	-15980
提高到	-15981
分钟左右	-15982
阵亡	-15983
脊椎	-15984
▁▁▁▁	-15985
有空	-15986
洗脑	-15987
管理员	-15988
技术学院	-15989
挡手自一体	-15990
曾经在	-15991
设立了	-15992
羊毛	-15993
▁id	-15994
月以来	-15995
认定为	-15996
美国国家	-15997
选址	-15998
电气工程	-15999
扩充	-16000
ips	-16001
text	-16002
宁愿	-16003
断了	-16004
率达	-16005
非公开发行股票	-16006
华州	-16007
政府在	-16008
的建设	-16009
已婚	-16010
帆船	-16011
等各种	-16012
违法犯罪	-16013
她与	-16014
保鲜	-16015
你需要	-16016
完善的	-16017
奥利	-16018
的肉	-16019
而知	-16020
这里是	-16021
大王	-16022
亦可	-16023
历年	-16024
会展中心	-16025
拿起	-16026
饮酒	-16027
互联网公司	-16028
伍德	-16029
功课	-16030
行政处罚	-16031
华商	-16032
快报	-16033
▁股	-16034
万家	-16035
出动	-16036
圣殿	-16037
筹建	-16038
隐瞒	-16039
▁se	-16040
有能力	-16041
半决赛	-16042
如果在	-16043
雷诺	-16044
克隆	-16045
短时间内	-16046
人来	-16047
▁会议	-16048
票数	-16049
追随	-16050
教育厅	-16051
滚动	-16052
勒斯	-16053
资产的	-16054
亚当	-16055
高中生	-16056
准确性和完整性	-16057
国美	-16058
安定	-16059
▁面对	-16060
MAT	-16061
▁那时候	-16062
总教区	-16063
按察	-16064
中国移动	-16065
所述	-16066
失联	-16067
金的	-16068
idu	-16069
高度重视	-16070
不符	-16071
会以	-16072
是世界	-16073
这些东西	-16074
容忍	-16075
酵母	-16076
但现在	-16077
小龙	-16078
逃跑	-16079
从一个	-16080
人力资源和社会保障	-16081
列颠	-16082
一双	-16083
亲近	-16084
量产	-16085
伤口	-16086
ngel	-16087
泰山	-16088
砂锅	-16089
转而	-16090
重工	-16091
第一轮	-16092
举个例子	-16093
的呢	-16094
呼和浩特	-16095
好吗	-16096
院的	-16097
婴幼儿	-16098
哪种	-16099
指望	-16100
▁市场	-16101
没有一个	-16102
day	-16103
省道台	-16104
》(),	-16105
中对	-16106
轴承	-16107
代表性	-16108
该系统	-16109
知识点	-16110
富翁	-16111
▁待查	-16112
三十年	-16113
▁挺	-16114
其次是	-16115
的前身	-16116
全职	-16117
学界	-16118
uro	-16119
调理	-16120
▁看着	-16121
采访时表示	-16122
宁市	-16123
bit	-16124
致死	-16125
冰川	-16126
定时	-16127
猪笼草	-16128
超高	-16129
日平均	-16130
半价	-16131
▁发	-16132
调制	-16133
较差	-16134
会造成	-16135
的人类	-16136
▁说实话	-16137
山镇	-16138
督查	-16139
酸性	-16140
日治时期	-16141
MBA	-16142
发生于	-16143
对我们	-16144
并根据	-16145
故居	-16146
可信	-16147
逛逛	-16148
▁许	-16149
准入	-16150
作为一种	-16151
们在	-16152
不影响	-16153
叫了	-16154
市面上	-16155
olspan	-16156
▁早	-16157
各自的	-16158
哲学家	-16159
▁方	-16160
专心	-16161
好几次	-16162
金枪鱼	-16163
做人	-16164
售卖	-16165
固有	-16166
恩斯	-16167
所带来的	-16168
▁福	-16169
森堡	-16170
大衣	-16171
挑剔	-16172
专案	-16173
羊排	-16174
上月	-16175
全国各地	-16176
多云	-16177
造就	-16178
惠州	-16179
育儿	-16180
与会	-16181
在公司	-16182
打球	-16183
升值	-16184
美剧	-16185
▁On	-16186
低气压	-16187
时间里	-16188
||	-16189
匆匆	-16190
汤姆	-16191
信访	-16192
收盘价	-16193
comquestion	-16194
索赔	-16195
显示出	-16196
国税	-16197
枪击	-16198
▁应该	-16199
和西	-16200
贵人	-16201
喜爱的	-16202
看不见	-16203
▁郑州	-16204
受访者	-16205
▁图书馆	-16206
海边	-16207
你去	-16208
全台	-16209
冲绳	-16210
糖果	-16211
就餐	-16212
拍了	-16213
横跨	-16214
reak	-16215
浓厚	-16216
低端	-16217
年将	-16218
两座	-16219
新材料	-16220
indle	-16221
选择性	-16222
应纳税	-16223
拍摄的	-16224
用手机	-16225
万英镑	-16226
的整体	-16227
rome	-16228
北欧	-16229
因为有	-16230
))	-16231
份量	-16232
倒塌	-16233
年期	-16234
降息	-16235
中国特色	-16236
和阿	-16237
弗逊	-16238
数个	-16239
▁药学	-16240
豆芽	-16241
▁理论	-16242
富含	-16243
更名	-16244
被任命为	-16245
首领	-16246
资金的	-16247
▁石油	-16248
平均水平	-16249
君子	-16250
雨水	-16251
加快推进	-16252
科室	-16253
的人士	-16254
红十字	-16255
▁讲	-16256
病理	-16257
去世后	-16258
充当	-16259
邯郸	-16260
吃东西	-16261
希特勒	-16262
洗衣机	-16263
▁传	-16264
交道	-16265
景气	-16266
逃亡	-16267
也得	-16268
菲特	-16269
中国国际	-16270
als	-16271
沃尔沃	-16272
污水处理	-16273
世上	-16274
生活中的	-16275
问题上	-16276
▁机械工程	-16277
亮的	-16278
".	-16279
模具	-16280
是我国	-16281
研究报告	-16282
墨尔	-16283
▁our	-16284
畸形	-16285
保留了	-16286
落马	-16287
就不是	-16288
衣物	-16289
嫌犯	-16290
浑身	-16291
大部分的	-16292
他妈	-16293
秦皇岛	-16294
培训机构	-16295
秒杀	-16296
质检	-16297
油菜	-16298
aur	-16299
有一位	-16300
理论的	-16301
作品中	-16302
志愿服务	-16303
二维码关注	-16304
操作策略	-16305
对付	-16306
特工	-16307
预先	-16308
首富	-16309
NH	-16310
正版	-16311
加深	-16312
受阻	-16313
者为	-16314
鲍鱼	-16315
吃的时候	-16316
头疼	-16317
时隔	-16318
分钟的	-16319
超人	-16320
增收	-16321
大大的	-16322
颇为	-16323
动不动	-16324
文化和	-16325
前线	-16326
车站构造	-16327
口头	-16328
会更	-16329
她还	-16330
工委	-16331
难忘	-16332
有人在	-16333
Station	-16334
葡萄糖	-16335
前行	-16336
性强	-16337
战败	-16338
双层	-16339
失利	-16340
月刊	-16341
CL	-16342
”!	-16343
恋人	-16344
几内亚	-16345
aper	-16346
SQ	-16347
折射	-16348
猪排	-16349
火车票	-16350
海带	-16351
护卫	-16352
沙龙	-16353
顶点	-16354
TML	-16355
内蒙古自治区	-16356
群体的	-16357
ution	-16358
白宫	-16359
AF	-16360
标杆	-16361
语义	-16362
基本是	-16363
▁投资	-16364
烤的	-16365
战舰	-16366
我就不	-16367
的名称	-16368
那么好	-16369
ader	-16370
先发	-16371
其所	-16372
参会	-16373
就职	-16374
显瘦	-16375
来个	-16376
Rob	-16377
的反应	-16378
ough	-16379
被曝	-16380
全国重点	-16381
姨妈	-16382
改组	-16383
获批	-16384
的例子	-16385
气流	-16386
右翼	-16387
聊聊	-16388
这件事情	-16389
没看	-16390
可以根据	-16391
使用权	-16392
世俗	-16393
分流	-16394
到手	-16395
着陆	-16396
做到了	-16397
在整个	-16398
日公布	-16399
的食物	-16400
有不	-16401
▁cm	-16402
转变为	-16403
航空航天	-16404
日渐	-16405
▁印度	-16406
不高兴	-16407
永乐	-16408
芙蓉	-16409
二氧化碳	-16410
二胎	-16411
户部	-16412
租车	-16413
▁数据	-16414
欢喜	-16415
有三个	-16416
焚烧	-16417
督察	-16418
网约车	-16419
停产	-16420
的亲	-16421
呕吐	-16422
道夫	-16423
三明治	-16424
这篇文章	-16425
每年的	-16426
▁使用	-16427
▁System	-16428
万年	-16429
斯图	-16430
起草	-16431
银川	-16432
”)。	-16433
公司将	-16434
▁汽油机	-16435
研究进展	-16436
这样的人	-16437
两类	-16438
素菜	-16439
衰竭	-16440
的行业	-16441
奖的	-16442
等功能	-16443
▁梁	-16444
▁就像	-16445
军校	-16446
一般人	-16447
在深圳	-16448
神父	-16449
着实	-16450
斯大林	-16451
WE	-16452
点燃	-16453
湖南卫视	-16454
上手	-16455
宁静	-16456
很入味	-16457
他以	-16458
保姆	-16459
削弱	-16460
前面的	-16461
增发	-16462
有点儿	-16463
err	-16464
自己做	-16465
文化产业	-16466
气势	-16467
you	-16468
总部位于	-16469
光荣	-16470
界限	-16471
范围为	-16472
高跟鞋	-16473
机体	-16474
这篇	-16475
驻地	-16476
菲尔	-16477
诚意	-16478
退市	-16479
是基于	-16480
之争	-16481
奥会	-16482
开来	-16483
thing	-16484
与你	-16485
个省	-16486
细化	-16487
就看	-16488
▁不能	-16489
干道	-16490
乐福	-16491
不满意	-16492
科大	-16493
礼服	-16494
绘本	-16495
太大的	-16496
▁雅	-16497
▁产品	-16498
两句	-16499
十四年	-16500
财务状况	-16501
上衣	-16502
解体	-16503
铜牌	-16504
或者其他	-16505
相比之下	-16506
村里	-16507
身穿	-16508
说明了	-16509
卡特	-16510
名学生	-16511
计较	-16512
价格为	-16513
jp	-16514
图上	-16515
港区	-16516
某人	-16517
秒钟	-16518
▁先说	-16519
名举人	-16520
虽然在	-16521
很多东西	-16522
指数证券投资基金	-16523
腌制	-16524
ello	-16525
▁我现在	-16526
尽责	-16527
ke	-16528
优选	-16529
我以为	-16530
▁stud	-16531
的轨道	-16532
知道自己	-16533
金融市场	-16534
▁温	-16535
加勒比	-16536
下巴	-16537
吃点	-16538
奖章	-16539
区域内	-16540
的需要	-16541
GM	-16542
阶梯	-16543
▁他的	-16544
帕尔	-16545
烟花	-16546
班长	-16547
航站	-16548
加速度	-16549
最先	-16550
羊肉串	-16551
生蚝	-16552
价格的	-16553
▁你的	-16554
音乐的	-16555
book	-16556
本公告	-16557
▁问	-16558
味道也	-16559
和别人	-16560
的职业	-16561
惯性	-16562
楼层	-16563
事变	-16564
外貌	-16565
愉悦	-16566
矫正	-16567
游泳池	-16568
错过了	-16569
评定	-16570
先生的	-16571
题为	-16572
话剧	-16573
需要在	-16574
堵塞	-16575
______	-16576
医务	-16577
▁乌	-16578
上说	-16579
普尔	-16580
日当周	-16581
的业务	-16582
再看	-16583
▁车型	-16584
店里的	-16585
▁在我	-16586
年代末	-16587
认识了	-16588
会议召开	-16589
王某	-16590
共青团	-16591
只有在	-16592
学系	-16593
和日本	-16594
分明	-16595
氧气	-16596
▁基金管理人	-16597
畅通	-16598
该区	-16599
西班牙语	-16600
会使	-16601
北上广	-16602
家常菜	-16603
示范区	-16604
我一个人	-16605
arm	-16606
作案	-16607
无知	-16608
萌萌	-16609
并对其内容的真实性	-16610
逐年	-16611
▁欢迎	-16612
通关	-16613
管的	-16614
探测器	-16615
数量的	-16616
是那种	-16617
的一部	-16618
元钱	-16619
诗词	-16620
饭菜	-16621
▁豆瓣	-16622
AU	-16623
三角洲	-16624
orth	-16625
▁前置前驱	-16626
九十	-16627
征信	-16628
迪拜	-16629
usiness	-16630
▁夏	-16631
常住	-16632
鼓楼	-16633
届董事会	-16634
急诊	-16635
斯省	-16636
站着	-16637
型开放式	-16638
的时候会	-16639
发电厂	-16640
比其他	-16641
因病	-16642
套件	-16643
最小的	-16644
还有点	-16645
▁名	-16646
闽南	-16647
电厂	-16648
著称	-16649
IO	-16650
全能	-16651
第一期	-16652
失恋	-16653
森纳	-16654
与新	-16655
复牌	-16656
放着	-16657
享受到	-16658
第二大	-16659
广电总局	-16660
所有权	-16661
的表达	-16662
防汛	-16663
电商平台	-16664
▁承载式车身	-16665
是一条	-16666
▁台	-16667
数学家	-16668
穆罕默德	-16669
大多是	-16670
指定的	-16671
zz	-16672
废话	-16673
花莲	-16674
你好	-16675
unt	-16676
之事	-16677
保暖	-16678
用料	-16679
热情的	-16680
年化	-16681
cience	-16682
多处	-16683
可以被	-16684
这么做	-16685
两块	-16686
想像	-16687
夜里	-16688
河的	-16689
有限的	-16690
不是特别	-16691
支持的	-16692
基金管理人的	-16693
临沂	-16694
热度	-16695
Bl	-16696
Nm	-16697
入狱	-16698
马桶	-16699
生产力	-16700
应在	-16701
▁终于	-16702
京城	-16703
凉的	-16704
连杆	-16705
黑名单	-16706
不怎么样	-16707
但是没有	-16708
特产	-16709
党风	-16710
手感	-16711
有其	-16712
爱奇艺	-16713
出示	-16714
毕竟是	-16715
新兴产业	-16716
牵手	-16717
的人数	-16718
四次	-16719
Cr	-16720
会谈	-16721
圆柱	-16722
也有人	-16723
不贵	-16724
极力	-16725
最开始	-16726
俘虏	-16727
玩儿	-16728
成为中国	-16729
不下来	-16730
文化旅游	-16731
范围内的	-16732
迟迟	-16733
baidu	-16734
吸血	-16735
首轮	-16736
唯有	-16737
致癌	-16738
尺寸备胎	-16739
商用	-16740
的形成	-16741
隐蔽	-16742
渔船	-16743
矿石	-16744
罢工	-16745
首先是	-16746
发生变化	-16747
爱人	-16748
拟合	-16749
三菱	-16750
西装	-16751
一年后	-16752
出游	-16753
教的	-16754
短缺	-16755
该站	-16756
▁VS	-16757
国家发改委	-16758
▁哎	-16759
年收入	-16760
但他们	-16761
加点	-16762
主演的	-16763
制造的	-16764
后来被	-16765
在我看来	-16766
管理部门	-16767
办了	-16768
本基金的	-16769
脱贫攻坚	-16770
非常喜欢	-16771
晓得	-16772
展厅	-16773
良性	-16774
都是很	-16775
年世界杯	-16776
锦赛	-16777
乳房	-16778
大局	-16779
里昂	-16780
▁Or	-16781
高频	-16782
空气净化	-16783
雄性	-16784
冷漠	-16785
时髦	-16786
▁there	-16787
盘的	-16788
早的	-16789
启蒙	-16790
前身为	-16791
出厂	-16792
配备了	-16793
的有关规定	-16794
组团	-16795
铁道部	-16796
军用	-16797
驻车	-16798
给了我	-16799
设置了	-16800
公演	-16801
声器	-16802
soh	-16803
准确性和完整性承担个别及	-16804
七大	-16805
这在	-16806
否决	-16807
试验研究	-16808
分钟内	-16809
的未来	-16810
▁com	-16811
因果	-16812
德勒	-16813
研究者	-16814
重要讲话	-16815
个子	-16816
品类	-16817
暴风	-16818
因涉嫌	-16819
池塘	-16820
▁他说	-16821
上都	-16822
蛮好的	-16823
▁nm	-16824
元首	-16825
帮他	-16826
画作	-16827
绝不	-16828
历史学家	-16829
不完	-16830
香料	-16831
但有	-16832
翅膀	-16833
()、	-16834
▁原油	-16835
内政	-16836
景象	-16837
铸造	-16838
雇佣	-16839
求婚	-16840
edu	-16841
中国市场	-16842
南阳	-16843
汇集	-16844
考场	-16845
开胃	-16846
▁需要	-16847
遇到的	-16848
的保护	-16849
国学	-16850
使者	-16851
近距离	-16852
▁项目	-16853
都快	-16854
首创	-16855
TP	-16856
委内	-16857
救治	-16858
google	-16859
本的	-16860
一种是	-16861
位于法国奥	-16862
MW	-16863
解套	-16864
时不时	-16865
▁world	-16866
交谈	-16867
无忧	-16868
这么大	-16869
人之	-16870
或在	-16871
无机	-16872
虹桥	-16873
巴布	-16874
纹身	-16875
内部的	-16876
古屋	-16877
▁than	-16878
填补	-16879
筹划	-16880
比较小	-16881
ress	-16882
刊物	-16883
星空	-16884
的主要原因	-16885
人也	-16886
学区	-16887
盆友	-16888
细细	-16889
上来说	-16890
准确的	-16891
不过在	-16892
凹陷	-16893
▁问题	-16894
lob	-16895
号种子	-16896
舞台上	-16897
武力	-16898
中文版	-16899
的好吃	-16900
仍旧	-16901
防盗	-16902
神舟	-16903
中国社会	-16904
体能	-16905
巡演	-16906
服务和	-16907
重修	-16908
支持者	-16909
只能在	-16910
高性能	-16911
凶手	-16912
搬运	-16913
母婴	-16914
HA	-16915
▁毛	-16916
年夏季奥林匹克运动会	-16917
心病	-16918
显微镜	-16919
建华	-16920
人民的	-16921
鉴别	-16922
也很不错	-16923
▁纺织科学与工程	-16924
升学	-16925
▁包括	-16926
简直就是	-16927
ii	-16928
丁堡	-16929
末端	-16930
在位	-16931
的评论	-16932
于同年	-16933
▁证监会	-16934
区长	-16935
富二代	-16936
是和	-16937
每一位	-16938
贵金属	-16939
涌现	-16940
南通	-16941
扰动	-16942
阿布	-16943
吃掉	-16944
可可	-16945
医疗器械	-16946
克西	-16947
是乌克兰的村落	-16948
舰艇	-16949
走私	-16950
大部	-16951
往上	-16952
猎人	-16953
▁游戏	-16954
▁军事学	-16955
星级酒店	-16956
苦恼	-16957
研发的	-16958
note	-16959
怎么说呢	-16960
随便吃吃	-16961
安妮	-16962
爱荷	-16963
浓缩	-16964
狙击	-16965
缺席	-16966
耶尔	-16967
跨度	-16968
▁我说	-16969
颈部	-16970
oun	-16971
丑闻	-16972
瘫痪	-16973
伯利亚	-16974
MX	-16975
省钱	-16976
Or	-16977
raw	-16978
万物	-16979
硫化	-16980
创新的	-16981
ha	-16982
号和	-16983
风吹	-16984
或多	-16985
条目	-16986
前海	-16987
承压	-16988
和大家	-16989
据说是	-16990
近乎	-16991
的还是	-16992
天文学家	-16993
疏散	-16994
鳕鱼	-16995
加油站	-16996
喜欢你	-16997
战斗力	-16998
过世	-16999
迁徙	-17000
没用	-17001
浮动	-17002
的房子	-17003
舒适版	-17004
▁法	-17005
哥华	-17006
就用	-17007
的二	-17008
纵横	-17009
都无法	-17010
lin	-17011
但对于	-17012
的新型	-17013
宁县	-17014
艾伦	-17015
差额	-17016
却发现	-17017
性行为	-17018
世间	-17019
国共	-17020
瑞拉	-17021
▁长沙	-17022
总结了	-17023
深层	-17024
在韩国	-17025
市盈	-17026
年金	-17027
的衣服	-17028
卫冕	-17029
本报	-17030
第三代	-17031
大名	-17032
为我们	-17033
引种	-17034
格莱	-17035
说得	-17036
▁网友	-17037
事业部	-17038
客串	-17039
接力	-17040
谋划	-17041
特许	-17042
的领导	-17043
与众	-17044
乡道	-17045
受邀	-17046
羟基	-17047
诊所	-17048
ities	-17049
▁据说	-17050
请联系	-17051
推断	-17052
第二名	-17053
气球	-17054
叫什么	-17055
股票投资	-17056
我做	-17057
间距	-17058
新产品	-17059
重要作用	-17060
机和	-17061
已经很	-17062
至少有	-17063
▁北京市	-17064
修身	-17065
平定	-17066
炮兵	-17067
积极的	-17068
不知道是	-17069
资产负债表	-17070
而有	-17071
过期	-17072
厄尔	-17073
碱性	-17074
翻唱	-17075
Win	-17076
芜湖	-17077
一个问题	-17078
ican	-17079
近百	-17080
ross	-17081
患病	-17082
转折	-17083
阿姆	-17084
看不懂	-17085
▁武	-17086
大都	-17087
发生过	-17088
圣诞节	-17089
金像	-17090
大家都知道	-17091
怎么能	-17092
规范化	-17093
Open	-17094
分析法	-17095
就需要	-17096
丢了	-17097
那次	-17098
交易中心	-17099
丝毫	-17100
层级	-17101
▁书	-17102
被评为	-17103
革命军	-17104
投身	-17105
联播	-17106
饰品	-17107
多年前	-17108
最主要	-17109
佛罗里达州	-17110
乐坛	-17111
必胜客	-17112
会给	-17113
基友	-17114
ures	-17115
地标	-17116
cd	-17117
客气	-17118
宽容	-17119
及全体	-17120
点餐	-17121
▁互联网	-17122
物理学家	-17123
▁土木工程	-17124
当当	-17125
在我的	-17126
在东	-17127
株式	-17128
送上	-17129
lab	-17130
多夫	-17131
沉浸	-17132
没多久	-17133
修养	-17134
制剂	-17135
太难	-17136
就够了	-17137
帷幕	-17138
街的	-17139
通告	-17140
便利店	-17141
的老师	-17142
但不限于	-17143
前一天	-17144
卖场	-17145
在下	-17146
旺盛	-17147
蜗牛	-17148
疾病的	-17149
进行研究	-17150
名声	-17151
手下	-17152
青椒	-17153
德克萨斯	-17154
大蒜	-17155
约占	-17156
传授	-17157
菲利普	-17158
减排	-17159
奥斯曼	-17160
现阶段	-17161
我再	-17162
▁腾讯	-17163
另一位	-17164
最适合	-17165
的收入	-17166
唯一一个	-17167
三代	-17168
发展到	-17169
轨电车	-17170
中央军委	-17171
ility	-17172
之城	-17173
也不少	-17174
顺德	-17175
是需要	-17176
▁电影	-17177
著作权	-17178
▁波	-17179
轮毂	-17180
名称为	-17181
空降	-17182
间断	-17183
低压	-17184
控制在	-17185
▁新华社	-17186
amily	-17187
奇的	-17188
百强	-17189
找他	-17190
到时候	-17191
脆脆的	-17192
代表着	-17193
光照	-17194
打扫	-17195
甜甜	-17196
争霸	-17197
水解	-17198
order	-17199
仅限	-17200
千克	-17201
矿产	-17202
签署了	-17203
定性	-17204
猫咪	-17205
还不够	-17206
了我们	-17207
参赛者	-17208
父亲的	-17209
广播公司	-17210
也从	-17211
王位	-17212
但实际上	-17213
感觉就是	-17214
违章	-17215
哈德	-17216
生孩子	-17217
必点	-17218
揭露	-17219
下轨	-17220
军民	-17221
直销	-17222
计算方法	-17223
人情	-17224
拜访	-17225
工程及	-17226
男演员	-17227
株式会社	-17228
德国的	-17229
水和	-17230
同位素	-17231
通宵	-17232
哈佛大学	-17233
防线	-17234
往往是	-17235
流亡	-17236
经济损失	-17237
合肥市	-17238
轮融资	-17239
ource	-17240
听的	-17241
在同	-17242
切除	-17243
前去	-17244
专业化	-17245
股市场	-17246
外部链接	-17247
单人	-17248
挂在	-17249
缺血	-17250
陪我	-17251
在各	-17252
纽约时报	-17253
二十四	-17254
▁大气科学	-17255
中学生	-17256
至五	-17257
酝酿	-17258
对他的	-17259
工况	-17260
个项目	-17261
他们会	-17262
高品质	-17263
但它	-17264
阵列	-17265
周恩来	-17266
▁汉	-17267
就近	-17268
▁上面	-17269
像个	-17270
视察	-17271
里奥	-17272
微型	-17273
安全带	-17274
迎来了	-17275
前瞻	-17276
▁一开始	-17277
教师资格	-17278
征求意见稿	-17279
之乱	-17280
阻挡	-17281
老爷	-17282
染色体	-17283
的父母	-17284
在他们	-17285
儿童安全	-17286
抗体	-17287
梅尔	-17288
而他	-17289
的中心	-17290
理性的	-17291
走出去	-17292
不利于	-17293
也不用	-17294
不死	-17295
背包	-17296
不乏	-17297
煎饼	-17298
节课	-17299
一体的	-17300
严格遵守	-17301
大增	-17302
曾经的	-17303
了解更多	-17304
岁的时候	-17305
致辞	-17306
计委	-17307
霍尔	-17308
丘陵	-17309
装箱	-17310
▁back	-17311
;《	-17312
使之	-17313
ruct	-17314
拉着	-17315
为目的	-17316
天内	-17317
榴弹	-17318
史诗	-17319
啦啦	-17320
ollege	-17321
后人	-17322
跌至	-17323
顿饭	-17324
的处理	-17325
顺丰	-17326
▁just	-17327
是做	-17328
不断提高	-17329
山村	-17330
打破了	-17331
建筑设计	-17332
▁回	-17333
振荡	-17334
斯诺	-17335
新闻出版	-17336
▁地	-17337
英九	-17338
率达到	-17339
的实际	-17340
纽约市	-17341
这才是	-17342
▁SUV	-17343
届全国人民代表大会	-17344
冰岛	-17345
新低	-17346
的一生	-17347
研究室	-17348
山庄	-17349
民族主义	-17350
坑爹	-17351
布罗	-17352
日到	-17353
红枣	-17354
▁那天	-17355
分数线	-17356
德川	-17357
你也	-17358
延伸至	-17359
购买的	-17360
据称	-17361
昆仑	-17362
超值	-17363
你还	-17364
纲要	-17365
社会责任	-17366
个案	-17367
抗震	-17368
vel	-17369
不开心	-17370
交由	-17371
至关	-17372
········	-17373
海中	-17374
GF	-17375
优美	-17376
看他	-17377
睡前	-17378
增加到	-17379
积极参与	-17380
当他	-17381
杜绝	-17382
飞往	-17383
动画片	-17384
儒家	-17385
作出了	-17386
创办人	-17387
▁good	-17388
编入	-17389
开张	-17390
穿搭	-17391
很长时间	-17392
都差不多	-17393
传记	-17394
投融资	-17395
被子	-17396
这道菜	-17397
诺斯	-17398
镶嵌	-17399
ple	-17400
的资料	-17401
的分割线	-17402
巨型	-17403
应有	-17404
两千	-17405
hh	-17406
▁宝	-17407
▁维	-17408
写出	-17409
播映	-17410
春夏	-17411
iff	-17412
注销	-17413
洗手间	-17414
总分	-17415
打到	-17416
站内	-17417
stit	-17418
首饰	-17419
二等奖	-17420
花粉	-17421
一届	-17422
牛肉面	-17423
续集	-17424
个月后	-17425
日中午	-17426
中亚	-17427
文帝	-17428
感觉是	-17429
资源与	-17430
但是还是	-17431
▁附	-17432
了在	-17433
考点	-17434
酸梅	-17435
不起来	-17436
工作和	-17437
不带	-17438
个数	-17439
共赢	-17440
杨幂	-17441
ful	-17442
免税	-17443
▁昆明	-17444
单元的	-17445
吃过的	-17446
SR	-17447
移送	-17448
目标的	-17449
智能家居	-17450
未成年	-17451
宋朝	-17452
签下	-17453
参议员	-17454
注释	-17455
极高	-17456
▁安徽	-17457
当地人	-17458
沪港通	-17459
大宗商品	-17460
一刻	-17461
的来	-17462
周年纪念	-17463
专项行动	-17464
被困	-17465
交易单元	-17466
房东	-17467
特有	-17468
罪犯	-17469
莫尔	-17470
只知道	-17471
美元的	-17472
拳击	-17473
路军	-17474
了好久	-17475
▁政治学	-17476
会议室	-17477
艺术学院	-17478
UB	-17479
廉洁	-17480
患儿	-17481
统治者	-17482
???????	-17483
▁Is	-17484
实现营业收入	-17485
弄得	-17486
易于	-17487
睫毛	-17488
gin	-17489
发表的	-17490
还不是	-17491
湖广	-17492
漂流	-17493
FM	-17494
在天	-17495
但后来	-17496
原告	-17497
太低	-17498
急需	-17499
▁未来	-17500
泛滥	-17501
rem	-17502
可获得	-17503
为民	-17504
残忍	-17505
身处	-17506
不过我	-17507
发展改革	-17508
南开	-17509
及后	-17510
urface	-17511
名胜	-17512
太宗	-17513
发出的	-17514
更强	-17515
小额	-17516
物件	-17517
eph	-17518
前女友	-17519
昵称	-17520
试驾	-17521
车厂	-17522
斯坦福	-17523
的比赛中	-17524
遇到过	-17525
试卷	-17526
主教座堂	-17527
SG	-17528
满足了	-17529
震动	-17530
最终在	-17531
直言	-17532
最好是	-17533
跟风	-17534
听起来	-17535
我应该	-17536
atic	-17537
乌龙	-17538
停车位	-17539
散射	-17540
音源	-17541
星期五	-17542
球菌	-17543
款车型	-17544
马自达	-17545
▁双顶置	-17546
使用情况	-17547
短板	-17548
严格按照	-17549
一览	-17550
圈的	-17551
悟空	-17552
而得名	-17553
人对报告期内	-17554
准备了	-17555
了一段时间	-17556
传教士	-17557
区政府	-17558
背鳍	-17559
赛区	-17560
from	-17561
平板电脑	-17562
AQ	-17563
斯里兰卡	-17564
三类	-17565
班里	-17566
苏里	-17567
立法委员	-17568
▁到了	-17569
等地的	-17570
论坛上	-17571
小儿	-17572
的图	-17573
▁央行	-17574
一家人	-17575
▁ret	-17576
世界第一	-17577
首部	-17578
玩家的	-17579
▁这样的	-17580
党建	-17581
居于	-17582
中国梦	-17583
设置的	-17584
illa	-17585
师的	-17586
托尔	-17587
红薯	-17588
锅贴	-17589
word	-17590
急剧	-17591
顶层	-17592
很开心	-17593
看到一个	-17594
二次元	-17595
沉降	-17596
较长	-17597
堪萨斯州	-17598
功耗	-17599
ask	-17600
迎合	-17601
众所周知	-17602
广发	-17603
活化	-17604
门将	-17605
父亲是	-17606
员外	-17607
加索	-17608
粗暴	-17609
结核	-17610
成品油	-17611
季军	-17612
集会	-17613
世界观	-17614
两部	-17615
主的	-17616
的一致	-17617
后将	-17618
列报	-17619
慰问	-17620
行政长官	-17621
新颖	-17622
了一段	-17623
日程	-17624
来过	-17625
ESP	-17626
身边的人	-17627
名片	-17628
最深	-17629
卖了	-17630
打扰	-17631
月光	-17632
裔美国人	-17633
脸部	-17634
草坪	-17635
制度和	-17636
层面的	-17637
最大化	-17638
组织部	-17639
黑色的	-17640
人造	-17641
一对一	-17642
很漂亮	-17643
做大	-17644
勃艮	-17645
博士生	-17646
一直都是	-17647
成化	-17648
留给	-17649
这笔	-17650
erm	-17651
代表队	-17652
现实中	-17653
苍蝇	-17654
还需	-17655
正德	-17656
过头	-17657
熟的	-17658
较小的	-17659
克劳	-17660
或有	-17661
▁泰	-17662
服务于	-17663
半月	-17664
uild	-17665
低开	-17666
eve	-17667
基金公司	-17668
五名	-17669
完结	-17670
率军	-17671
股民	-17672
芹菜	-17673
往年	-17674
换取	-17675
▁老师	-17676
星期日	-17677
三分之一	-17678
指导下	-17679
▁卤	-17680
的局面	-17681
对战	-17682
百搭	-17683
尽职	-17684
那个人	-17685
专柜	-17686
生抽	-17687
并从	-17688
的调查	-17689
ategory	-17690
衰减	-17691
又会	-17692
追加	-17693
TVB	-17694
最后还是	-17695
社会保险	-17696
自己喜欢	-17697
结果发现	-17698
▁杜	-17699
报社	-17700
边防	-17701
不那么	-17702
的经营	-17703
连环	-17704
不足以	-17705
▁直列	-17706
市场营销	-17707
凡是	-17708
小火	-17709
县治	-17710
学子	-17711
ny	-17712
一艘	-17713
况且	-17714
ause	-17715
▁放	-17716
阴道	-17717
有一条	-17718
首歌曲	-17719
价格也	-17720
公安厅	-17721
的制作	-17722
描述了	-17723
募资	-17724
球衣	-17725
盛典	-17726
麒麟	-17727
实体店	-17728
营业时间	-17729
甘心	-17730
EE	-17731
比为	-17732
发展规划	-17733
能把	-17734
中石油	-17735
冷水	-17736
▁带	-17737
勤奋	-17738
▁整车	-17739
状态下	-17740
Galaxy	-17741
而上	-17742
野战	-17743
银牌	-17744
数学模型	-17745
沒有	-17746
猴子	-17747
装潢	-17748
分左右	-17749
到家	-17750
海参	-17751
顺治	-17752
食客	-17753
人机	-17754
哈密	-17755
嚼劲	-17756
宜昌	-17757
试剂	-17758
地质学	-17759
构成的	-17760
虽然没有	-17761
围攻	-17762
饭点	-17763
ban	-17764
为什么会	-17765
平坦	-17766
会计主体	-17767
rop	-17768
及其与	-17769
与管理	-17770
就是这个	-17771
风尚	-17772
日出	-17773
租借	-17774
不是说	-17775
无辜	-17776
分类的	-17777
▁off	-17778
固态	-17779
好大	-17780
中饰演	-17781
我用	-17782
其主要	-17783
打招呼	-17784
gy	-17785
三鲜	-17786
伊尔	-17787
的国	-17788
变质	-17789
每当	-17790
村委会	-17791
之夜	-17792
企划	-17793
被套	-17794
建立起	-17795
的不足	-17796
电子游戏	-17797
了起来	-17798
平县	-17799
滑动	-17800
螺丝	-17801
避孕	-17802
同治	-17803
和南	-17804
妊娠	-17805
的一员	-17806
达不到	-17807
典范	-17808
拼接	-17809
走高	-17810
▁研究	-17811
文案	-17812
不停的	-17813
十八年	-17814
检验检疫	-17815
En	-17816
洽谈	-17817
缩量	-17818
银联	-17819
可能是因为	-17820
正的	-17821
与天然气	-17822
万张	-17823
▁Google	-17824
民谣	-17825
oney	-17826
原则上	-17827
弹簧	-17828
皮蛋	-17829
色泽	-17830
四季度	-17831
世界各地	-17832
到你	-17833
火候	-17834
颇有	-17835
安保	-17836
▁我知道	-17837
大埔	-17838
的太	-17839
营地	-17840
伐利亚	-17841
并发症	-17842
].	-17843
猜想	-17844
之后再	-17845
在场	-17846
之以	-17847
他了	-17848
光度	-17849
技艺	-17850
拇指	-17851
江山	-17852
晓明	-17853
▁World	-17854
原作	-17855
滨江	-17856
产品经理	-17857
务工	-17858
尽的	-17859
批量	-17860
转行	-17861
脂肪酸	-17862
沿海省份	-17863
石锅拌饭	-17864
应届毕业生	-17865
发车	-17866
大部分人	-17867
出生的	-17868
▁get	-17869
投手	-17870
不要太	-17871
变速器	-17872
饥饿	-17873
的费用	-17874
元人民币	-17875
rib	-17876
一般在	-17877
卢瓦尔	-17878
可行的	-17879
出不	-17880
捐献	-17881
压力大	-17882
降级	-17883
ger	-17884
在一次	-17885
公证	-17886
推崇	-17887
沉迷	-17888
izza	-17889
治国	-17890
我不会	-17891
保时	-17892
oph	-17893
而对于	-17894
开店	-17895
去年的	-17896
各家	-17897
登记日	-17898
很方便	-17899
」,	-17900
子孙	-17901
▁无论	-17902
印度洋	-17903
是根据	-17904
RD	-17905
分层	-17906
arn	-17907
教育和	-17908
对冲	-17909
出一	-17910
山坡	-17911
卷入	-17912
本鱼	-17913
两人的	-17914
新闻发言人	-17915
▁却	-17916
的口感	-17917
侧重	-17918
海的	-17919
筹码	-17920
装配	-17921
并要求	-17922
友人	-17923
低成本	-17924
是一样的	-17925
惬意	-17926
网店	-17927
选购	-17928
有的时候	-17929
代表性的	-17930
▁拿	-17931
基尼	-17932
风貌	-17933
的认识	-17934
WiFi	-17935
轻轨	-17936
也不多	-17937
的小行星	-17938
学过	-17939
的自然	-17940
产品质量	-17941
市场中	-17942
的操作	-17943
而闻名	-17944
非常大	-17945
单项	-17946
现役	-17947
捕获	-17948
木质	-17949
交流道	-17950
接触到	-17951
骗局	-17952
CG	-17953
▁省	-17954
了新	-17955
太祖	-17956
早晚	-17957
胶原	-17958
随地	-17959
勃艮第	-17960
差不多的	-17961
委员会主任	-17962
↑↑	-17963
威力	-17964
和方法	-17965
已完成	-17966
政府和	-17967
angu	-17968
舌头	-17969
▁船舶	-17970
安纳州	-17971
国家和地区	-17972
温室	-17973
喝茶	-17974
科比	-17975
休假	-17976
偏高	-17977
放倒	-17978
烧饼	-17979
的的	-17980
既是	-17981
两年后	-17982
等原因	-17983
基本信息	-17984
赶快	-17985
辣酱	-17986
温哥华	-17987
▁°	-17988
换挡	-17989
曼城	-17990
跟我们	-17991
买下	-17992
对本	-17993
椒盐	-17994
病原	-17995
▁大众	-17996
几十年	-17997
对他们	-17998
市场需求	-17999
人意	-18000
冒充	-18001
和马	-18002
夫勒	-18003
是她	-18004
模特儿	-18005
口音	-18006
挫折	-18007
是把	-18008
▁不会	-18009
不公平	-18010
带回	-18011
日以	-18012
▁相关	-18013
喜欢我	-18014
▁des	-18015
闭幕	-18016
交战	-18017
韩剧	-18018
自尊	-18019
的第一个	-18020
关卡	-18021
心目	-18022
玄武	-18023
跳跃	-18024
投资收益	-18025
亚科	-18026
和老公	-18027
无从	-18028
股股东	-18029
小哥	-18030
好吃了	-18031
相对来说	-18032
自己喜欢的	-18033
出家	-18034
oon	-18035
日耳	-18036
排出	-18037
纹理	-18038
藏品	-18039
的大学	-18040
亿美元的	-18041
Me	-18042
混血	-18043
内斯	-18044
授信	-18045
ichael	-18046
串联	-18047
喷射	-18048
沼泽	-18049
复发	-18050
武士	-18051
凤爪	-18052
尼玛	-18053
瓜子	-18054
▁环境科学与工程	-18055
地下水	-18056
本身就是	-18057
交通部	-18058
光泽	-18059
年之后	-18060
关税	-18061
内核	-18062
arty	-18063
一直没	-18064
特别行政区	-18065
技师	-18066
驾校	-18067
▁OS	-18068
因为她	-18069
纯属	-18070
鸡丁	-18071
▁think	-18072
▁康	-18073
都以	-18074
爆发后	-18075
服务员说	-18076
不买	-18077
漫画家	-18078
ilver	-18079
北起顺时针与	-18080
分段	-18081
重症	-18082
在美	-18083
都用	-18084
HTC	-18085
好心	-18086
一年多	-18087
第十四	-18088
reet	-18089
甲醇	-18090
驻华	-18091
▁看看	-18092
的粉丝	-18093
眼界	-18094
西医	-18095
▁Ro	-18096
并开始	-18097
吉亚	-18098
溶性	-18099
肤色	-18100
一字	-18101
便携	-18102
古装	-18103
长篇	-18104
和我说	-18105
吉斯	-18106
归属于上市公司股东的净利润	-18107
▁易	-18108
的组织	-18109
印象深刻	-18110
生产总值	-18111
年因	-18112
不错的选择	-18113
任何虚假记载	-18114
的一所	-18115
可以理解	-18116
性能的影响	-18117
乙酸	-18118
思议	-18119
灵活配置混合型证券投资基金	-18120
称其	-18121
你怎么	-18122
报案	-18123
银杏	-18124
交友	-18125
异议	-18126
最受	-18127
沉积物	-18128
sohu	-18129
来不及	-18130
chool	-18131
县道	-18132
我很喜欢	-18133
病房	-18134
建设工程	-18135
有关事项	-18136
炮弹	-18137
金字	-18138
公司法	-18139
过来了	-18140
将达到	-18141
档案管理	-18142
全网	-18143
无功	-18144
本金	-18145
经纪公司	-18146
分之	-18147
总冠军	-18148
看一下	-18149
▁over	-18150
全系	-18151
卸任	-18152
而对	-18153
rol	-18154
评论里	-18155
国际贸易	-18156
上轨	-18157
修行	-18158
声誉	-18159
差价	-18160
河西	-18161
的高级	-18162
长发	-18163
京剧	-18164
米至	-18165
温馨提示	-18166
UT	-18167
监禁	-18168
雨刷	-18169
DIY	-18170
应有的	-18171
接触过	-18172
再多	-18173
一女	-18174
委内瑞拉	-18175
子弟	-18176
收入的	-18177
欠缺	-18178
前男友	-18179
电视机	-18180
莆田	-18181
化疗	-18182
揭晓	-18183
穷人	-18184
保持在	-18185
ney	-18186
哈哈哈哈哈哈哈哈	-18187
构筑	-18188
击败了	-18189
illiam	-18190
key	-18191
建立在	-18192
着一个	-18193
使他	-18194
石器	-18195
利安	-18196
采纳	-18197
卖萌	-18198
排版	-18199
这与	-18200
县市	-18201
一大堆	-18202
:★★★★	-18203
中国家	-18204
▁would	-18205
会见	-18206
搜救	-18207
是与	-18208
(;),	-18209
实事	-18210
自发	-18211
这不	-18212
不在乎	-18213
来说说	-18214
出众	-18215
划入	-18216
流星	-18217
银价	-18218
并将其	-18219
进士出身	-18220
三轮	-18221
台湾省	-18222
仅在	-18223
中国人民银行	-18224
双子	-18225
复试	-18226
十二五	-18227
在微博上	-18228
加大对	-18229
是国内	-18230
自认为	-18231
▁were	-18232
少于	-18233
舅舅	-18234
攀升	-18235
收于	-18236
变现	-18237
酿酒	-18238
办公楼	-18239
午夜	-18240
昏迷	-18241
要从	-18242
▁As	-18243
基础设施建设	-18244
孤儿	-18245
金星	-18246
▁话说	-18247
利多	-18248
知识的	-18249
脱落	-18250
▁ph	-18251
又一	-18252
国际赛	-18253
投资项目	-18254
SL	-18255
非物质	-18256
业绩比较基准收益率	-18257
海绵	-18258
▁技术	-18259
都是我	-18260
生产企业	-18261
具有一定的	-18262
质保	-18263
学习和	-18264
迄今为止	-18265
卵巢	-18266
失落	-18267
者是	-18268
心血管	-18269
沈阳市	-18270
编辑从	-18271
反派	-18272
也越来越	-18273
放进	-18274
波段	-18275
墨尔本	-18276
滤波器	-18277
show	-18278
riend	-18279
经济社会发展	-18280
天数	-18281
接送	-18282
看电视	-18283
身体的	-18284
了一位	-18285
引发的	-18286
改用	-18287
洛伊	-18288
菜量	-18289
最爱的	-18290
中银	-18291
大有	-18292
西餐	-18293
渐进	-18294
年正式	-18295
五千	-18296
维拉	-18297
胳膊	-18298
▁麦弗逊	-18299
PlayStation	-18300
观影	-18301
▁厦门	-18302
日单位	-18303
硬度	-18304
▁分割线	-18305
▁今	-18306
▁Amer	-18307
中出现	-18308
北约	-18309
人士透露	-18310
为美国	-18311
comm	-18312
在自己的	-18313
还是有点	-18314
宴请	-18315
告示	-18316
塑性	-18317
行李箱	-18318
拐头	-18319
老龄	-18320
是属于	-18321
自由贸易	-18322
退伍	-18323
是韩国	-18324
我们家	-18325
所处的	-18326
也觉得	-18327
是一项	-18328
是不会	-18329
眉毛	-18330
野心	-18331
▁济南	-18332
终点站	-18333
日与	-18334
穿梭	-18335
蓬勃	-18336
范围的	-18337
这个话题	-18338
转动	-18339
值得注意的是	-18340
神仙	-18341
取景	-18342
公交线路	-18343
排毒	-18344
inf	-18345
评论家	-18346
对焦	-18347
年头	-18348
惠民	-18349
遵规	-18350
吃完饭	-18351
二季度	-18352
▁尤其是	-18353
目前已经	-18354
装有	-18355
湾区	-18356
迁往	-18357
保时捷	-18358
打动	-18359
爷爷奶奶	-18360
思念	-18361
理所	-18362
青海省	-18363
点缀	-18364
肥肉	-18365
完之后	-18366
就比较	-18367
为代表的	-18368
工商局	-18369
轻度	-18370
▁经济	-18371
第一季度	-18372
上过	-18373
Twitter	-18374
出赛	-18375
发扬	-18376
疲惫	-18377
开放的	-18378
将要	-18379
着眼	-18380
金沙	-18381
他从	-18382
去掉	-18383
清蒸	-18384
琢磨	-18385
东莞市	-18386
alth	-18387
警员	-18388
都得	-18389
浦路	-18390
端午	-18391
薄荷	-18392
反之	-18393
加起来	-18394
安德烈	-18395
对面的	-18396
与天然气工程	-18397
改动	-18398
▁农林	-18399
嵌入式	-18400
点什么	-18401
动荡	-18402
胁迫	-18403
为研究	-18404
三方	-18405
已然	-18406
不列颠	-18407
车站结构	-18408
瓦多	-18409
高了	-18410
作用的	-18411
的影响力	-18412
▁报告期内	-18413
不惜	-18414
性侵	-18415
躲避	-18416
的概率	-18417
别名	-18418
谢尔	-18419
▁啊	-18420
处决	-18421
鲤鱼	-18422
悄然	-18423
文学奖	-18424
可能导致	-18425
低下	-18426
扬声器	-18427
感谢各位	-18428
▁life	-18429
调和	-18430
打底	-18431
普森	-18432
oe	-18433
寒冷	-18434
纸巾	-18435
结果是	-18436
▁核	-18437
▁超级	-18438
遗忘	-18439
都是有	-18440
这是一种	-18441
MH	-18442
线是	-18443
驻扎	-18444
一站式	-18445
多岁	-18446
守望	-18447
现金流	-18448
完备	-18449
张力	-18450
小块	-18451
石灰	-18452
积蓄	-18453
如果要	-18454
outube	-18455
饱了	-18456
利润分配情况	-18457
万台	-18458
的圣	-18459
章鱼	-18460
另一半	-18461
▁一个人	-18462
clude	-18463
分析的	-18464
年以后	-18465
原址	-18466
机能	-18467
潮湿	-18468
男童	-18469
药房	-18470
性质的	-18471
和信息化	-18472
里奇	-18473
技术与	-18474
一男子	-18475
现在在	-18476
购房者	-18477
剪切	-18478
的李	-18479
饮用	-18480
听说过	-18481
维持在	-18482
▁接下来	-18483
西汉	-18484
云吞	-18485
豪车	-18486
后座	-18487
▁石油与天然气工程	-18488
清凉	-18489
药店	-18490
是否存在	-18491
电子产品	-18492
侵入	-18493
强烈推荐	-18494
的妻子	-18495
td	-18496
不光	-18497
废止	-18498
抽查	-18499
献血	-18500
在地上	-18501
浴室	-18502
哈萨克斯坦	-18503
好喝	-18504
公司股票	-18505
白俄罗斯	-18506
go	-18507
真假	-18508
往后	-18509
步步	-18510
餐桌	-18511
社会上	-18512
充斥	-18513
第三季	-18514
宣讲	-18515
抽取	-18516
散布	-18517
陨坑	-18518
签订了	-18519
利比亚	-18520
买不起	-18521
土豆泥	-18522
第四次	-18523
创伤	-18524
无处	-18525
的这个	-18526
▁习近平	-18527
ervice	-18528
祈祷	-18529
收纳	-18530
盛世	-18531
衣柜	-18532
经营管理	-18533
公司于	-18534
冠状病毒病	-18535
曾与	-18536
聚类	-18537
ious	-18538
和一	-18539
师兄	-18540
新房	-18541
海滨	-18542
在南京	-18543
还比较	-18544
地貌	-18545
ating	-18546
通货	-18547
最大限度	-18548
可由	-18549
冷面	-18550
理会	-18551
还给	-18552
采摘	-18553
航站楼	-18554
们都	-18555
先驱	-18556
单体	-18557
异的	-18558
涉足	-18559
费城	-18560
也只能	-18561
我是个	-18562
额外的	-18563
损耗	-18564
柔性	-18565
胚胎	-18566
十六年	-18567
便会	-18568
信赖	-18569
谎言	-18570
问她	-18571
和经济	-18572
▁km	-18573
大小的	-18574
小提琴	-18575
有趣的	-18576
生产商	-18577
各区	-18578
Met	-18579
为什么不	-18580
他很	-18581
的黄	-18582
人头	-18583
被他	-18584
▁如果是	-18585
小腿	-18586
破了	-18587
号月台	-18588
企鹅	-18589
地级	-18590
站厅	-18591
知识分子	-18592
广汽	-18593
橙色	-18594
基础的	-18595
帮我们	-18596
对这些	-18597
▁long	-18598
龙门	-18599
发泄	-18600
下称	-18601
在德国	-18602
祖籍	-18603
滋润	-18604
好好的	-18605
同伴	-18606
复出	-18607
张某	-18608
邮票	-18609
准确性和完整性承担个别及连带责任	-18610
第一步	-18611
神马	-18612
证监	-18613
▁当年	-18614
那么大	-18615
可以考虑	-18616
的脸	-18617
和多	-18618
罪行	-18619
落下	-18620
做出的	-18621
投产	-18622
三重	-18623
所学校	-18624
中国企业	-18625
本报告期内	-18626
▁才	-18627
忠实	-18628
未被	-18629
现将	-18630
粉末	-18631
在我国	-18632
电容	-18633
▁免费电话	-18634
就算了	-18635
世界纪录	-18636
的卡	-18637
谋求	-18638
不齐	-18639
哈顿	-18640
霸道	-18641
面貌	-18642
还有人	-18643
等等等等	-18644
巧合	-18645
提了	-18646
▁自从	-18647
的缘故	-18648
总长	-18649
波浪	-18650
加州大学	-18651
视星等为	-18652
▁贝	-18653
便民	-18654
巡查	-18655
攻克	-18656
广播电视台	-18657
医护	-18658
其对	-18659
宰相	-18660
泳池	-18661
控股子公司	-18662
信道	-18663
","	-18664
应用的	-18665
上角	-18666
▁欧洲	-18667
城市建设	-18668
活动时间	-18669
MG	-18670
往前	-18671
沦为	-18672
肠胃	-18673
风扇	-18674
每个人都	-18675
民营企业	-18676
华谊	-18677
了下来	-18678
fter	-18679
遵规守信	-18680
水煮鱼	-18681
乔丹	-18682
播报	-18683
续约	-18684
动物的	-18685
在某些	-18686
世家	-18687
众多的	-18688
卢森堡	-18689
ours	-18690
转投	-18691
的特色	-18692
提供服务	-18693
球星	-18694
趁着	-18695
▁My	-18696
先把	-18697
了半天	-18698
————————	-18699
▁运动	-18700
是这个	-18701
巴士路线	-18702
agement	-18703
仙女	-18704
庄村	-18705
拜占	-18706
深远	-18707
他没有	-18708
试验区	-18709
镇江	-18710
pdf	-18711
富国	-18712
过节	-18713
一口气	-18714
决定的	-18715
又不是	-18716
同济	-18717
腹泻	-18718
普洱	-18719
▁第五	-18720
提拉米	-18721
实在是太	-18722
人口的	-18723
看不起	-18724
地主	-18725
接驳	-18726
欧亚	-18727
洗发	-18728
疙瘩	-18729
迪斯	-18730
飙升	-18731
▁总结	-18732
重要性	-18733
OD	-18734
月到	-18735
包的	-18736
")。	-18737
▁会计	-18738
但我们	-18739
能力强	-18740
文化艺术	-18741
击中	-18742
环流	-18743
▁麦弗逊式独立悬挂	-18744
内容不存在任何虚假记载	-18745
触控	-18746
目前尚未	-18747
股权转让	-18748
background	-18749
开阔	-18750
增长的	-18751
日耳曼	-18752
点名	-18753
近视	-18754
革新	-18755
中区	-18756
共用	-18757
报到	-18758
了一批	-18759
立法院	-18760
大为	-18761
与国际	-18762
亲友	-18763
鞍山	-18764
文化部	-18765
VP	-18766
新星	-18767
牙膏	-18768
结合起来	-18769
▁its	-18770
低音	-18771
次子	-18772
粉色	-18773
公诉	-18774
拨款	-18775
林肯	-18776
金门	-18777
的不行	-18778
竞争力的	-18779
食药	-18780
例行	-18781
暗恋	-18782
舌尖	-18783
▁每个	-18784
他们对	-18785
灭火	-18786
萌发	-18787
和相关	-18788
如果您	-18789
lace	-18790
参赛资格	-18791
庆典	-18792
了一定的	-18793
▁叶	-18794
的几个	-18795
Go	-18796
天真	-18797
演练	-18798
cos	-18799
名下	-18800
电力机车	-18801
视听	-18802
富士康	-18803
冷淡	-18804
在马	-18805
潮州	-18806
烘焙	-18807
成一个	-18808
VI	-18809
其顿	-18810
族自治州	-18811
▁}	-18812
人品	-18813
油箱	-18814
继位	-18815
年年底	-18816
▁农林经济管理	-18817
化身	-18818
奥古	-18819
微量	-18820
枪支	-18821
准确和	-18822
音乐剧	-18823
▁有一次	-18824
不长	-18825
飞行器	-18826
迫害	-18827
▁bet	-18828
促进了	-18829
半数	-18830
支撑位	-18831
lor	-18832
坚果	-18833
主要集中在	-18834
务必	-18835
后世	-18836
在使用	-18837
利息收入	-18838
阿克	-18839
副省长	-18840
内科	-18841
则被	-18842
流经	-18843
更多的人	-18844
对决	-18845
Ah	-18846
土著	-18847
店长	-18848
路德	-18849
自由的	-18850
▁cl	-18851
▁即使	-18852
在路上	-18853
枸杞	-18854
的啊	-18855
下去的	-18856
不论是	-18857
出彩	-18858
富贵	-18859
配色	-18860
阿拉斯	-18861
百余	-18862
但随着	-18863
就诊	-18864
分分钟	-18865
收费站	-18866
参政	-18867
额为	-18868
也有一些	-18869
又说	-18870
吉隆	-18871
衰落	-18872
ca	-18873
On	-18874
八项	-18875
北洋	-18876
在进行	-18877
回答问题	-18878
参加工作	-18879
多宝	-18880
Top	-18881
看到有	-18882
显著的	-18883
库里	-18884
纸上	-18885
▁广西	-18886
erry	-18887
▁鱼	-18888
大关	-18889
宣扬	-18890
未满	-18891
特权	-18892
防眩	-18893
自己对	-18894
局副局长	-18895
uf	-18896
五人	-18897
的主体	-18898
XXX	-18899
很正常	-18900
企业所得税	-18901
一锅	-18902
堡垒	-18903
椭圆	-18904
照相	-18905
较快	-18906
尘埃	-18907
欧盘	-18908
副本	-18909
坠毁	-18910
重播	-18911
对我国	-18912
等服务	-18913
老字号	-18914
信息安全	-18915
情况的说明	-18916
gb	-18917
▁★	-18918
章节	-18919
瓶子	-18920
全社会	-18921
南斯拉夫	-18922
唱片公司	-18923
工农	-18924
▁口腔	-18925
跳楼	-18926
战争的	-18927
时间段	-18928
总有	-18929
月被	-18930
处了解到	-18931
高级中学	-18932
分发	-18933
脚踏	-18934
驾驭	-18935
想必	-18936
LTE	-18937
往事	-18938
法式	-18939
▁两个	-18940
四个人	-18941
线路口	-18942
▁乐	-18943
市盈率	-18944
很好地	-18945
的性格	-18946
盛行	-18947
矿泉水	-18948
重大的	-18949
城乡建设	-18950
害羞	-18951
赤纬	-18952
迟到	-18953
在大学	-18954
移动端	-18955
据点	-18956
洪武	-18957
中长期	-18958
我们学校	-18959
从没	-18960
等价	-18961
又开始	-18962
单边	-18963
庄为	-18964
王牌	-18965
亦为	-18966
奥特	-18967
从小到大	-18968
进行了研究	-18969
会比	-18970
可以得到	-18971
提拔	-18972
反恐	-18973
唯独	-18974
想来	-18975
本轮	-18976
压根	-18977
脚下	-18978
逃脱	-18979
火锅店	-18980
公立医院	-18981
向来	-18982
▁也不	-18983
一如既往	-18984
头皮	-18985
淋漓	-18986
白血	-18987
也会有	-18988
并结合	-18989
东方财富	-18990
▁海洋	-18991
提供商	-18992
有木有	-18993
▁至	-18994
客房	-18995
生猪	-18996
龙岗	-18997
三部曲	-18998
不要再	-18999
的事物	-19000
藏在	-19001
让它	-19002
并止于	-19003
线程	-19004
方式的	-19005
机构和	-19006
应收账款	-19007
倒了	-19008
暗杀	-19009
要吃	-19010
甚至连	-19011
▁Ind	-19012
LV	-19013
张学	-19014
▁选择	-19015
口气	-19016
广岛	-19017
骨架	-19018
是俄罗斯	-19019
研究结果表明	-19020
Pb	-19021
投资组合报告	-19022
本来就是	-19023
糖醋	-19024
的含量	-19025
上身	-19026
发展方向	-19027
心跳	-19028
皇冠	-19029
醉了	-19030
敬业	-19031
葬于	-19032
可控	-19033
盘面	-19034
当我们	-19035
惊人的	-19036
亲手	-19037
香港时间	-19038
Microsoft	-19039
Se	-19040
冷清	-19041
粘合	-19042
骨髓	-19043
基本都	-19044
中长	-19045
这使得	-19046
庙宇	-19047
短的	-19048
中获得	-19049
过生日	-19050
展览会	-19051
挺多的	-19052
▁京	-19053
孔隙	-19054
前所未	-19055
叫一个	-19056
正在进行	-19057
入户	-19058
坚信	-19059
保证了	-19060
cs	-19061
上路	-19062
工程的	-19063
带了	-19064
▁注意	-19065
名古屋	-19066
技术在	-19067
重大事项	-19068
erver	-19069
不时	-19070
平和	-19071
早间	-19072
重现	-19073
会同	-19074
运费	-19075
还有些	-19076
流泪	-19077
内裤	-19078
矿床	-19079
组分	-19080
ico	-19081
ui	-19082
密的	-19083
甜美	-19084
足的	-19085
最长的	-19086
的感情	-19087
▁had	-19088
流行音乐	-19089
刺客	-19090
改任	-19091
电荷	-19092
服务商	-19093
介绍一下	-19094
饭馆	-19095
旅客铁道	-19096
天上	-19097
序号	-19098
两部分	-19099
强国	-19100
禁令	-19101
而其	-19102
SAR	-19103
和同学	-19104
经常被	-19105
格的	-19106
▁家里	-19107
电气化	-19108
应纳税所得	-19109
写过	-19110
攻入	-19111
生下	-19112
继承人	-19113
计算的	-19114
这里有	-19115
▁前几天	-19116
一整	-19117
绿灯	-19118
大屠杀	-19119
经营范围	-19120
体字	-19121
大排	-19122
搬家	-19123
阿尔巴	-19124
代理商	-19125
回答的	-19126
小说的	-19127
▁μ	-19128
不顺	-19129
收紧	-19130
连串	-19131
听众	-19132
经验和	-19133
是否会	-19134
因为没有	-19135
▁半	-19136
影城	-19137
找的	-19138
皮质	-19139
时间表	-19140
恩爱	-19141
发现有	-19142
很浓	-19143
镇的	-19144
保证本公告	-19145
突围	-19146
科学研究	-19147
直男	-19148
实施的	-19149
多单进场	-19150
▁et	-19151
较多的	-19152
城门	-19153
雅虎	-19154
▁下午	-19155
经常在	-19156
车站大楼	-19157
健林	-19158
大咖	-19159
了大量	-19160
修正案	-19161
驾驶证	-19162
的数据显示	-19163
笑着	-19164
红线	-19165
民籍	-19166
老的	-19167
取胜	-19168
放出	-19169
江淮	-19170
构想	-19171
看守	-19172
确切	-19173
赤经	-19174
▁专业	-19175
司司长	-19176
颁发的	-19177
微信公众账号	-19178
南边	-19179
曼哈顿	-19180
news	-19181
治病	-19182
灿烂	-19183
的了解	-19184
巴伐利亚	-19185
毫升	-19186
传染病	-19187
有名的	-19188
集装箱	-19189
盟军	-19190
代表了	-19191
必须是	-19192
城乡居民	-19193
减值	-19194
山谷	-19195
不排除	-19196
乔布斯	-19197
胡椒粉	-19198
但是如果	-19199
vent	-19200
(《	-19201
牛顿	-19202
blog	-19203
非常重要	-19204
敦煌	-19205
不知不觉	-19206
这片	-19207
提拉米苏	-19208
LOF	-19209
末日	-19210
IFI	-19211
为国家	-19212
广场舞	-19213
生产和	-19214
领先的	-19215
xxx	-19216
万余元	-19217
的组合	-19218
mail	-19219
在三	-19220
母舰	-19221
提供一个	-19222
五行	-19223
展区	-19224
▁事实上	-19225
便可	-19226
悬崖	-19227
尼古拉	-19228
舞台剧	-19229
你了	-19230
基本上都是	-19231
一则	-19232
赤道	-19233
顺着	-19234
的经典	-19235
科的其中一种	-19236
交际	-19237
煤气	-19238
直喷	-19239
索恩	-19240
经济体	-19241
九个	-19242
卡西	-19243
是不能	-19244
地面车站	-19245
保税	-19246
纸张	-19247
▁妈妈	-19248
有效性	-19249
大气污染	-19250
正式启动	-19251
▁松	-19252
初三	-19253
比对	-19254
bi	-19255
▁学习	-19256
no	-19257
高速铁路	-19258
一再	-19259
喜悦	-19260
威斯	-19261
采矿	-19262
历史上的	-19263
独一无	-19264
的事儿	-19265
公办	-19266
分隔	-19267
迫切	-19268
劳动合同	-19269
多于	-19270
欧元区	-19271
空单进场	-19272
超级联赛	-19273
上扬	-19274
点了一份	-19275
百家	-19276
消息面	-19277
司法机关	-19278
人手	-19279
四是	-19280
)》,	-19281
全覆盖	-19282
分子的	-19283
干细胞	-19284
苹果公司	-19285
德利	-19286
是好	-19287
标语	-19288
禁忌	-19289
很多人都	-19290
▁other	-19291
冷藏	-19292
ffice	-19293
校内	-19294
抵御	-19295
一直很	-19296
膳食	-19297
这是因为	-19298
亲民	-19299
▁观察	-19300
深深的	-19301
门口的	-19302
中铁	-19303
第三名	-19304
湿润	-19305
Air	-19306
对于我	-19307
的临床	-19308
▁TV	-19309
传导	-19310
等活动	-19311
obile	-19312
增殖	-19313
教养	-19314
安门	-19315
内侧	-19316
▁就在	-19317
Super	-19318
将自己	-19319
已成	-19320
我真	-19321
金钟	-19322
聚糖	-19323
为她	-19324
奠定	-19325
楼宇	-19326
拉特	-19327
熟人	-19328
刚刚好	-19329
两三	-19330
旁的	-19331
目睹	-19332
等其他	-19333
▁长按二维码	-19334
布列	-19335
ABS	-19336
甚至有	-19337
第二批	-19338
GN	-19339
慎重	-19340
新社	-19341
茶树	-19342
这三	-19343
ham	-19344
不放	-19345
产妇	-19346
肾脏	-19347
是说	-19348
毛利	-19349
orp	-19350
这一年	-19351
含税	-19352
战时	-19353
着吃	-19354
纸币	-19355
身价	-19356
主要用于	-19357
agram	-19358
截面	-19359
毛利率	-19360
万欧元	-19361
立委	-19362
路由器	-19363
保有	-19364
空心	-19365
社科院	-19366
在一起的	-19367
帐篷	-19368
购买了	-19369
▁蔡	-19370
这让	-19371
包括但不限于	-19372
由其	-19373
控股有限公司	-19374
连胜	-19375
暂行办法	-19376
大开	-19377
后裔	-19378
赞美	-19379
结果与	-19380
碾压	-19381
拜占庭	-19382
无缝	-19383
股份的	-19384
诱人	-19385
问题和	-19386
总署	-19387
越过	-19388
该组织	-19389
以下几个	-19390
据此	-19391
最差	-19392
老牌	-19393
襄阳	-19394
八一	-19395
首要	-19396
应纳税所得额	-19397
查获	-19398
公信	-19399
日从	-19400
读完	-19401
饮用水	-19402
▁them	-19403
两面	-19404
姥姥	-19405
矢量	-19406
解决的	-19407
一并	-19408
和其	-19409
她会	-19410
莱特	-19411
酸菜鱼	-19412
可观	-19413
密歇	-19414
貔貅	-19415
加里	-19416
基因组	-19417
日更新	-19418
ural	-19419
但是我们	-19420
体系建设	-19421
一幅	-19422
乘用车	-19423
▁地理学	-19424
盲人	-19425
实际的	-19426
科进士	-19427
蝙蝠侠	-19428
新生儿	-19429
的地步	-19430
面积约	-19431
母乳	-19432
潍坊	-19433
一般了	-19434
准确性	-19435
很有可能	-19436
▁inter	-19437
duction	-19438
妥善	-19439
没有那么	-19440
密歇根	-19441
比较适合	-19442
Python	-19443
军训	-19444
拉姆	-19445
起因	-19446
蛋白酶	-19447
交易平台	-19448
PL	-19449
▁老板	-19450
》),	-19451
的朋友们	-19452
财务会计报告	-19453
校正	-19454
讯号	-19455
点了一	-19456
的有效性	-19457
yd	-19458
▁Bar	-19459
▁str	-19460
经济技术	-19461
她家	-19462
溃疡	-19463
电量	-19464
设法	-19465
请各位	-19466
的一个重要	-19467
宣誓	-19468
惊悚	-19469
柴油机	-19470
埃塞	-19471
推特	-19472
将进一步	-19473
一出	-19474
酸钠	-19475
海洋工程	-19476
场内	-19477
农作物	-19478
双边	-19479
Drive	-19480
▁任	-19481
范儿	-19482
彻斯特	-19483
QF	-19484
不只是	-19485
上法兰西	-19486
势必	-19487
办公室主任	-19488
婚纱照	-19489
管理工作	-19490
】,	-19491
▁湖北	-19492
戴着	-19493
散户	-19494
于是在	-19495
的居民	-19496
福克斯	-19497
▁day	-19498
族自治县	-19499
亲情	-19500
可作为	-19501
又将	-19502
是国家	-19503
财经大学	-19504
万众	-19505
开枪	-19506
早日	-19507
的唯一	-19508
战争期间	-19509
智能电视	-19510
价格上涨	-19511
社会资本	-19512
多万元	-19513
▁萨	-19514
俩人	-19515
抽签	-19516
我只能	-19517
不可思议	-19518
凯撒	-19519
谈过	-19520
▁been	-19521
卖淫	-19522
帝王	-19523
稍稍	-19524
new	-19525
胆固醇	-19526
网络安全	-19527
当了	-19528
事件中	-19529
▁优惠	-19530
什么事	-19531
的大量	-19532
不得不说	-19533
停在	-19534
冬瓜	-19535
野蛮	-19536
兑现	-19537
再也	-19538
玩过	-19539
不离	-19540
人少	-19541
口中	-19542
年少	-19543
弹幕	-19544
▁Sc	-19545
排污	-19546
经济带	-19547
世人	-19548
要以	-19549
而导致	-19550
倍的	-19551
常被	-19552
最难	-19553
照样	-19554
上法兰西大区	-19555
婚前	-19556
裂纹	-19557
不推荐	-19558
▁现车充足致电商家	-19559
后半	-19560
字典	-19561
帕劳	-19562
放射性	-19563
偏低	-19564
党和	-19565
尚可	-19566
美盘	-19567
回答了	-19568
涵盖了	-19569
融资租赁	-19570
语中	-19571
艺术的	-19572
这是个	-19573
▁管理人对报告期内	-19574
出击	-19575
绿城	-19576
老头	-19577
连通	-19578
搭载了	-19579
可调	-19580
同桌	-19581
纳尔	-19582
给别人	-19583
读取	-19584
iao	-19585
公用	-19586
证券营业部	-19587
绑定	-19588
而过	-19589
很有意思	-19590
▁天主教	-19591
准确和完整	-19592
▁Chinese	-19593
之久	-19594
营利	-19595
是一场	-19596
在此期间	-19597
地势	-19598
清汤	-19599
的时刻	-19600
师范学院	-19601
MU	-19602
存的	-19603
拥护	-19604
第一条	-19605
就是这么	-19606
同城	-19607
节目的	-19608
党风廉政	-19609
感觉有点	-19610
OPPO	-19611
下架	-19612
轮流	-19613
虚拟现实	-19614
委员会副主任	-19615
另类	-19616
税费	-19617
南美洲	-19618
忙着	-19619
本国	-19620
了一定	-19621
之歌	-19622
东山	-19623
得住	-19624
受害人	-19625
非物质文化遗产	-19626
阿列	-19627
他也是	-19628
▁act	-19629
在一起了	-19630
年有	-19631
涂抹	-19632
清末	-19633
多一点	-19634
播种	-19635
消费品	-19636
该算法	-19637
刚度	-19638
▁楼主	-19639
几年的	-19640
tt	-19641
▁钱	-19642
不平	-19643
如果能	-19644
建筑工程	-19645
亿万	-19646
外壳	-19647
▁水利	-19648
环境不错	-19649
的音	-19650
安抚	-19651
▁微软	-19652
SAO	-19653
织田	-19654
支付的	-19655
新北市	-19656
党组成员	-19657
爱荷华州	-19658
不代表	-19659
皮革	-19660
)、(	-19661
所有人都	-19662
二线	-19663
美国政府	-19664
的她	-19665
纠缠	-19666
翻了	-19667
肖像	-19668
提振	-19669
▁走	-19670
绅士	-19671
芭蕾	-19672
▁gr	-19673
利用率	-19674
)、“	-19675
学生们	-19676
大众点评	-19677
战区	-19678
谋取	-19679
一案	-19680
丹尼	-19681
供暖	-19682
短发	-19683
走低	-19684
链条	-19685
不全	-19686
报业	-19687
猕猴	-19688
公共卫生	-19689
牢固	-19690
部和	-19691
领导者	-19692
HTML	-19693
▁理论经济学	-19694
不过来	-19695
的距离	-19696
▁试	-19697
占总	-19698
信誉	-19699
▁参考	-19700
▁only	-19701
员的	-19702
废物	-19703
插画	-19704
实惠的	-19705
工作时间	-19706
UE	-19707
该书	-19708
热物理	-19709
终究	-19710
永康	-19711
雾灯	-19712
不支持	-19713
区委	-19714
宾夕	-19715
量身	-19716
马恩	-19717
硕士研究生	-19718
呼吸道	-19719
也与	-19720
周到	-19721
机灵	-19722
▁bl	-19723
植物园	-19724
同仁	-19725
下去了	-19726
空袭	-19727
截至目前	-19728
~~~~~	-19729
快感	-19730
脚本	-19731
型基金	-19732
协和	-19733
喀什	-19734
夏日	-19735
拆卸	-19736
严格执行	-19737
参军	-19738
固定收益	-19739
感触	-19740
斑点	-19741
而死	-19742
不计	-19743
并能	-19744
湘潭	-19745
赛场	-19746
他还是	-19747
受影响	-19748
塔尼大区	-19749
三期	-19750
乳酸	-19751
迁入	-19752
逆袭	-19753
挑战赛	-19754
保证本公告内容不存在任何虚假记载	-19755
分手了	-19756
年出版	-19757
中山大学	-19758
志强	-19759
种群	-19760
一月	-19761
反演	-19762
向外	-19763
的人气	-19764
作者的	-19765
我以前	-19766
单行	-19767
转债	-19768
给你们	-19769
说这个	-19770
▁Plus	-19771
开房	-19772
新民	-19773
了一款	-19774
报告称	-19775
区议会选举	-19776
这道	-19777
管理者	-19778
而是在	-19779
捍卫	-19780
来实现	-19781
,,,,	-19782
▁次	-19783
反腐败	-19784
和支持	-19785
委托人	-19786
罗马天主教	-19787
九江	-19788
气场	-19789
城市化	-19790
抽检	-19791
含量的	-19792
喷雾	-19793
时在	-19794
具体情况	-19795
好象	-19796
帝国的	-19797
▁Ass	-19798
FP	-19799
得奖	-19800
▁证券代码	-19801
元朗	-19802
就已	-19803
反对派	-19804
看了看	-19805
ense	-19806
前天	-19807
铁龙	-19808
不正当	-19809
南沙	-19810
新店	-19811
王后	-19812
西边	-19813
▁不同	-19814
哈尔滨市	-19815
流产	-19816
幸福的	-19817
提请	-19818
比利牛	-19819
后来发现	-19820
刚性	-19821
黄浦	-19822
为主题的	-19823
AE	-19824
天蝎	-19825
玩玩	-19826
那你	-19827
个个	-19828
做客	-19829
西蒙	-19830
是一所	-19831
lash	-19832
学说	-19833
行贿	-19834
▁dis	-19835
存续	-19836
起到了	-19837
也希望	-19838
重点是	-19839
Category	-19840
和田	-19841
恭喜	-19842
方正	-19843
迎战	-19844
侧气囊	-19845
参与的	-19846
小时后	-19847
意面	-19848
送出	-19849
也因为	-19850
)+	-19851
对人	-19852
阿尔及	-19853
实施意见	-19854
日本政府	-19855
],	-19856
坦言	-19857
此一	-19858
相比较	-19859
自由基	-19860
折算	-19861
过我	-19862
这么久	-19863
库克	-19864
王菲	-19865
过着	-19866
绿色的	-19867
遮阳帘	-19868
核心价值观	-19869
占基金资产净值	-19870
▁吉	-19871
派人	-19872
甜味	-19873
也知道	-19874
的那些	-19875
社会化	-19876
▁All	-19877
最著名的	-19878
.【	-19879
干活	-19880
涂料	-19881
火花	-19882
爆出	-19883
有一家	-19884
年人口普查	-19885
mL	-19886
▁丁	-19887
和李	-19888
会比较	-19889
防眩目	-19890
基辅	-19891
版型	-19892
收到的	-19893
车次	-19894
铺设	-19895
▁Bl	-19896
ster	-19897
光环	-19898
中南部	-19899
合理性	-19900
等诸多	-19901
▁公共管理	-19902
▁重	-19903
力气	-19904
就走	-19905
悲观	-19906
并把	-19907
专科学校	-19908
sn	-19909
▁千	-19910
同居	-19911
夜市	-19912
分别于	-19913
文昌	-19914
爱丽	-19915
方法对	-19916
生态文明	-19917
有多大	-19918
临时股东大会	-19919
各样	-19920
浸出	-19921
胰岛	-19922
部级	-19923
黑洞	-19924
dota	-19925
双语	-19926
请假	-19927
马赛	-19928
就是想	-19929
有部分	-19930
工商管理	-19931
移除	-19932
比以前	-19933
第一次吃	-19934
[...]
