<unk>	0
<s>	0
</s>	0
<pad>	0
<0x00>	0
<0x01>	0
<0x02>	0
<0x03>	0
<0x04>	0
<0x05>	0
<0x06>	0
<0x07>	0
<0x08>	0
<0x09>	0
<0x0A>	0
<0x0B>	0
<0x0C>	0
<0x0D>	0
<0x0E>	0
<0x0F>	0
<0x10>	0
<0x11>	0
<0x12>	0
<0x13>	0
<0x14>	0
<0x15>	0
<0x16>	0
<0x17>	0
<0x18>	0
<0x19>	0
<0x1A>	0
<0x1B>	0
<0x1C>	0
<0x1D>	0
<0x1E>	0
<0x1F>	0
<0x20>	0
<0x21>	0
<0x22>	0
<0x23>	0
<0x24>	0
<0x25>	0
<0x26>	0
<0x27>	0
<0x28>	0
<0x29>	0
<0x2A>	0
<0x2B>	0
<0x2C>	0
<0x2D>	0
<0x2E>	0
<0x2F>	0
<0x30>	0
<0x31>	0
<0x32>	0
<0x33>	0
<0x34>	0
<0x35>	0
<0x36>	0
<0x37>	0
<0x38>	0
<0x39>	0
<0x3A>	0
<0x3B>	0
<0x3C>	0
<0x3D>	0
<0x3E>	0
<0x3F>	0
<0x40>	0
<0x41>	0
<0x42>	0
<0x43>	0
<0x44>	0
<0x45>	0
<0x46>	0
<0x47>	0
<0x48>	0
<0x49>	0
<0x4A>	0
<0x4B>	0
<0x4C>	0
<0x4D>	0
<0x4E>	0
<0x4F>	0
<0x50>	0
<0x51>	0
<0x52>	0
<0x53>	0
<0x54>	0
<0x55>	0
<0x56>	0
<0x57>	0
<0x58>	0
<0x59>	0
<0x5A>	0
<0x5B>	0
<0x5C>	0
<0x5D>	0
<0x5E>	0
<0x5F>	0
<0x60>	0
<0x61>	0
<0x62>	0
<0x63>	0
<0x64>	0
<0x65>	0
<0x66>	0
<0x67>	0
<0x68>	0
<0x69>	0
<0x6A>	0
<0x6B>	0
<0x6C>	0
<0x6D>	0
<0x6E>	0
<0x6F>	0
<0x70>	0
<0x71>	0
<0x72>	0
<0x73>	0
<0x74>	0
<0x75>	0
<0x76>	0
<0x77>	0
<0x78>	0
<0x79>	0
<0x7A>	0
<0x7B>	0
<0x7C>	0
<0x7D>	0
<0x7E>	0
<0x7F>	0
<0x80>	0
<0x81>	0
<0x82>	0
<0x83>	0
<0x84>	0
<0x85>	0
<0x86>	0
<0x87>	0
<0x88>	0
<0x89>	0
<0x8A>	0
<0x8B>	0
<0x8C>	0
<0x8D>	0
<0x8E>	0
<0x8F>	0
<0x90>	0
<0x91>	0
<0x92>	0
<0x93>	0
<0x94>	0
<0x95>	0
<0x96>	0
<0x97>	0
<0x98>	0
<0x99>	0
<0x9A>	0
<0x9B>	0
<0x9C>	0
<0x9D>	0
<0x9E>	0
<0x9F>	0
<0xA0>	0
<0xA1>	0
<0xA2>	0
<0xA3>	0
<0xA4>	0
<0xA5>	0
<0xA6>	0
<0xA7>	0
<0xA8>	0
<0xA9>	0
<0xAA>	0
<0xAB>	0
<0xAC>	0
<0xAD>	0
<0xAE>	0
<0xAF>	0
<0xB0>	0
<0xB1>	0
<0xB2>	0
<0xB3>	0
<0xB4>	0
<0xB5>	0
<0xB6>	0
<0xB7>	0
<0xB8>	0
<0xB9>	0
<0xBA>	0
<0xBB>	0
<0xBC>	0
<0xBD>	0
<0xBE>	0
<0xBF>	0
<0xC0>	0
<0xC1>	0
<0xC2>	0
<0xC3>	0
<0xC4>	0
<0xC5>	0
<0xC6>	0
<0xC7>	0
<0xC8>	0
<0xC9>	0
<0xCA>	0
<0xCB>	0
<0xCC>	0
<0xCD>	0
<0xCE>	0
<0xCF>	0
<0xD0>	0
<0xD1>	0
<0xD2>	0
<0xD3>	0
<0xD4>	0
<0xD5>	0
<0xD6>	0
<0xD7>	0
<0xD8>	0
<0xD9>	0
<0xDA>	0
<0xDB>	0
<0xDC>	0
<0xDD>	0
<0xDE>	0
<0xDF>	0
<0xE0>	0
<0xE1>	0
<0xE2>	0
<0xE3>	0
<0xE4>	0
<0xE5>	0
<0xE6>	0
<0xE7>	0
<0xE8>	0
<0xE9>	0
<0xEA>	0
<0xEB>	0
<0xEC>	0
<0xED>	0
<0xEE>	0
<0xEF>	0
<0xF0>	0
<0xF1>	0
<0xF2>	0
<0xF3>	0
<0xF4>	0
<0xF5>	0
<0xF6>	0
<0xF7>	0
<0xF8>	0
<0xF9>	0
<0xFA>	0
<0xFB>	0
<0xFC>	0
<0xFD>	0
<0xFE>	0
<0xFF>	0
),	-0
一个	-1
中国	-2
位于	-3
人口	-4
美国	-5
er	-6
)。	-7
an	-8
or	-9
▁(	-10
in	-11
大学	-12
公里	-13
公司	-14
on	-15
()	-16
可以	-17
地区	-18
的一个	-19
日本	-20
使用	-21
平方	-22
国家	-23
政府	-24
成为	-25
的一	-26
包括	-27
香港	-28
第一	-29
面积	-30
开始	-31
人民	-32
部分	-33
台湾	-34
ar	-35
”。	-36
en	-37
”,	-38
(),	-39
其中	-40
以及	-41
进行	-42
la	-43
世界	-44
行政	-45
主要	-46
是一	-47
研究	-48
获得	-49
法国	-50
历史	-51
运动	-52
委员	-53
车站	-54
代表	-55
市镇	-56
政治	-57
第二	-58
没有	-59
平方公里	-60
电影	-61
al	-62
他们	-63
其他	-64
中华	-65
国际	-66
电视	-67
at	-68
由于	-69
工作	-70
▁S	-71
认为	-72
(,	-73
中心	-74
ic	-75
担任	-76
es	-77
因此	-78
学院	-79
之后	-80
属于	-81
系统	-82
is	-83
作为	-84
因为	-85
同时	-86
成立	-87
共和	-88
当时	-89
参加	-90
)、	-91
▁C	-92
中的	-93
建筑	-94
之一	-95
设计	-96
时间	-97
他的	-98
英国	-99
可能	-100
铁路	-101
比赛	-102
自己	-103
发展	-104
共和国	-105
中央	-106
音乐	-107
委员会	-108
称为	-109
游戏	-110
发现	-111
通过	-112
for	-113
学校	-114
不同	-115
el	-116
根据	-117
it	-118
am	-119
文化	-120
作品	-121
期间	-122
▁M	-123
管理	-124
负责	-125
社会	-126
组织	-127
mu	-128
单位	-129
▁A	-130
le	-131
表示	-132
ro	-133
us	-134
世纪	-135
以下	-136
年代	-137
利亚	-138
正式	-139
年的	-140
足球	-141
后来	-142
城市	-143
经济	-144
德国	-145
计划	-146
影响	-147
尼亚	-148
时期	-149
全国	-150
主义	-151
提供	-152
这个	-153
出现	-154
北京	-155
这些	-156
mula	-157
所有	-158
活动	-159
之间	-160
人物	-161
formula	-162
▁P	-163
教育	-164
服务	-165
》,	-166
上海	-167
上的	-168
th	-169
发生	-170
名为	-171
也是	-172
第三	-173
re	-174
成员	-175
最后	-176
工程	-177
生活	-178
ch	-179
北部	-180
罗斯	-181
节目	-182
制作	-183
下辖	-184
分布	-185
发行	-186
生平	-187
民国	-188
进入	-189
ol	-190
▁B	-191
人民共和国	-192
目前	-193
▁T	-194
海拔	-195
il	-196
大的	-197
许多	-198
:“	-199
问题	-200
》、	-201
as	-202
关系	-203
学名	-204
南部	-205
两个	-206
最终	-207
一些	-208
人的	-209
已经	-210
ion	-211
中华人民共和国	-212
联合	-213
保护	-214
举行	-215
密度	-216
列车	-217
当地	-218
同年	-219
加入	-220
参与	-221
战争	-222
技术	-223
斯特	-224
事件	-225
冠军	-226
系列	-227
行星	-228
高度	-229
设有	-230
地方	-231
学家	-232
宣布	-233
行政区	-234
重要	-235
分别	-236
et	-237
▁H	-238
▁L	-239
决定	-240
》、《	-241
。”	-242
交通	-243
为了	-244
毕业	-245
欧洲	-246
专辑	-247
组成	-248
学生	-249
支持	-250
印度	-251
集团	-252
大陆	-253
联赛	-254
人口密度	-255
是在	-256
ac	-257
艺术	-258
会议	-259
最高	-260
开发	-261
完成	-262
方面	-263
到了	-264
二十	-265
需要	-266
ou	-267
球队	-268
主教	-269
”(	-270
建立	-271
出版	-272
地理	-273
俄罗斯	-274
独立	-275
▁G	-276
om	-277
管辖	-278
是一个	-279
拥有	-280
▁R	-281
生于	-282
st	-283
一般	-284
的人	-285
阿尔	-286
选举	-287
并且	-288
通常	-289
例如	-290
前往	-291
》(	-292
但是	-293
》。	-294
位于该	-295
联盟	-296
id	-297
zh	-298
来自	-299
用于	-300
▁D	-301
他在	-302
有限	-303
编码	-304
lt	-305
方式	-306
存在	-307
自由	-308
国民	-309
成功	-310
总统	-311
-{	-312
}-	-313
虽然	-314
属的	-315
情况	-316
结构	-317
:)	-318
ing	-319
小行星	-320
歌曲	-321
运动员	-322
有一	-323
生产	-324
合作	-325
项目	-326
故事	-327
了一	-328
相关	-329
主席	-330
中共	-331
(,),	-332
个人	-333
的大	-334
采用	-335
共有	-336
特别	-337
产生	-338
要求	-339
受到	-340
航空	-341
ed	-342
植物	-343
时代	-344
西亚	-345
动物	-346
科学	-347
平均	-348
形成	-349
语言	-350
十二	-351
具有	-352
公园	-353
海拔高度	-354
▁F	-355
的一个市镇	-356
公路	-357
机场	-358
gt	-359
大利	-360
韩国	-361
年至	-362
另外	-363
意大利	-364
千米	-365
街道	-366
西班	-367
时的	-368
首次	-369
并在	-370
省份	-371
西班牙	-372
附近	-373
区为	-374
导致	-375
中学	-376
民主	-377
父亲	-378
然而	-379
机构	-380
海军	-381
所以	-382
台北	-383
新闻	-384
男子	-385
的是	-386
人员	-387
结束	-388
的时	-389
un	-390
就是	-391
角色	-392
罗马	-393
这种	-394
提出	-395
革命	-396
ur	-397
经过	-398
▁《	-399
女性	-400
数量	-401
演员	-402
控制	-403
对于	-404
编码为	-405
得到	-406
数据	-407
此外	-408
..	-409
ia	-410
一种	-411
ter	-412
女子	-413
现在	-414
主任	-415
”、	-416
书记	-417
结果	-418
and	-419
行政区划	-420
不过	-421
它们	-422
纪念	-423
ig	-424
取得	-425
of	-426
中华民国	-427
是由	-428
网络	-429
年人口	-430
位于该国	-431
自治	-432
接受	-433
政治人物	-434
传统	-435
ad	-436
教授	-437
内的	-438
▁E	-439
▁I	-440
区的	-441
工业	-442
这一	-443
物种	-444
领导	-445
od	-446
名的	-447
除了	-448
超过	-449
造成	-450
居民	-451
接壤	-452
继续	-453
名称	-454
无法	-455
内容	-456
标准	-457
建于	-458
版本	-459
协会	-460
有限公司	-461
帝国	-462
只有	-463
反应	-464
改为	-465
增加	-466
一直	-467
进士	-468
地的	-469
建设	-470
东北	-471
体育	-472
军事	-473
区域	-474
过程	-475
范围	-476
中国大陆	-477
▁N	-478
共产	-479
任何	-480
列表	-481
创作	-482
部队	-483
职业	-484
运动会	-485
小说	-486
克斯	-487
,“	-488
格兰	-489
▁W	-490
um	-491
克兰	-492
来的	-493
赛事	-494
分布于	-495
最佳	-496
生物	-497
第四	-498
之前	-499
发布	-500
自己的	-501
将军	-502
大区	-503
尔省	-504
位置	-505
距离	-506
如果	-507
os	-508
环境	-509
▁d	-510
ow	-511
现代	-512
分为	-513
文物	-514
广东	-515
日在	-516
西部	-517
重新	-518
月台	-519
平方千米	-520
媒体	-521
举办	-522
电子	-523
三年	-524
议会	-525
学习	-526
播出	-527
调查	-528
银行	-529
动画	-530
发表	-531
”、“	-532
推出	-533
亚洲	-534
设立	-535
是位于	-536
有关	-537
▁"	-538
安全	-539
he	-540
包含	-541
也有	-542
非常	-543
一起	-544
负责管辖	-545
家庭	-546
随后	-547
路线	-548
年间	-549
ra	-550
生涯	-551
ent	-552
企业	-553
部长	-554
方法	-555
医院	-556
共同	-557
苏联	-558
处理	-559
资料	-560
形式	-561
家族	-562
十一	-563
执行	-564
决赛	-565
都是	-566
文学	-567
朝鲜	-568
为主	-569
是一种	-570
东南	-571
解放	-572
东部	-573
大会	-574
直接	-575
总面积	-576
行动	-577
议员	-578
演出	-579
还有	-580
浙江	-581
乌克兰	-582
利用	-583
联邦	-584
总人口	-585
im	-586
指挥	-587
新的	-588
热带	-589
民族	-590
自然	-591
奥林	-592
市场	-593
并不	-594
山东	-595
法院	-596
公开	-597
选择	-598
直到	-599
ot	-600
博物	-601
并于	-602
(,)	-603
西北	-604
西南	-605
IN	-606
随着	-607
巴士	-608
军队	-609
于是	-610
计算	-611
拉斯	-612
太阳	-613
广播	-614
为人	-615
团体	-616
功能	-617
后的	-618
下的	-619
op	-620
小时	-621
加拿	-622
另一	-623
ir	-624
单曲	-625
ec	-626
奥林匹	-627
东京	-628
战斗	-629
主持	-630
大量	-631
我们	-632
完全	-633
制造	-634
夏季	-635
美元	-636
em	-637
曾经	-638
▁of	-639
▁c	-640
理论	-641
是法国	-642
商业	-643
高速	-644
身份	-645
去世	-646
道路	-647
太平	-648
空间	-649
拍摄	-650
▁th	-651
城区	-652
合并	-653
共产党	-654
尔斯	-655
专业	-656
性的	-657
号线	-658
年在	-659
反对	-660
类似	-661
奥林匹克	-662
iv	-663
甚至	-664
行为	-665
公共	-666
约翰	-667
境内	-668
")	-669
显示	-670
多数	-671
必须	-672
关于	-673
这是	-674
纪录	-675
的一部分	-676
再次	-677
广州	-678
蒙古	-679
。《	-680
的地	-681
博物馆	-682
下辖的一个	-683
官方	-684
人类	-685
三个	-686
四川	-687
当选	-688
事务	-689
基本	-690
法律	-691
连接	-692
加拿大	-693
方向	-694
早期	-695
▁K	-696
马来	-697
斯坦	-698
基础	-699
模式	-700
轨道	-701
实际	-702
最初	-703
能力	-704
四年	-705
化学	-706
产品	-707
han	-708
博士	-709
▁s	-710
简称	-711
可以指	-712
乐部	-713
年度	-714
奥运	-715
国王	-716
儿子	-717
,《	-718
俱乐部	-719
离开	-720
作用	-721
曾任	-722
表现	-723
青年	-724
之间的	-725
描述	-726
▁O	-727
歌手	-728
第一次	-729
实验	-730
一次	-731
应用	-732
大部分	-733
任务	-734
唯一	-735
不能	-736
邮政	-737
锦标	-738
SE	-739
赛季	-740
▁阿	-741
办公	-742
ag	-743
她的	-744
定的	-745
球员	-746
外交	-747
定义	-748
——	-749
全球	-750
当中	-751
省的一个市镇	-752
能够	-753
面积为	-754
不是	-755
ation	-756
导演	-757
里斯	-758
在此	-759
越南	-760
被称为	-761
▁大	-762
不同的	-763
细胞	-764
各种	-765
毫米	-766
设置	-767
南京	-768
成绩	-769
社区	-770
河南	-771
希望	-772
纽约	-773
设施	-774
开放	-775
等地	-776
相当	-777
电视台	-778
群岛	-779
公布	-780
以来	-781
其后	-782
广场	-783
而且	-784
te	-785
省级	-786
母亲	-787
政策	-788
达到	-789
漫画	-790
演唱	-791
第十	-792
相同	-793
的主	-794
栖息	-795
下辖以下	-796
城镇	-797
英语	-798
明朝	-799
投资	-800
▁▁	-801
天主教	-802
司令	-803
▁J	-804
▁p	-805
分类	-806
男性	-807
最大	-808
乡镇	-809
下的一个	-810
一样	-811
的特	-812
第五	-813
科技	-814
风格	-815
规模	-816
年起	-817
出生	-818
福建	-819
br	-820
英文	-821
严重	-822
等人	-823
出生于	-824
阿拉	-825
电视剧	-826
变化	-827
命名	-828
葡萄	-829
oc	-830
奥林匹克运动会	-831
死亡	-832
攻击	-833
很多	-834
尔德	-835
原因	-836
三十	-837
训练	-838
普查	-839
陆军	-840
地下	-841
统治	-842
排名	-843
元年	-844
教堂	-845
锦标赛	-846
基督	-847
▁V	-848
记载	-849
年后	-850
飞机	-851
▁the	-852
业务	-853
使得	-854
澳门	-855
两人	-856
击败	-857
学位	-858
伦敦	-859
规划	-860
%,	-861
是下辖的一个	-862
中部	-863
▁马	-864
是中国	-865
所属的	-866
贝尔	-867
透过	-868
名字	-869
ap	-870
不久	-871
背景	-872
大战	-873
作家	-874
报告	-875
杂志	-876
将其	-877
中文	-878
出身	-879
物理	-880
美洲	-881
出任	-882
逐渐	-883
五年	-884
建造	-885
先后	-886
仍然	-887
处于	-888
的新	-889
宗教	-890
经营	-891
希腊	-892
每平方公里	-893
地球	-894
机车	-895
分钟	-896
天津	-897
▁m	-898
人士	-899
学者	-900
文物保护	-901
部门	-902
比亚	-903
图书	-904
斯科	-905
清朝	-906
汽车	-907
下辖以下地区	-908
维尔	-909
线的	-910
这样	-911
战役	-912
▁-	-913
连续	-914
全部	-915
ay	-916
江苏	-917
尽管	-918
人口数量	-919
▁,	-920
目标	-921
的市镇	-922
一名	-923
线路	-924
恢复	-925
网站	-926
地铁	-927
og	-928
解放军	-929
年夏季	-930
频道	-931
他们的	-932
阶段	-933
信息	-934
文物保护单位	-935
则是	-936
或者	-937
持续	-938
又称	-939
二年	-940
分子	-941
帮助	-942
流域	-943
大楼	-944
它的	-945
土地	-946
位于法国	-947
ub	-948
行政单位	-949
卢瓦	-950
规定	-951
资格	-952
第二次	-953
云南	-954
设备	-955
自动	-956
表演	-957
%。	-958
者的	-959
指出	-960
夏令	-961
州市	-962
最早	-963
分析	-964
统计	-965
平台	-966
参赛	-967
飞行	-968
ri	-969
出的	-970
级行政单位	-971
星期	-972
▁b	-973
类型	-974
教区	-975
不会	-976
乡镇级行政单位	-977
流行	-978
的主要	-979
li	-980
程序	-981
经常	-982
荷兰	-983
速度	-984
软件	-985
发动	-986
玩家	-987
旧市镇	-988
任命	-989
然后	-990
中国人民	-991
比较	-992
居住	-993
为法国	-994
马来西亚	-995
组合	-996
最大的	-997
大约	-998
以上	-999
小学	-1000
运行	-1001
赢得	-1002
饰演	-1003
制度	-1004
但在	-1005
领域	-1006
是指	-1007
每年	-1008
国立	-1009
警察	-1010
公元	-1011
整个	-1012
日至	-1013
是下辖的一个乡镇级行政单位	-1014
的时区为	-1015
的第	-1016
现时	-1017
运输	-1018
人口密度每平方公里	-1019
加坡	-1020
此后	-1021
湖南	-1022
多的	-1023
爆发	-1024
超级	-1025
日起	-1026
邮政编码为	-1027
、(	-1028
经历	-1029
▁U	-1030
▁t	-1031
立法	-1032
改革	-1033
国的	-1034
取代	-1035
的一种	-1036
).	-1037
车辆	-1038
隶属于	-1039
长的	-1040
影片	-1041
:。	-1042
选手	-1043
▁李	-1044
山脉	-1045
回到	-1046
新加坡	-1047
人口数量为人	-1048
引起	-1049
英格兰	-1050
铁道	-1051
接壤的市镇	-1052
主角	-1053
ce	-1054
兄弟	-1055
多次	-1056
太平洋	-1057
评论	-1058
娱乐	-1059
西省	-1060
条件	-1061
SEE	-1062
巴西	-1063
地区的	-1064
兴建	-1065
巴黎	-1066
研究所	-1067
发射	-1068
卡尔	-1069
塞尔	-1070
ut	-1071
有的	-1072
夏令时	-1073
同样	-1074
综合	-1075
曾在	-1076
记录	-1077
毕业于	-1078
委会	-1079
INSEE	-1080
市镇编码为	-1081
的邮政编码为	-1082
所在	-1083
改编	-1084
左右	-1085
农业	-1086
▁圣	-1087
可达	-1088
协助	-1089
贸易	-1090
唱片	-1091
大型	-1092
选区为	-1093
时的人口数量为人	-1094
剧情	-1095
于时的人口数量为人	-1096
多个	-1097
六年	-1098
宣传	-1099
至今	-1100
高级	-1101
所属的省级	-1102
所属的省级选区为	-1103
该省份	-1104
著名	-1105
女儿	-1106
或旧市镇	-1107
澳大	-1108
获得了	-1109
原本	-1110
建议	-1111
董事	-1112
▁。	-1113
水域	-1114
该省份为法国	-1115
概念	-1116
ul	-1117
交易	-1118
内部	-1119
av	-1120
官员	-1121
自治区	-1122
相对	-1123
过去	-1124
面的	-1125
公分	-1126
普通	-1127
武器	-1128
:"	-1129
函数	-1130
教会	-1131
威尔	-1132
年被	-1133
基金	-1134
体的	-1135
状态	-1136
加上	-1137
伊斯	-1138
秘书	-1139
改变	-1140
波兰	-1141
争议	-1142
初期	-1143
生长	-1144
来源	-1145
皇帝	-1146
继承	-1147
天文	-1148
▁小行星	-1149
广泛	-1150
人们	-1151
评价	-1152
不少	-1153
县人	-1154
遭到	-1155
ov	-1156
资源	-1157
始建于	-1158
儿童	-1159
每个	-1160
ers	-1161
之外	-1162
旅游	-1163
("	-1164
是美国	-1165
少年	-1166
空军	-1167
特征	-1168
威廉	-1169
而在	-1170
amp	-1171
▁王	-1172
高中	-1173
名单	-1174
维亚	-1175
ind	-1176
实现	-1177
澳大利亚	-1178
的前	-1179
南极	-1180
无线	-1181
被认为	-1182
基于	-1183
乔治	-1184
机关	-1185
科的	-1186
主演	-1187
法兰	-1188
基地	-1189
首都	-1190
批评	-1191
出了	-1192
祖父	-1193
妻子	-1194
ard	-1195
ak	-1196
如下	-1197
一年	-1198
还是	-1199
编号	-1200
作战	-1201
属下的一个	-1202
几乎	-1203
都会	-1204
图书馆	-1205
乐团	-1206
届全国	-1207
ab	-1208
德里	-1209
二世	-1210
尔特	-1211
病毒	-1212
记者	-1213
年开始	-1214
人口普查	-1215
大使	-1216
西洋	-1217
及其	-1218
统一	-1219
年美国	-1220
氧化	-1221
从事	-1222
情况下	-1223
他曾	-1224
总部	-1225
选区	-1226
斯基	-1227
减少	-1228
国会	-1229
效力	-1230
结婚	-1231
高等	-1232
奥斯	-1233
治疗	-1234
中国共产党	-1235
合物	-1236
运营	-1237
重要的	-1238
一位	-1239
长期	-1240
条约	-1241
河北	-1242
AT	-1243
皇家	-1244
元素	-1245
ud	-1246
协议	-1247
保持	-1248
遗址	-1249
在美国	-1250
="	-1251
比利	-1252
以后	-1253
eg	-1254
又名	-1255
非洲	-1256
羽毛	-1257
逝世	-1258
有时	-1259
就读	-1260
米的	-1261
移动	-1262
▁张	-1263
上映	-1264
一世	-1265
半岛	-1266
国务	-1267
.《	-1268
人民政府	-1269
常见	-1270
国内	-1271
▁St	-1272
建成	-1273
个月	-1274
拒绝	-1275
第六	-1276
的一座	-1277
展开	-1278
电脑	-1279
用户	-1280
准备	-1281
精神	-1282
操作	-1283
和平	-1284
视为	-1285
限制	-1286
主题	-1287
截至	-1288
用来	-1289
收录	-1290
快速	-1291
小组	-1292
尼斯	-1293
好的	-1294
会在	-1295
股份	-1296
总理	-1297
nd	-1298
拉克	-1299
ST	-1300
ne	-1301
高雄	-1302
占领	-1303
标为	-1304
重建	-1305
解决	-1306
交流	-1307
了一个	-1308
实施	-1309
年轻	-1310
产业	-1311
创立	-1312
海岸	-1313
县的一个	-1314
投票	-1315
是一名	-1316
全长	-1317
文件	-1318
第一个	-1319
ist	-1320
机会	-1321
确定	-1322
台南	-1323
万人	-1324
观众	-1325
ob	-1326
有些	-1327
不明	-1328
返回	-1329
恒星	-1330
市区	-1331
市长	-1332
在这	-1333
用的	-1334
著作	-1335
▁新	-1336
创办	-1337
色的	-1338
ph	-1339
事业	-1340
斯克	-1341
使用的	-1342
一步	-1343
▁formula	-1344
临时	-1345
材料	-1346
重庆	-1347
州的	-1348
地利	-1349
批准	-1350
学会	-1351
隧道	-1352
风暴	-1353
体长	-1354
电台	-1355
葡萄牙	-1356
市的	-1357
路易	-1358
都有	-1359
的影响	-1360
队的	-1361
破坏	-1362
王朝	-1363
佛教	-1364
瑞典	-1365
公主	-1366
七年	-1367
办事	-1368
是日本	-1369
人大	-1370
ens	-1371
本站	-1372
为一	-1373
子的	-1374
邀请	-1375
▁陈	-1376
》()	-1377
英尺	-1378
球场	-1379
成立于	-1380
台中	-1381
安德	-1382
瑞士	-1383
国防	-1384
销售	-1385
ine	-1386
该地	-1387
十分	-1388
证明	-1389
▁f	-1390
镇区	-1391
ie	-1392
大多数	-1393
省和	-1394
。“	-1395
奥地利	-1396
或是	-1397
进攻	-1398
方案	-1399
米尔	-1400
播放	-1401
卫星	-1402
是一位	-1403
大臣	-1404
一带	-1405
SA	-1406
光绪	-1407
;)	-1408
结合	-1409
投入	-1410
河畔	-1411
客运	-1412
世界大战	-1413
地震	-1414
国民党	-1415
八年	-1416
的小	-1417
同意	-1418
议院	-1419
未来	-1420
伯特	-1421
不再	-1422
接近	-1423
斯的	-1424
中山	-1425
不可	-1426
保留	-1427
不断	-1428
进行了	-1429
湖北	-1430
简介	-1431
字母	-1432
价值	-1433
测试	-1434
力量	-1435
数字	-1436
大道	-1437
王国	-1438
校长	-1439
ell	-1440
重点	-1441
鳍鱼	-1442
化的	-1443
安徽	-1444
金属	-1445
的时候	-1446
课程	-1447
因而	-1448
总督	-1449
.()	-1450
卫生	-1451
该地的	-1452
犹太	-1453
质量	-1454
目的	-1455
并没有	-1456
东西	-1457
解释	-1458
有效	-1459
The	-1460
村落	-1461
殖民	-1462
是否	-1463
尚未	-1464
年夏季奥林匹克运动会	-1465
变成	-1466
里的	-1467
维奇	-1468
物质	-1469
酒店	-1470
周边	-1471
▁在	-1472
月至	-1473
财政	-1474
收入	-1475
ang	-1476
访问	-1477
到达	-1478
参考	-1479
与接壤的市镇	-1480
▁w	-1481
中国人民解放军	-1482
直至	-1483
集中	-1484
的首	-1485
南北	-1486
九年	-1487
St	-1488
北起	-1489
战后	-1490
现任	-1491
正在	-1492
维持	-1493
辐鳍鱼	-1494
方的	-1495
",	-1496
气候	-1497
NA	-1498
高速公路	-1499
模型	-1500
调整	-1501
▁in	-1502
辐鳍鱼纲	-1503
早年	-1504
思想	-1505
办公室	-1506
学术	-1507
只是	-1508
森林	-1509
更名为	-1510
成的	-1511
BA	-1512
程度	-1513
平方米	-1514
广告	-1515
未能	-1516
翻译	-1517
知道	-1518
蛋白	-1519
著名的	-1520
九龙	-1521
埃尔	-1522
墨西	-1523
知县	-1524
前的	-1525
教练	-1526
马克	-1527
报道	-1528
大西洋	-1529
河流	-1530
:),	-1531
▁的	-1532
公民	-1533
十年	-1534
人在	-1535
医学	-1536
起来	-1537
取消	-1538
两种	-1539
胜利	-1540
数学	-1541
体系	-1542
停止	-1543
海域	-1544
机械	-1545
加利	-1546
各地	-1547
朋友	-1548
他是	-1549
讨论	-1550
出口	-1551
里亚	-1552
羽毛球	-1553
列为	-1554
针对	-1555
编辑	-1556
为辐鳍鱼纲	-1557
核心	-1558
撤销	-1559
允许	-1560
est	-1561
状况	-1562
入口	-1563
支援	-1564
▁and	-1565
申请	-1566
力的	-1567
介绍	-1568
时任	-1569
ess	-1570
奖项	-1571
进一步	-1572
墨西哥	-1573
姆斯	-1574
尼亚州	-1575
职务	-1576
Ch	-1577
ok	-1578
人工	-1579
说法	-1580
台北市	-1581
高的	-1582
日的	-1583
if	-1584
传说	-1585
彼得	-1586
TV	-1587
尔兰	-1588
医疗	-1589
东北部	-1590
办事处	-1591
应该	-1592
的研究	-1593
阿拉伯	-1594
年由	-1595
西藏	-1596
意为	-1597
工厂	-1598
理事	-1599
是乌克兰	-1600
亚历	-1601
启用	-1602
旅客	-1603
日军	-1604
四个	-1605
一同	-1606
相似	-1607
现象	-1608
委书记	-1609
尔的	-1610
世界杯	-1611
第七	-1612
此时	-1613
ct	-1614
国务院	-1615
外的	-1616
art	-1617
▁Ch	-1618
up	-1619
年和	-1620
师范	-1621
球会	-1622
是以	-1623
资讯	-1624
栖息在	-1625
出道	-1626
入选	-1627
地位	-1628
美术	-1629
属下的一个种	-1630
联合国	-1631
深圳	-1632
提名	-1633
宪法	-1634
特殊	-1635
承认	-1636
体长可达	-1637
观察	-1638
广西	-1639
同一	-1640
当时的	-1641
少数	-1642
历史上	-1643
人数	-1644
再度	-1645
ice	-1646
《》	-1647
来说	-1648
夫卡	-1649
的第一	-1650
明治	-1651
政党	-1652
篮球	-1653
双方	-1654
生命	-1655
文章	-1656
萨斯	-1657
澳洲	-1658
金牌	-1659
▁卡	-1660
布鲁	-1661
过程中	-1662
代码	-1663
all	-1664
信号	-1665
哈尔	-1666
品牌	-1667
表达	-1668
国家队	-1669
发电	-1670
斯塔	-1671
试图	-1672
亦有	-1673
武装	-1674
电力	-1675
只能	-1676
历任	-1677
金融	-1678
▁刘	-1679
区负责管辖	-1680
边界	-1681
明显	-1682
性质	-1683
知名	-1684
可能是	-1685
规则	-1686
安排	-1687
的山	-1688
文字	-1689
发售	-1690
三角	-1691
▁&	-1692
乾隆	-1693
考虑	-1694
移民	-1695
注意	-1696
ip	-1697
下午	-1698
引擎	-1699
尤其	-1700
荣誉	-1701
奥运会	-1702
的意	-1703
看到	-1704
身体	-1705
泰国	-1706
);	-1707
营运	-1708
爱尔兰	-1709
现场	-1710
方程	-1711
动力	-1712
东方	-1713
ect	-1714
的方式	-1715
自行	-1716
萨克	-1717
一度	-1718
是位于美国	-1719
布拉	-1720
命令	-1721
政协	-1722
拉丁	-1723
硕士	-1724
南至	-1725
的原	-1726
西北部	-1727
授予	-1728
东南部	-1729
教学	-1730
伊斯兰	-1731
成为了	-1732
关注	-1733
失去	-1734
作曲	-1735
匈牙	-1736
冲突	-1737
约为	-1738
ich	-1739
乡试	-1740
ue	-1741
万元	-1742
稳定	-1743
匈牙利	-1744
气象	-1745
代表大会	-1746
在中国	-1747
年底	-1748
院长	-1749
▁黄	-1750
如此	-1751
县的	-1752
导弹	-1753
至少	-1754
执导	-1755
广东省	-1756
教师	-1757
是一颗	-1758
喜欢	-1759
民众	-1760
尚书	-1761
内陆	-1762
古代	-1763
表面	-1764
武汉	-1765
得以	-1766
乘客	-1767
西南部	-1768
健康	-1769
某些	-1770
也在	-1771
皇后	-1772
▁/	-1773
德语	-1774
提高	-1775
英雄	-1776
孩子	-1777
从而	-1778
菲律	-1779
冬季	-1780
举人	-1781
等为	-1782
tw	-1783
菲律宾	-1784
舰队	-1785
参加了	-1786
消息	-1787
建制	-1788
团队	-1789
挑战	-1790
夺得	-1791
提升	-1792
收购	-1793
的海	-1794
拉夫	-1795
北京市	-1796
袭击	-1797
是德国	-1798
II	-1799
岁时	-1800
长度	-1801
水平	-1802
仪式	-1803
什么	-1804
水库	-1805
其它	-1806
ev	-1807
欢迎	-1808
也被	-1809
玛丽	-1810
贡献	-1811
知识	-1812
引发	-1813
ill	-1814
比赛中	-1815
的地方	-1816
io	-1817
失败	-1818
新疆	-1819
中间	-1820
队伍	-1821
也会	-1822
内阁	-1823
eb	-1824
作者	-1825
军区	-1826
创造	-1827
土耳	-1828
都市	-1829
其中男性	-1830
地面	-1831
有一个	-1832
ant	-1833
容易	-1834
hans	-1835
红色	-1836
土耳其	-1837
也可以	-1838
所属	-1839
住宅	-1840
不得	-1841
候选	-1842
最后一	-1843
专家	-1844
戏剧	-1845
亚历山	-1846
ows	-1847
ht	-1848
上海市	-1849
安装	-1850
普遍	-1851
心理	-1852
公司的	-1853
ain	-1854
年美国人口普查	-1855
有人	-1856
简单	-1857
小的	-1858
其中一种	-1859
避免	-1860
构成	-1861
基督教	-1862
其余	-1863
并未	-1864
布尔	-1865
士兵	-1866
司马	-1867
而被	-1868
东临	-1869
局长	-1870
▁西	-1871
有着	-1872
事故	-1873
之子	-1874
是乌克兰的	-1875
淡水	-1876
基因	-1877
完整	-1878
本身	-1879
加盟	-1880
十六	-1881
机器	-1882
江西	-1883
医生	-1884
而是	-1885
构造	-1886
特的	-1887
太子	-1888
花园	-1889
专门	-1890
命名为	-1891
科学院	-1892
工具	-1893
中共中央	-1894
购买	-1895
▁年	-1896
来到	-1897
ry	-1898
指定	-1899
哥伦	-1900
先生	-1901
召开	-1902
发现了	-1903
并入	-1904
外国	-1905
一条	-1906
舞台	-1907
ong	-1908
民间	-1909
神经	-1910
不足	-1911
▁巴	-1912
顾问	-1913
经理	-1914
此站	-1915
延伸	-1916
的高	-1917
父母	-1918
十字	-1919
政权	-1920
、、	-1921
哲学	-1922
旗下	-1923
十三	-1924
白色	-1925
事实	-1926
演唱会	-1927
大厦	-1928
入侵	-1929
▁罗	-1930
源于	-1931
生态	-1932
出现在	-1933
部落	-1934
文献	-1935
You	-1936
并非	-1937
毕业后	-1938
结束后	-1939
之下	-1940
欧元	-1941
地点	-1942
岁的	-1943
亿元	-1944
对手	-1945
大奖	-1946
▁克	-1947
竞争	-1948
ik	-1949
的数据	-1950
州府	-1951
估计	-1952
率领	-1953
海峡	-1954
西方	-1955
明朝政治人物	-1956
宇宙	-1957
和其他	-1958
复杂	-1959
混合	-1960
出演	-1961
end	-1962
禁止	-1963
御史	-1964
▁=	-1965
将会	-1966
等等	-1967
接触	-1968
标志	-1969
IC	-1970
海洋	-1971
后期	-1972
民主党	-1973
传播	-1974
工人	-1975
山西	-1976
放弃	-1977
埃及	-1978
以前	-1979
公众	-1980
▁a	-1981
▁小	-1982
丹麦	-1983
形目	-1984
举行的	-1985
联系	-1986
大致	-1987
信仰	-1988
苏格兰	-1989
按照	-1990
多种	-1991
发起	-1992
开设	-1993
型的	-1994
日治	-1995
任职	-1996
出来	-1997
律师	-1998
;}-	-1999
的作品	-2000
ack	-2001
年前	-2002
▁金	-2003
少女	-2004
案件	-2005
加利福	-2006
▁In	-2007
给予	-2008
乐队	-2009
台风	-2010
ian	-2011
保罗	-2012
▁奥	-2013
支流	-2014
大桥	-2015
ive	-2016
摄影	-2017
通车	-2018
色列	-2019
抵达	-2020
▁g	-2021
一座	-2022
她在	-2023
实际上	-2024
吸引	-2025
另一个	-2026
抗日	-2027
报导	-2028
▁伊	-2029
计算机	-2030
原名	-2031
陆地	-2032
夫人	-2033
开通	-2034
的历史	-2035
对象	-2036
装置	-2037
太空	-2038
indows	-2039
兼任	-2040
▁v	-2041
后者	-2042
被认为是	-2043
柏林	-2044
下属	-2045
首府	-2046
CD	-2047
疾病	-2048
▁南	-2049
参谋	-2050
温度	-2051
需求	-2052
▁de	-2053
在该	-2054
之中	-2055
山东省	-2056
一家	-2057
球季	-2058
与其他	-2059
合成	-2060
AR	-2061
万历	-2062
当年	-2063
观测	-2064
改造	-2065
打击	-2066
地图	-2067
是一座	-2068
改制	-2069
ge	-2070
食物	-2071
▁n	-2072
一定	-2073
配合	-2074
才能	-2075
陕西	-2076
退休	-2077
而成	-2078
马尔	-2079
十八	-2080
并将	-2081
▁拉	-2082
副主任	-2083
大赛	-2084
对应	-2085
这次	-2086
在日本	-2087
社会主义	-2088
十五	-2089
年时	-2090
马拉	-2091
展示	-2092
市民	-2093
万美元	-2094
强烈	-2095
火山	-2096
积极	-2097
深度	-2098
印尼	-2099
意义	-2100
ran	-2101
是香港	-2102
动作	-2103
正常	-2104
ity	-2105
指导	-2106
当局	-2107
JR	-2108
发出	-2109
第八	-2110
习性	-2111
艺人	-2112
火箭	-2113
的重要	-2114
如何	-2115
迅速	-2116
亚目	-2117
sp	-2118
代理	-2119
的故事	-2120
芬兰	-2121
覆盖	-2122
受伤	-2123
在其	-2124
效果	-2125
编剧	-2126
以色列	-2127
化合物	-2128
BS	-2129
关闭	-2130
有所	-2131
用作	-2132
驾驶	-2133
源自	-2134
表明	-2135
感到	-2136
权力	-2137
警方	-2138
照片	-2139
制的	-2140
步兵	-2141
AM	-2142
出席	-2143
药物	-2144
亨利	-2145
OS	-2146
军的	-2147
hk	-2148
经验	-2149
实行	-2150
测量	-2151
贵州	-2152
青岛	-2153
创建	-2154
人和	-2155
▁中国	-2156
年龄	-2157
”)	-2158
▁h	-2159
北海	-2160
推动	-2161
会长	-2162
沿海	-2163
为止	-2164
上下	-2165
遗产	-2166
伊朗	-2167
时段	-2168
能量	-2169
因素	-2170
会的	-2171
BC	-2172
组成的	-2173
劳动	-2174
列入	-2175
缺乏	-2176
涉及	-2177
▁安	-2178
副主席	-2179
萨尔	-2180
找到	-2181
秘密	-2182
哥伦比亚	-2183
In	-2184
的国家	-2185
日报	-2186
注册	-2187
配音	-2188
私人	-2189
伊利	-2190
保存	-2191
最多	-2192
用途	-2193
克里	-2194
更多	-2195
威胁	-2196
法兰西	-2197
请求	-2198
食品	-2199
犯罪	-2200
原子	-2201
亲王	-2202
面对	-2203
卢瓦尔省	-2204
绝对	-2205
前身	-2206
多年	-2207
附近的	-2208
并以	-2209
()。	-2210
次年	-2211
游泳	-2212
几个	-2213
西接	-2214
讲述	-2215
城堡	-2216
通道	-2217
中华人民共和国政治人物	-2218
ber	-2219
TC	-2220
领袖	-2221
的三	-2222
华盛	-2223
不满	-2224
位于中国	-2225
莫斯科	-2226
中国大陆的	-2227
说明	-2228
气旋	-2229
那里	-2230
的外	-2231
办理	-2232
年初	-2233
ort	-2234
农村	-2235
出战	-2236
星等为	-2237
权利	-2238
加州	-2239
确认	-2240
式月台	-2241
较为	-2242
▁高	-2243
特色	-2244
司法	-2245
▁zh	-2246
压力	-2247
科的其中一种	-2248
公爵	-2249
学士	-2250
观点	-2251
全面	-2252
之战	-2253
岛屿	-2254
刺史	-2255
华盛顿	-2256
象征	-2257
退役	-2258
化石	-2259
海外	-2260
山区	-2261
名义	-2262
浙江省	-2263
意识	-2264
中有	-2265
装备	-2266
主张	-2267
恩省	-2268
▁是	-2269
晚上	-2270
选为	-2271
鱼类	-2272
剧集	-2273
挪威	-2274
达成	-2275
江苏省	-2276
滨海	-2277
康熙	-2278
会员	-2279
很快	-2280
ly	-2281
合约	-2282
▁布	-2283
运作	-2284
改善	-2285
降低	-2286
ER	-2287
加拉	-2288
形态	-2289
▁和	-2290
部的	-2291
形象	-2292
最近	-2293
ep	-2294
采取	-2295
足球运动员	-2296
系统的	-2297
可能会	-2298
签署	-2299
更加	-2300
颜色	-2301
死后	-2302
特里	-2303
经典	-2304
麦克	-2305
▁中	-2306
转移	-2307
嘉靖	-2308
ey	-2309
华人	-2310
责任	-2311
卡斯	-2312
AC	-2313
弗朗	-2314
上市	-2315
符号	-2316
论文	-2317
对外	-2318
周年	-2319
分配	-2320
....	-2321
甘肃	-2322
装甲	-2323
促进	-2324
相比	-2325
qu	-2326
一级	-2327
他被	-2328
辽宁	-2329
▁HD	-2330
的工作	-2331
黄金	-2332
试验	-2333
ex	-2334
为每	-2335
,),	-2336
坦克	-2337
飓风	-2338
君主	-2339
周围	-2340
座标为	-2341
例子	-2342
比利时	-2343
十四	-2344
电话	-2345
在大	-2346
两次	-2347
家的	-2348
德尔	-2349
站台	-2350
监督	-2351
符合	-2352
组建	-2353
▁st	-2354
票房	-2355
分别为	-2356
张专辑	-2357
镇下辖以下地区	-2358
内陆省份	-2359
在香港	-2360
兴趣	-2361
感染	-2362
展览	-2363
天皇	-2364
南方	-2365
下来	-2366
解散	-2367
一枚	-2368
修改	-2369
典礼	-2370
差异	-2371
小型	-2372
率为	-2373
它是	-2374
扮演	-2375
地质	-2376
杀死	-2377
亚历山大	-2378
而言	-2379
▁三	-2380
黑色	-2381
领土	-2382
驱逐	-2383
增长	-2384
四川省	-2385
......	-2386
平面	-2387
天体	-2388
他曾代表	-2389
书院	-2390
定为	-2391
贵族	-2392
价格	-2393
起义	-2394
首先	-2395
▁l	-2396
资产	-2397
是乌克兰的村落	-2398
了解	-2399
ss	-2400
退出	-2401
带领	-2402
lay	-2403
即使	-2404
声音	-2405
吉林	-2406
月初	-2407
手机	-2408
势力	-2409
爆炸	-2410
比例	-2411
方言	-2412
出版社	-2413
||	-2414
任命为	-2415
种子	-2416
得知	-2417
莱茵	-2418
西兰	-2419
生的	-2420
整体	-2421
昭和	-2422
队长	-2423
克莱	-2424
助理	-2425
改名为	-2426
ON	-2427
房屋	-2428
未知	-2429
现今	-2430
卡拉	-2431
与其	-2432
实验室	-2433
生活习性	-2434
码头	-2435
成本	-2436
错误	-2437
候选人	-2438
▁X	-2439
变得	-2440
近年	-2441
一段	-2442
无人	-2443
三世	-2444
年到	-2445
检查	-2446
回归	-2447
资金	-2448
登陆	-2449
扩大	-2450
缅甸	-2451
ae	-2452
比如	-2453
证据	-2454
]]	-2455
邻近	-2456
不仅	-2457
诺伊	-2458
大学的	-2459
亦是	-2460
上述	-2461
二人	-2462
固定	-2463
预计	-2464
的关系	-2465
大多	-2466
修建	-2467
格拉	-2468
本线	-2469
空气	-2470
投降	-2471
朝廷	-2472
恐怖	-2473
疫情	-2474
他也	-2475
同盟	-2476
概要	-2477
空中	-2478
突然	-2479
以外	-2480
排行	-2481
四十	-2482
基金会	-2483
真正	-2484
瓦尔	-2485
克拉	-2486
ont	-2487
他与	-2488
他于	-2489
围绕	-2490
ew	-2491
的问题	-2492
的两	-2493
[[	-2494
战略	-2495
第二次世界大战	-2496
奥尔	-2497
栽培	-2498
und	-2499
北方	-2500
长江	-2501
阿尔卑	-2502
防御	-2503
的时间	-2504
走向	-2505
喜剧	-2506
德拉	-2507
种族	-2508
家人	-2509
设于	-2510
登场	-2511
生活习性不明	-2512
特拉	-2513
十二年	-2514
骑士	-2515
情报	-2516
市政府	-2517
ory	-2518
IS	-2519
西安	-2520
丰富	-2521
陆续	-2522
称作	-2523
北美	-2524
由此	-2525
平原	-2526
▁东	-2527
阿尔卑斯	-2528
立方	-2529
寻找	-2530
的中	-2531
剧院	-2532
本科	-2533
的发展	-2534
占地	-2535
真实	-2536
聚落	-2537
就会	-2538
主办	-2539
法案	-2540
巡回	-2541
代表团	-2542
通讯	-2543
的设计	-2544
维埃	-2545
直隶	-2546
成都	-2547
参选	-2548
南极洲	-2549
股份有限公司	-2550
免费	-2551
被迫	-2552
监察	-2553
但由于	-2554
时期的	-2555
对此	-2556
以北	-2557
工程师	-2558
引入	-2559
首播	-2560
公交	-2561
离子	-2562
雷斯	-2563
佛罗	-2564
唐朝	-2565
au	-2566
副书记	-2567
尼克	-2568
服役	-2569
式的	-2570
妇女	-2571
马里	-2572
主要的	-2573
建筑物	-2574
语的	-2575
人口为	-2576
弟弟	-2577
市中心	-2578
提到	-2579
声称	-2580
视频	-2581
共有人口	-2582
ah	-2583
汉族	-2584
这里	-2585
转换	-2586
保险	-2587
终于	-2588
的成员	-2589
得名	-2590
our	-2591
丈夫	-2592
是台湾	-2593
在台湾	-2594
厘米	-2595
的情况下	-2596
州刺史	-2597
升任	-2598
五月	-2599
联合会	-2600
ff	-2601
所有的	-2602
考试	-2603
上有	-2604
旅行	-2605
优秀	-2606
损失	-2607
科夫	-2608
量的	-2609
首席	-2610
危机	-2611
的后	-2612
转的	-2613
逮捕	-2614
强调	-2615
亿美元	-2616
▁杨	-2617
周期	-2618
铜牌	-2619
AN	-2620
升为	-2621
传媒	-2622
根廷	-2623
带来	-2624
波斯	-2625
多尔	-2626
相互	-2627
员工	-2628
众多	-2629
利斯	-2630
勋章	-2631
发动机	-2632
在于	-2633
间的	-2634
主要是	-2635
安纳	-2636
克罗	-2637
校区	-2638
为中国	-2639
带有	-2640
管理局	-2641
man	-2642
释放	-2643
人次	-2644
可以在	-2645
依据	-2646
消费	-2647
声明	-2648
是一部	-2649
足球俱乐部	-2650
国际机场	-2651
绿色	-2652
满足	-2653
重大	-2654
演奏	-2655
加强	-2656
人民代表大会	-2657
更新	-2658
均为	-2659
足球队	-2660
国家的	-2661
公安	-2662
认识	-2663
洛杉	-2664
下降	-2665
AP	-2666
河道	-2667
ate	-2668
▁长	-2669
领导人	-2670
他还	-2671
相信	-2672
剧场	-2673
▁科	-2674
洛杉矶	-2675
...	-2676
升级	-2677
龙江	-2678
玻璃	-2679
则为	-2680
河的	-2681
ver	-2682
oh	-2683
靠近	-2684
Al	-2685
复兴	-2686
作出	-2687
隶属	-2688
对抗	-2689
公元前	-2690
随即	-2691
德华	-2692
秘书长	-2693
加利福尼亚州	-2694
军团	-2695
收视	-2696
已被	-2697
原始	-2698
河南省	-2699
石油	-2700
美军	-2701
有机	-2702
克里斯	-2703
这样的	-2704
尝试	-2705
Windows	-2706
桃园	-2707
以南	-2708
原住	-2709
常务	-2710
的同	-2711
杰克	-2712
上午	-2713
在一	-2714
地带	-2715
本地	-2716
沿革	-2717
罗马尼亚	-2718
第九	-2719
特定	-2720
接收	-2721
其实	-2722
骑兵	-2723
董事长	-2724
改制为	-2725
延长	-2726
世界上	-2727
达尔	-2728
供应	-2729
那些	-2730
ast	-2731
内蒙古	-2732
领事	-2733
分离	-2734
派遣	-2735
扩展	-2736
完工	-2737
不到	-2738
嘉义	-2739
循环	-2740
布莱	-2741
也就是	-2742
路口	-2743
塞纳	-2744
分别是	-2745
拆除	-2746
阿根廷	-2747
的女	-2748
山县	-2749
研发	-2750
措施	-2751
电气	-2752
生成	-2753
政府的	-2754
ign	-2755
uc	-2756
陨石	-2757
国道	-2758
中被	-2759
生长于	-2760
银牌	-2761
偶像	-2762
月球	-2763
王子	-2764
发明	-2765
抗议	-2766
ame	-2767
登上	-2768
日期	-2769
辖区	-2770
的电影	-2771
的水	-2772
已有	-2773
定居	-2774
大阪	-2775
ark	-2776
曾于	-2777
蒙特	-2778
运用	-2779
附属	-2780
巴尔	-2781
古典	-2782
给了	-2783
尼尔	-2784
史上	-2785
书籍	-2786
推广	-2787
留下	-2788
ight	-2789
ai	-2790
阳市	-2791
本土	-2792
缩写	-2793
签订	-2794
长子	-2795
"),	-2796
步枪	-2797
家中	-2798
大众	-2799
本作	-2800
废除	-2801
自杀	-2802
直径	-2803
分布在	-2804
one	-2805
接替	-2806
杭州	-2807
交换	-2808
婚姻	-2809
明星	-2810
颁奖	-2811
ric	-2812
证券	-2813
州的一个市镇	-2814
阶级	-2815
现实	-2816
检察	-2817
地名	-2818
级联赛	-2819
难以	-2820
包括以下	-2821
十一年	-2822
成立的	-2823
军官	-2824
本属	-2825
法官	-2826
是俄罗斯	-2827
进步	-2828
新西兰	-2829
洛克	-2830
(;	-2831
常见的	-2832
爱情	-2833
效力于	-2834
博士学位	-2835
设定	-2836
剧本	-2837
回应	-2838
天的	-2839
尼西亚	-2840
农民	-2841
科学家	-2842
相关的	-2843
列出	-2844
录音	-2845
停车	-2846
十九	-2847
克尔	-2848
一致	-2849
ore	-2850
波尔	-2851
上阵	-2852
产生的	-2853
星系	-2854
参数	-2855
主持人	-2856
而该地的	-2857
▁埃	-2858
那么	-2859
控股	-2860
区议会	-2861
职业生涯	-2862
文艺	-2863
装饰	-2864
也不	-2865
困难	-2866
依然	-2867
格为	-2868
收藏	-2869
的部分	-2870
转向	-2871
体育场	-2872
分支	-2873
意见	-2874
省道	-2875
ach	-2876
马斯	-2877
长官	-2878
两国	-2879
射击	-2880
餐厅	-2881
出场	-2882
将领	-2883
的城镇	-2884
派出	-2885
强度	-2886
铁路车站	-2887
享年	-2888
点的	-2889
校园	-2890
内战	-2891
网球	-2892
签约	-2893
轰炸	-2894
的音乐	-2895
此次	-2896
老师	-2897
出入口	-2898
ID	-2899
CO	-2900
更为	-2901
位于该国西部	-2902
淘汰	-2903
干部	-2904
具体	-2905
自身	-2906
ox	-2907
场比赛	-2908
斯顿	-2909
停靠	-2910
潜艇	-2911
ng	-2912
本届	-2913
天然	-2914
sh	-2915
启动	-2916
保守	-2917
神话	-2918
晋级	-2919
国民政府	-2920
电车	-2921
纳粹	-2922
努力	-2923
斯拉夫	-2924
适合	-2925
黑龙江	-2926
▁米	-2927
吉尔	-2928
并与	-2929
▁白	-2930
的第二	-2931
棒球	-2932
的事	-2933
本地区	-2934
日正式	-2935
等级	-2936
lat	-2937
柴油	-2938
维多	-2939
该国	-2940
的儿子	-2941
呈现	-2942
大小	-2943
舞蹈	-2944
党员	-2945
联网	-2946
这部	-2947
巴赫	-2948
以为	-2949
风险	-2950
输入	-2951
的支持	-2952
意志	-2953
武帝	-2954
集合	-2955
处的	-2956
两名	-2957
新竹	-2958
理工	-2959
往往	-2960
特别是	-2961
开展	-2962
维护	-2963
路段	-2964
斯洛	-2965
考古	-2966
南非	-2967
pe	-2968
波罗	-2969
格尔	-2970
关键	-2971
资本	-2972
告诉	-2973
ord	-2974
被视为	-2975
至于	-2976
方便	-2977
西侧	-2978
这首	-2979
中期	-2980
患者	-2981
能源	-2982
部部长	-2983
立即	-2984
撰写	-2985
外部	-2986
的座标为	-2987
障碍	-2988
货物	-2989
单元	-2990
艺术家	-2991
毛泽	-2992
km	-2993
修复	-2994
我的	-2995
詹姆斯	-2996
苏丹	-2997
穆斯	-2998
ith	-2999
亲自	-3000
其中一	-3001
颁发	-3002
大师	-3003
战士	-3004
类的	-3005
食用	-3006
是南极洲	-3007
机制	-3008
▁Y	-3009
日于	-3010
活跃	-3011
ib	-3012
司令部	-3013
当地的	-3014
大规模	-3015
的一条	-3016
并由	-3017
耶稣	-3018
含有	-3019
福建省	-3020
党的	-3021
跟随	-3022
维斯	-3023
月的	-3024
商品	-3025
▁吴	-3026
授权	-3027
常委	-3028
各自	-3029
留在	-3030
出售	-3031
一词	-3032
伊利诺伊	-3033
接任	-3034
这座	-3035
河北省	-3036
▁林	-3037
亚军	-3038
证实	-3039
,)	-3040
“”	-3041
终点	-3042
长沙	-3043
NBA	-3044
商场	-3045
无线电视	-3046
制定	-3047
东侧	-3048
成长	-3049
而不	-3050
两侧	-3051
行的	-3052
海南	-3053
联络	-3054
成了	-3055
人民币	-3056
所谓	-3057
影视	-3058
nt	-3059
金山	-3060
通信	-3061
生存	-3062
打算	-3063
两年	-3064
是意大利	-3065
湖泊	-3066
毛泽东	-3067
审查	-3068
原则	-3069
法的	-3070
研究院	-3071
建立了	-3072
Go	-3073
萨斯州	-3074
安东	-3075
边境	-3076
属的植物	-3077
修正	-3078
性别	-3079
优势	-3080
。(	-3081
首个	-3082
交汇	-3083
而非	-3084
开幕	-3085
形状	-3086
数的	-3087
ust	-3088
拿下	-3089
大选	-3090
蓝色	-3091
今日	-3092
接着	-3093
中式	-3094
侍郎	-3095
▁to	-3096
大联盟	-3097
号的	-3098
性能	-3099
意外	-3100
教宗	-3101
两者	-3102
危险	-3103
区间	-3104
写作	-3105
地亚	-3106
画家	-3107
会试	-3108
器的	-3109
沃尔	-3110
。。	-3111
学科	-3112
引种	-3113
另有	-3114
可见	-3115
突破	-3116
节度	-3117
现在的	-3118
对方	-3119
区内	-3120
当天	-3121
西班牙语	-3122
提供了	-3123
监狱	-3124
年获	-3125
紧急	-3126
分裂	-3127
职位	-3128
撞击	-3129
阻止	-3130
黄色	-3131
圆形	-3132
公斤	-3133
五个	-3134
出发	-3135
港口	-3136
为其	-3137
其中包括	-3138
二战	-3139
各个	-3140
积分	-3141
罗德	-3142
下令	-3143
”;	-3144
兹省	-3145
意思	-3146
▁for	-3147
该公司	-3148
田径	-3149
里达	-3150
非建制	-3151
转的小行星	-3152
指示	-3153
十月	-3154
连载	-3155
海拔高度为	-3156
保障	-3157
年世界	-3158
举办的	-3159
在中	-3160
受欢迎	-3161
大夫	-3162
阳县	-3163
百万	-3164
消失	-3165
各国	-3166
ock	-3167
推荐	-3168
档案	-3169
曾祖	-3170
利益	-3171
是中华人民共和国	-3172
布里	-3173
oy	-3174
令人	-3175
其中一个	-3176
一职	-3177
弗里	-3178
法语	-3179
环形	-3180
▁天	-3181
席位	-3182
货运	-3183
由人工	-3184
▁Pro	-3185
AS	-3186
月在	-3187
PS	-3188
英里	-3189
是为	-3190
采访	-3191
进士出身	-3192
▁普	-3193
诺夫	-3194
互相	-3195
货币	-3196
频率	-3197
连任	-3198
东京都	-3199
模拟	-3200
发行的	-3201
冰川	-3202
per	-3203
十七	-3204
线上	-3205
街道办事处	-3206
湖南省	-3207
该校	-3208
ala	-3209
度的	-3210
ensis	-3211
引种栽培	-3212
同性	-3213
官至	-3214
):	-3215
可前往	-3216
杀害	-3217
为新	-3218
气压	-3219
在他	-3220
收集	-3221
持有	-3222
边缘	-3223
歌词	-3224
培养	-3225
非建制地区	-3226
▁北	-3227
改称	-3228
将在	-3229
由人工引种栽培	-3230
ug	-3231
是因为	-3232
它们的	-3233
收费	-3234
ook	-3235
创始	-3236
月起	-3237
加入了	-3238
从此	-3239
称呼	-3240
层水域	-3241
▁格	-3242
斯卡	-3243
称号	-3244
原住民	-3245
所在地	-3246
学的	-3247
会有	-3248
se	-3249
演艺	-3250
ost	-3251
iz	-3252
(,;)	-3253
文明	-3254
爵士	-3255
▁维	-3256
成就	-3257
推进	-3258
委员会委员	-3259
探险	-3260
会上	-3261
ure	-3262
are	-3263
弗雷	-3264
维多利亚	-3265
明确	-3266
巴基	-3267
平均海拔高度为	-3268
培训	-3269
会议员	-3270
VD	-3271
航天	-3272
销量	-3273
河谷	-3274
最低	-3275
即位	-3276
而该地的平均海拔高度为	-3277
传教	-3278
得到了	-3279
爱德华	-3280
印地	-3281
效应	-3282
级别	-3283
int	-3284
架构	-3285
增强	-3286
本人	-3287
商店	-3288
每天	-3289
日开始	-3290
长约	-3291
北海道	-3292
成分	-3293
条例	-3294
两位	-3295
加尔	-3296
落成	-3297
互联网	-3298
现为	-3299
天文台	-3300
古老	-3301
安徽省	-3302
配置	-3303
son	-3304
下列	-3305
塔尔	-3306
争取	-3307
克的	-3308
直播	-3309
而不是	-3310
质疑	-3311
市政	-3312
长达	-3313
制作的	-3314
大幅	-3315
任教	-3316
规范	-3317
评估	-3318
村庄	-3319
名进士	-3320
德的	-3321
司职	-3322
闻名	-3323
ond	-3324
反映	-3325
ube	-3326
协调	-3327
位于该省	-3328
机的	-3329
种植	-3330
天堂	-3331
高达	-3332
动车	-3333
智能	-3334
MV	-3335
路易斯	-3336
本片	-3337
宁波	-3338
伯爵	-3339
一切	-3340
的山峰	-3341
划归	-3342
委托	-3343
改建	-3344
山西省	-3345
▁)	-3346
处长	-3347
主场	-3348
威尔士	-3349
坚持	-3350
观光	-3351
相同的	-3352
通用	-3353
ium	-3354
殖民地	-3355
东海	-3356
为此	-3357
▁The	-3358
ment	-3359
足协	-3360
和人口	-3361
主事	-3362
理想	-3363
国军	-3364
教育部	-3365
卫视	-3366
人口密度为每	-3367
图像	-3368
目前尚未	-3369
外交部	-3370
任期	-3371
约瑟	-3372
特尔	-3373
原为	-3374
州负责管辖	-3375
泽尔省	-3376
斯托	-3377
理解	-3378
她们	-3379
站的	-3380
生长于海拔	-3381
巴拉	-3382
行业	-3383
大街	-3384
制片	-3385
的形式	-3386
米的地区	-3387
首相	-3388
中国的	-3389
在一起	-3390
吸收	-3391
穆斯林	-3392
公开赛	-3393
俄国	-3394
以上的	-3395
钢琴	-3396
的一些	-3397
尤其是	-3398
每日	-3399
职棒	-3400
三人	-3401
后被	-3402
起源	-3403
冠状	-3404
以东	-3405
二级	-3406
建筑师	-3407
的名字	-3408
五十	-3409
各类	-3410
选秀	-3411
伊利诺伊州	-3412
时候	-3413
的情况	-3414
大使馆	-3415
是西班牙	-3416
院士	-3417
在内的	-3418
标本	-3419
顺利	-3420
很大	-3421
首位	-3422
▁哈	-3423
特兰	-3424
ina	-3425
)、《	-3426
城县	-3427
只要	-3428
水域面积为	-3429
塔尼	-3430
新增	-3431
陆地面积为	-3432
下一	-3433
决议	-3434
支付	-3435
咖啡	-3436
▁海	-3437
已知	-3438
IP	-3439
委副书记	-3440
正面	-3441
辞职	-3442
子女	-3443
登记	-3444
火星	-3445
Sh	-3446
az	-3447
战队	-3448
克林	-3449
之为	-3450
天后	-3451
年美国人口普查的数据	-3452
车队	-3453
LE	-3454
上升	-3455
的总	-3456
人口密度为每平方千米	-3457
食性	-3458
营业	-3459
发生在	-3460
秘鲁	-3461
省接壤	-3462
客户	-3463
布雷	-3464
设计的	-3465
巴基斯坦	-3466
当地共有人口	-3467
第十一	-3468
切尔	-3469
迁至	-3470
而人口密度为每平方千米	-3471
科尔	-3472
面体	-3473
福德	-3474
仅有	-3475
症状	-3476
▁|	-3477
场所	-3478
示威	-3479
竞选	-3480
塞尔维亚	-3481
南美洲	-3482
年任	-3483
有许多	-3484
辐射	-3485
当选为	-3486
的方法	-3487
的话	-3488
阿里	-3489
第十三	-3490
学系	-3491
防止	-3492
岩石	-3493
摩尔	-3494
年与	-3495
ath	-3496
格勒	-3497
赫尔	-3498
检测	-3499
四月	-3500
诗人	-3501
aw	-3502
多人	-3503
变为	-3504
使用者	-3505
米亚	-3506
包围	-3507
ire	-3508
当代	-3509
制作人	-3510
辅助	-3511
并被	-3512
手术	-3513
审判	-3514
布朗	-3515
弗拉	-3516
;&	-3517
的情	-3518
ary	-3519
大革命	-3520
平衡	-3521
面积和人口	-3522
▁Ar	-3523
双打	-3524
暴力	-3525
竞赛	-3526
分校	-3527
ies	-3528
"。	-3529
施工	-3530
演化	-3531
苹果	-3532
皆未知	-3533
该地的面积和人口	-3534
影像	-3535
该地的面积和人口皆未知	-3536
欧盟	-3537
奥斯卡	-3538
卡罗	-3539
脂鲤	-3540
领地	-3541
研究生	-3542
则在	-3543
报纸	-3544
第一位	-3545
目前尚未由人工引种栽培	-3546
提及	-3547
原先	-3548
道光	-3549
但他	-3550
中最	-3551
交界	-3552
.“	-3553
赞助	-3554
都在	-3555
怀疑	-3556
斯蒂	-3557
西里	-3558
陨石坑	-3559
序列	-3560
不敌	-3561
后续	-3562
大卫	-3563
京都	-3564
出现了	-3565
原来	-3566
商人	-3567
手枪	-3568
日后	-3569
对其	-3570
经由	-3571
指控	-3572
他为	-3573
以西	-3574
节度使	-3575
加哥	-3576
链接	-3577
地形	-3578
这项	-3579
污染	-3580
算法	-3581
cn	-3582
扩建	-3583
芝加哥	-3584
▁朱	-3585
美国的	-3586
日由	-3587
部尚书	-3588
东亚	-3589
多项	-3590
com	-3591
的原因	-3592
满洲	-3593
汉语	-3594
罗夫	-3595
评为	-3596
ix	-3597
鼓励	-3598
现存	-3599
法庭	-3600
的角色	-3601
桥梁	-3602
输出	-3603
庆祝	-3604
这颗	-3605
▁▁▁▁	-3606
同时也	-3607
意味	-3608
天下	-3609
三国	-3610
室内	-3611
该庄	-3612
修道	-3613
pt	-3614
冠状病毒	-3615
叙利亚	-3616
佛罗里达	-3617
人权	-3618
场地	-3619
城的	-3620
会被	-3621
竞技	-3622
工作室	-3623
正确	-3624
追溯	-3625
名人	-3626
国家公园	-3627
逢星期	-3628
程式	-3629
神社	-3630
湖北省	-3631
陕西省	-3632
游客	-3633
▁艾	-3634
创新	-3635
ace	-3636
分区	-3637
逻辑	-3638
范围内	-3639
西斯	-3640
而水域面积为	-3641
当中陆地面积为	-3642
冒险	-3643
后于	-3644
谈判	-3645
认证	-3646
车厢	-3647
该片	-3648
。&	-3649
岛上	-3650
GC	-3651
摇滚	-3652
主义者	-3653
ide	-3654
朗德	-3655
使其	-3656
总会	-3657
圣经	-3658
必要	-3659
场景	-3660
单独	-3661
足球联赛	-3662
大字	-3663
抵抗	-3664
综艺	-3665
立陶	-3666
旧址	-3667
无论	-3668
替代	-3669
沿岸	-3670
知府	-3671
升格为	-3672
▁re	-3673
鸟类	-3674
已于	-3675
县的一个非建制地区	-3676
年以	-3677
经济学	-3678
通知	-3679
北侧	-3680
Ar	-3681
彰化	-3682
态度	-3683
内地	-3684
三月	-3685
美国人	-3686
派的	-3687
省的	-3688
定期	-3689
史密	-3690
回国	-3691
改名	-3692
确保	-3693
选出	-3694
江户	-3695
财产	-3696
尼古	-3697
二月	-3698
包括以下物种	-3699
ee	-3700
人大代表	-3701
坐标为	-3702
独立的	-3703
救援	-3704
ert	-3705
女主角	-3706
特区	-3707
公顷	-3708
违反	-3709
女演员	-3710
立陶宛	-3711
做为	-3712
前后	-3713
▁r	-3714
越来	-3715
中将	-3716
以此	-3717
班次	-3718
许可	-3719
PC	-3720
改进	-3721
通往	-3722
ax	-3723
捷克	-3724
消防	-3725
本属包括以下物种	-3726
▁苏	-3727
印刷	-3728
海上	-3729
清代	-3730
座堂	-3731
封为	-3732
▁台湾	-3733
▁萨	-3734
希尔	-3735
气体	-3736
日语	-3737
到的	-3738
费用	-3739
将于	-3740
洛夫	-3741
尼奥	-3742
总站	-3743
执政	-3744
同名	-3745
足够	-3746
ial	-3747
但因	-3748
翌年	-3749
八月	-3750
在北京	-3751
转会	-3752
韦尔	-3753
最高的	-3754
圣母	-3755
暂时	-3756
越来越	-3757
环形山	-3758
新建	-3759
行政院	-3760
书中	-3761
近代	-3762
乌斯	-3763
带着	-3764
方面的	-3765
乡下辖以下地区	-3766
伐利亚	-3767
山市	-3768
▁阿尔	-3769
成立后	-3770
相当于	-3771
对称	-3772
累计	-3773
Un	-3774
假设	-3775
马丁	-3776
重量	-3777
IT	-3778
指数	-3779
视觉	-3780
形容	-3781
工会	-3782
县知县	-3783
公会	-3784
拉尔	-3785
ass	-3786
时针	-3787
成立了	-3788
严格	-3789
▁Al	-3790
上了	-3791
另一方面	-3792
余人	-3793
迷你	-3794
)(	-3795
整合	-3796
他们在	-3797
回忆	-3798
ram	-3799
rom	-3800
约有	-3801
清华	-3802
济南	-3803
使用了	-3804
南侧	-3805
汉字	-3806
感觉	-3807
短暂	-3808
咨询	-3809
歌唱	-3810
年毕业于	-3811
的位置	-3812
▁Com	-3813
安娜	-3814
陷入	-3815
洛特	-3816
云南省	-3817
hant	-3818
地产	-3819
客车	-3820
之处	-3821
成年	-3822
物种的	-3823
港元	-3824
、《	-3825
记忆	-3826
里克	-3827
全线	-3828
病逝	-3829
以便	-3830
太后	-3831
的最	-3832
青少年	-3833
都督	-3834
七月	-3835
流域面积	-3836
专用	-3837
高原	-3838
来自于	-3839
日本的	-3840
开办	-3841
游击	-3842
第一届	-3843
巨大	-3844
低于	-3845
他和	-3846
参与了	-3847
警告	-3848
为台湾	-3849
流经	-3850
层的	-3851
青海	-3852
今天	-3853
先进	-3854
发挥	-3855
》("	-3856
打破	-3857
水深	-3858
早上	-3859
在英国	-3860
获得一枚	-3861
查理	-3862
地中	-3863
▁“	-3864
红军	-3865
区别	-3866
高架	-3867
事务所	-3868
想要	-3869
南海	-3870
途中	-3871
末期	-3872
种类	-3873
热带气旋	-3874
干线	-3875
时报	-3876
的基础	-3877
可在	-3878
新北	-3879
ogle	-3880
加入中国共产党	-3881
众议院	-3882
》《	-3883
该党	-3884
预算	-3885
天气	-3886
普鲁	-3887
并无	-3888
手段	-3889
日常	-3890
ld	-3891
女王	-3892
DVD	-3893
德意志	-3894
代替	-3895
透露	-3896
政协委员	-3897
热带风暴	-3898
”()	-3899
绘画	-3900
人为	-3901
odice	-3902
纳德	-3903
工艺	-3904
任中共	-3905
是一个位于	-3906
米至	-3907
共计	-3908
HK	-3909
魔法	-3910
放在	-3911
enter	-3912
模特	-3913
凌晨	-3914
数位	-3915
产地	-3916
开工	-3917
总裁	-3918
▁Z	-3919
洛斯	-3920
安纳州	-3921
排列	-3922
降雨	-3923
电视动画	-3924
主力	-3925
车人次	-3926
河流域	-3927
东南亚	-3928
觉得	-3929
定理	-3930
▁亚	-3931
▁第	-3932
主管	-3933
德斯	-3934
永久	-3935
卫队	-3936
扩张	-3937
主打	-3938
格林	-3939
充满	-3940
pp	-3941
一场	-3942
角度	-3943
三甲	-3944
自我	-3945
资助	-3946
哥哥	-3947
单一	-3948
都被	-3949
;/	-3950
合唱	-3951
岛的	-3952
ern	-3953
每周	-3954
col	-3955
组织的	-3956
总监	-3957
是个	-3958
格里	-3959
时代的	-3960
参谋长	-3961
mm	-3962
衍生	-3963
过的	-3964
六月	-3965
▁香港	-3966
丽莎	-3967
士顿	-3968
内有	-3969
党组	-3970
探测	-3971
目的是	-3972
不要	-3973
▁多	-3974
日发行	-3975
ux	-3976
流传	-3977
敌人	-3978
职员	-3979
立场	-3980
医学院	-3981
策略	-3982
下了	-3983
商务	-3984
农场	-3985
EC	-3986
巴伐利亚	-3987
传统的	-3988
保证	-3989
起初	-3990
江南	-3991
抗日战争	-3992
交给	-3993
师范大学	-3994
▁周	-3995
哈尔滨	-3996
基隆	-3997
脱离	-3998
UTC	-3999
库尔	-4000
显著	-4001
AL	-4002
位的	-4003
配备	-4004
特点	-4005
相应	-4006
非法	-4007
高雄市	-4008
!”	-4009
奖最佳	-4010
斗争	-4011
HR	-4012
唯一的	-4013
即将	-4014
倾向	-4015
未有	-4016
同时也是	-4017
量子	-4018
导师	-4019
格雷	-4020
相邻	-4021
的道路	-4022
公告	-4023
神秘	-4024
获奖	-4025
详细	-4026
加利亚	-4027
做出	-4028
现有	-4029
九月	-4030
少将	-4031
燃料	-4032
行人	-4033
河口	-4034
发言	-4035
▁斯	-4036
行驶	-4037
为大	-4038
言论	-4039
ica	-4040
▁赵	-4041
赛车	-4042
线性	-4043
航班	-4044
合同	-4045
摧毁	-4046
直升	-4047
▁黑	-4048
高于	-4049
沈阳	-4050
住在	-4051
宣称	-4052
▁Sh	-4053
俗称	-4054
的歌曲	-4055
▁上	-4056
最为	-4057
次于	-4058
自称	-4059
重视	-4060
型号	-4061
总经理	-4062
则有	-4063
战斗机	-4064
灭绝	-4065
一系列	-4066
裁判	-4067
似乎	-4068
ish	-4069
牵引	-4070
菲利	-4071
▁帕	-4072
胜出	-4073
更多的	-4074
理由	-4075
引进	-4076
▁乌	-4077
橄榄	-4078
游戏的	-4079
攻打	-4080
练习	-4081
边的	-4082
UN	-4083
船只	-4084
事实上	-4085
大量的	-4086
好评	-4087
歧义	-4088
战场	-4089
驱动	-4090
面临	-4091
发现的	-4092
火车站	-4093
军人	-4094
入围	-4095
容纳	-4096
方程式	-4097
与此	-4098
很少	-4099
中国国民党	-4100
群众	-4101
犹太人	-4102
在新	-4103
tern	-4104
相连	-4105
发音	-4106
分成	-4107
外观	-4108
妹妹	-4109
站房	-4110
美丽	-4111
来往	-4112
叛乱	-4113
罗伯特	-4114
的女儿	-4115
ros	-4116
IM	-4117
赛的	-4118
年获得	-4119
届全国人民代表大会	-4120
几何	-4121
致力	-4122
立方米	-4123
聚集	-4124
rit	-4125
被捕	-4126
融合	-4127
格式	-4128
泰勒	-4129
遭遇	-4130
崇祯	-4131
该市	-4132
最早的	-4133
翰林	-4134
迪士	-4135
天津市	-4136
以下为	-4137
郎中	-4138
人称	-4139
台中市	-4140
战车	-4141
准决赛	-4142
顺时针	-4143
后在	-4144
其为	-4145
奖金	-4146
天府	-4147
斯省	-4148
编号为	-4149
预测	-4150
AK	-4151
是印度	-4152
法令	-4153
Ph	-4154
两岸	-4155
政治家	-4156
议席	-4157
厦门	-4158
科会试	-4159
除此	-4160
收到	-4161
枢纽	-4162
罗讷	-4163
成熟	-4164
是从	-4165
体育馆	-4166
日下午	-4167
EN	-4168
SS	-4169
最高点	-4170
录制	-4171
相反	-4172
三种	-4173
判决	-4174
修道院	-4175
迪士尼	-4176
途经	-4177
(;)	-4178
yl	-4179
镜头	-4180
龙的	-4181
长安	-4182
ile	-4183
了许多	-4184
私立	-4185
清朝政治人物	-4186
现时由	-4187
格鲁	-4188
合法	-4189
的父亲	-4190
单打	-4191
行走	-4192
常常	-4193
ET	-4194
ick	-4195
死于	-4196
ier	-4197
如今	-4198
伊拉克	-4199
境内共有	-4200
集体	-4201
曾是	-4202
设计师	-4203
自此	-4204
贝格	-4205
阅读	-4206
应用程序	-4207
特性	-4208
副部长	-4209
名举人	-4210
成人	-4211
保加利亚	-4212
用以	-4213
了他的	-4214
正月	-4215
适应	-4216
也可	-4217
上游	-4218
▁沙	-4219
观看	-4220
世纪初	-4221
分解	-4222
的所有	-4223
就读于	-4224
ear	-4225
的不	-4226
夫妇	-4227
智利	-4228
维修	-4229
委任	-4230
age	-4231
曾被	-4232
act	-4233
电动	-4234
县城	-4235
期的	-4236
本书	-4237
信徒	-4238
经纪	-4239
提议	-4240
画面	-4241
理查	-4242
次列车	-4243
pr	-4244
园区	-4245
?”	-4246
依照	-4247
ohn	-4248
日举行	-4249
ii	-4250
四大	-4251
月底	-4252
一百	-4253
著有	-4254
寻求	-4255
刑事	-4256
保安	-4257
德克	-4258
作曲家	-4259
萨拉	-4260
▁k	-4261
也没有	-4262
春秋	-4263
区分	-4264
交易所	-4265
主义的	-4266
流量	-4267
止于	-4268
凭借	-4269
的城市	-4270
iss	-4271
首度	-4272
IV	-4273
古巴	-4274
四世	-4275
约瑟夫	-4276
球运动员	-4277
进行的	-4278
纳斯	-4279
常委会	-4280
▁石	-4281
屠杀	-4282
OR	-4283
家乡	-4284
▁美国	-4285
年他	-4286
铁路局	-4287
加龙	-4288
电视节目	-4289
一部分	-4290
xt	-4291
描绘	-4292
比尔	-4293
的身份	-4294
地上	-4295
指挥官	-4296
两条	-4297
游行	-4298
援助	-4299
认可	-4300
福州	-4301
山脉的一部分	-4302
图案	-4303
中正	-4304
巡洋	-4305
意味着	-4306
上帝	-4307
名词	-4308
米兰	-4309
吉他	-4310
涵盖	-4311
年冬季	-4312
硕士学位	-4313
增加了	-4314
的国际	-4315
纤维	-4316
中书	-4317
慈善	-4318
身上	-4319
日被	-4320
ata	-4321
▁Th	-4322
马恩省	-4323
望远	-4324
实体	-4325
顺序	-4326
巨大的	-4327
视星等为	-4328
台币	-4329
的结果	-4330
伐克	-4331
张单曲	-4332
▁莫	-4333
特勒	-4334
▁本	-4335
兵团	-4336
span	-4337
修订	-4338
族群	-4339
头衔	-4340
维克	-4341
OM	-4342
太守	-4343
坐落	-4344
丁目	-4345
因其	-4346
习惯	-4347
排行榜	-4348
▁胡	-4349
重返	-4350
换乘	-4351
的美国	-4352
是为了	-4353
同学	-4354
本名	-4355
苏州	-4356
富汗	-4357
IST	-4358
无限	-4359
天使	-4360
工商	-4361
大家	-4362
普罗	-4363
赛中	-4364
太原	-4365
一至	-4366
完成了	-4367
南极条约	-4368
火车	-4369
主体	-4370
"(	-4371
德军	-4372
ational	-4373
在一个	-4374
竣工	-4375
等职	-4376
涉嫌	-4377
皮肤	-4378
死刑	-4379
主动	-4380
▁Sch	-4381
伊斯兰教	-4382
的绝对	-4383
征服	-4384
取自	-4385
YouT	-4386
矩阵	-4387
纪录片	-4388
一人	-4389
值得	-4390
捷运	-4391
获胜	-4392
旨在	-4393
消歧义	-4394
-{}-	-4395
An	-4396
▁波	-4397
遇到	-4398
而来	-4399
总局	-4400
周刊	-4401
轨道交通	-4402
Th	-4403
▁瓦	-4404
搜索	-4405
道的	-4406
城墙	-4407
粒子	-4408
mer	-4409
加斯	-4410
迁移	-4411
多夫	-4412
协定	-4413
超越	-4414
居民点	-4415
苏维埃	-4416
提出了	-4417
女孩	-4418
多名	-4419
ys	-4420
粤语	-4421
服务器	-4422
战国	-4423
旋转	-4424
yn	-4425
望远镜	-4426
华州	-4427
自行车	-4428
撤退	-4429
是英国	-4430
南极条约体系	-4431
▁梅	-4432
大气	-4433
译为	-4434
还在	-4435
主权	-4436
一部	-4437
巡抚	-4438
男女	-4439
下属物种	-4440
行政中心	-4441
环球	-4442
粉丝	-4443
纳入	-4444
区和	-4445
ode	-4446
赤纬	-4447
于此	-4448
伙伴	-4449
广州市	-4450
分之一	-4451
乡村	-4452
传奇	-4453
重复	-4454
密切	-4455
身为	-4456
菲尔德	-4457
普拉	-4458
▁Q	-4459
形的	-4460
移居	-4461
南极条约体系管理	-4462
化为	-4463
色彩	-4464
此事	-4465
曾为	-4466
孟加拉	-4467
团长	-4468
心脏	-4469
法兰克	-4470
ung	-4471
政治部	-4472
纪念碑	-4473
赤经	-4474
参议院	-4475
诺曼	-4476
年中	-4477
左翼	-4478
地中海	-4479
内亚	-4480
成果	-4481
开始在	-4482
政务	-4483
巡洋舰	-4484
起点	-4485
公里的	-4486
年欧洲	-4487
年香港	-4488
服装	-4489
长大	-4490
简历	-4491
亚科	-4492
埔寨	-4493
就在	-4494
SM	-4495
更换	-4496
耶夫	-4497
的反	-4498
繁殖	-4499
占据	-4500
始于	-4501
第一次世界大战	-4502
标记	-4503
琉球	-4504
小姐	-4505
二次	-4506
ork	-4507
柬埔寨	-4508
科进士	-4509
房间	-4510
识别	-4511
曲目	-4512
队员	-4513
财务	-4514
互动	-4515
原创	-4516
题材	-4517
凤凰	-4518
编组	-4519
的日本	-4520
排名第	-4521
探索	-4522
大公	-4523
遭受	-4524
yle	-4525
狮子	-4526
论坛	-4527
十二月	-4528
研究员	-4529
交流道	-4530
观音	-4531
战术	-4532
大正	-4533
大连	-4534
航空公司	-4535
新界	-4536
设在	-4537
CP	-4538
任内	-4539
停车场	-4540
台南市	-4541
民进	-4542
cl	-4543
年期间	-4544
的内容	-4545
▁郑	-4546
阿富汗	-4547
现时由南极条约体系管理	-4548
为基础	-4549
购物	-4550
ool	-4551
的特有	-4552
美尼亚	-4553
的分	-4554
codice	-4555
查尔斯	-4556
的概念	-4557
加勒	-4558
借由	-4559
AD	-4560
屯门	-4561
开启	-4562
期刊	-4563
外围	-4564
效率	-4565
球比赛	-4566
这也是	-4567
的生活	-4568
Cl	-4569
北平	-4570
编写	-4571
附加	-4572
口径	-4573
社交	-4574
的地区	-4575
称之为	-4576
较低	-4577
》(),	-4578
川县	-4579
补充	-4580
依赖	-4581
录影	-4582
顺时针与	-4583
同步	-4584
十三年	-4585
这场	-4586
留学	-4587
世纪的	-4588
负责人	-4589
▁Un	-4590
首任	-4591
史密斯	-4592
对阵	-4593
子公司	-4594
乐器	-4595
沙田	-4596
十大	-4597
因应	-4598
费尔	-4599
国家足球队	-4600
它在	-4601
布政	-4602
交叉	-4603
支线	-4604
前进	-4605
戈尔	-4606
兰州	-4607
各级	-4608
暂停	-4609
数为	-4610
呼吁	-4611
年成立	-4612
电池	-4613
乔治亚	-4614
的河流	-4615
航线	-4616
的名称	-4617
理念	-4618
国旗	-4619
遗传	-4620
东日本	-4621
下载	-4622
吾尔	-4623
标题	-4624
屏东	-4625
团结	-4626
前锋	-4627
突出	-4628
读书	-4629
诉讼	-4630
向北	-4631
展现	-4632
爱的	-4633
仍在	-4634
Google	-4635
蛋白质	-4636
镇压	-4637
建国	-4638
位于该国北部	-4639
从未	-4640
印地安纳州	-4641
道德	-4642
品种	-4643
医师	-4644
向量	-4645
合并为	-4646
垂直	-4647
德罗	-4648
指令	-4649
具备	-4650
▁月	-4651
仍有	-4652
等的	-4653
或称	-4654
出现的	-4655
贝克	-4656
想法	-4657
昆明	-4658
山的	-4659
第十二	-4660
纳省	-4661
的行为	-4662
主教座堂	-4663
好友	-4664
中饰演	-4665
名誉	-4666
是不	-4667
部署	-4668
加工	-4669
嘉庆	-4670
处理器	-4671
放送	-4672
校舍	-4673
SAO	-4674
原理	-4675
让他	-4676
引用	-4677
Mar	-4678
祭祀	-4679
也称	-4680
大同	-4681
的上	-4682
专科	-4683
代码为	-4684
位于银	-4685
愿意	-4686
县长	-4687
”,“	-4688
iel	-4689
清真	-4690
IG	-4691
三大	-4692
美国海军	-4693
▁谢	-4694
也纳	-4695
ma	-4696
.(	-4697
的长	-4698
鱼雷	-4699
old	-4700
几内亚	-4701
传输	-4702
号为	-4703
当日	-4704
体操	-4705
福利	-4706
姓氏	-4707
延续	-4708
直升机	-4709
史蒂	-4710
月任	-4711
面向	-4712
虚拟	-4713
添加	-4714
后卫	-4715
演讲	-4716
清楚	-4717
接管	-4718
民政	-4719
之后的	-4720
地域	-4721
夏威	-4722
电路	-4723
警报	-4724
族自治	-4725
物品	-4726
护照	-4727
平成	-4728
oph	-4729
百姓	-4730
初年	-4731
江西省	-4732
河道全长	-4733
澎湖	-4734
叙述	-4735
尔顿	-4736
布斯	-4737
力学	-4738
管制	-4739
克斯坦	-4740
元帅	-4741
穿过	-4742
恐龙	-4743
▁华	-4744
担心	-4745
形成的	-4746
志愿	-4747
产物	-4748
北魏	-4749
▁红	-4750
▁博	-4751
仅次于	-4752
第一百	-4753
相继	-4754
早在	-4755
考察	-4756
赢得了	-4757
评审	-4758
车站构造	-4759
向南	-4760
东区	-4761
里奥	-4762
银纬	-4763
")。	-4764
加速	-4765
运河	-4766
等于	-4767
人大常委会	-4768
不详	-4769
电影节	-4770
▁徐	-4771
后来的	-4772
年于	-4773
夏威夷	-4774
股东	-4775
体制	-4776
英寸	-4777
年春	-4778
强制	-4779
较大	-4780
▁al	-4781
注入	-4782
抑制	-4783
雕塑	-4784
的意思	-4785
炸弹	-4786
坐标为赤经	-4787
位于银经	-4788
有两个	-4789
书写	-4790
人民法院	-4791
会社	-4792
▁德	-4793
ann	-4794
类似的	-4795
清水	-4796
级的	-4797
MS	-4798
了他	-4799
微软	-4800
托马斯	-4801
判处	-4802
大理	-4803
交响	-4804
副使	-4805
按察	-4806
所需	-4807
筹备	-4808
维吾尔	-4809
重组	-4810
全世界	-4811
一天	-4812
网上	-4813
这颗小行星	-4814
版的	-4815
转乘	-4816
政变	-4817
ime	-4818
研究中心	-4819
DNA	-4820
加以	-4821
金曲	-4822
巴马	-4823
本剧	-4824
送到	-4825
预备	-4826
地处	-4827
之名	-4828
颁奖典礼	-4829
ous	-4830
租界	-4831
剧团	-4832
是一家	-4833
宜兰	-4834
Sp	-4835
多伦	-4836
机器人	-4837
FC	-4838
彻底	-4839
全体	-4840
国有	-4841
景点	-4842
年以来	-4843
早期的	-4844
居住在	-4845
总教区	-4846
办法	-4847
转为	-4848
日治时期	-4849
古迹	-4850
太阳公	-4851
改编自	-4852
猪笼	-4853
的成绩	-4854
据说	-4855
滑雪	-4856
出土	-4857
售票	-4858
开业	-4859
BD	-4860
▁卢	-4861
日上午	-4862
▁龙	-4863
耶尔	-4864
登进士	-4865
所辖	-4866
掌握	-4867
第三次	-4868
)”	-4869
大奖赛	-4870
沿线	-4871
逐步	-4872
祖先	-4873
术语	-4874
生活在	-4875
印度尼西亚	-4876
MP	-4877
姐姐	-4878
富士	-4879
定位	-4880
入境	-4881
猪笼草	-4882
编制	-4883
像是	-4884
物体	-4885
此地	-4886
安县	-4887
局局长	-4888
国防部	-4889
更是	-4890
首尔	-4891
ES	-4892
多样	-4893
▁贝	-4894
局的	-4895
英军	-4896
立法委员	-4897
联军	-4898
宿舍	-4899
出版的	-4900
温带	-4901
立法会	-4902
荣获	-4903
年成为	-4904
叫做	-4905
容量	-4906
出来的	-4907
南昌	-4908
数十	-4909
刺激	-4910
辽宁省	-4911
回合	-4912
雷达	-4913
届全国政协委员	-4914
截止	-4915
离婚	-4916
台湾省	-4917
新人	-4918
迪亚	-4919
温泉	-4920
见于	-4921
运算	-4922
该剧	-4923
ood	-4924
发生了	-4925
主流	-4926
每次	-4927
罕默	-4928
拉多	-4929
的政治	-4930
曾担任	-4931
公社	-4932
矛盾	-4933
连结	-4934
金刚	-4935
山地	-4936
伤害	-4937
下半	-4938
星的	-4939
ED	-4940
布兰	-4941
携带	-4942
颁布	-4943
观赏	-4944
变种	-4945
出自	-4946
考入	-4947
继任	-4948
参见	-4949
拉德	-4950
之际	-4951
转任	-4952
投手	-4953
增设	-4954
下方	-4955
生产的	-4956
为由	-4957
主题曲	-4958
月开始	-4959
入球	-4960
的学生	-4961
青春	-4962
围绕太阳公	-4963
的主题	-4964
则由	-4965
明代	-4966
电信	-4967
时间为	-4968
细菌	-4969
情节	-4970
临床	-4971
议题	-4972
Play	-4973
城际	-4974
亚美尼亚	-4975
选举中	-4976
突厥	-4977
国语	-4978
伍德	-4979
的中国	-4980
褐色	-4981
低气压	-4982
根本	-4983
的绝对星等为	-4984
是一颗围绕太阳公	-4985
维也纳	-4986
创始人	-4987
这首歌	-4988
美术馆	-4989
这颗小行星的绝对星等为	-4990
是一颗围绕太阳公转的小行星	-4991
洛阳	-4992
如同	-4993
得分	-4994
车道	-4995
省道台	-4996
风景	-4997
遗迹	-4998
阿基	-4999
终止	-5000
发生的	-5001
萨克森	-5002
劳工	-5003
社群	-5004
水量	-5005
战争中	-5006
认同	-5007
甲基	-5008
饮食	-5009
ction	-5010
最多的	-5011
讨伐	-5012
战胜	-5013
有线	-5014
争夺	-5015
旗下的	-5016
幕府	-5017
昆虫	-5018
任天堂	-5019
共产主义	-5020
尸体	-5021
境内的	-5022
其他的	-5023
攻占	-5024
巴斯	-5025
十一月	-5026
承诺	-5027
企图	-5028
圣殿	-5029
land	-5030
担当	-5031
同性恋	-5032
可以通过	-5033
尺寸	-5034
公寓	-5035
她曾	-5036
途径	-5037
此天体	-5038
不变	-5039
读者	-5040
托尔	-5041
产生了	-5042
也因此	-5043
并有	-5044
“"	-5045
军委	-5046
慕尼	-5047
yst	-5048
行政区域	-5049
公务	-5050
队友	-5051
元朝	-5052
发掘	-5053
毗邻	-5054
该站	-5055
造成的	-5056
被任命为	-5057
▁Sp	-5058
抗战	-5059
珊瑚	-5060
就有	-5061
港铁	-5062
的世界	-5063
正义	-5064
承担	-5065
流动	-5066
晶体	-5067
And	-5068
向东	-5069
年担任	-5070
品质	-5071
(;),	-5072
呼吸	-5073
在那里	-5074
三次	-5075
性和	-5076
监制	-5077
友好	-5078
在法国	-5079
除此之外	-5080
机枪	-5081
穆罕默	-5082
开发的	-5083
民进党	-5084
主导	-5085
这时	-5086
原有	-5087
福尔	-5088
即可	-5089
对话	-5090
诞生	-5091
弗兰	-5092
供奉	-5093
上方	-5094
守护	-5095
普鲁士	-5096
印第	-5097
印象	-5098
IA	-5099
人生	-5100
受害	-5101
事后	-5102
台东	-5103
随机	-5104
族人	-5105
压缩	-5106
省长	-5107
奥克	-5108
牧师	-5109
驱逐舰	-5110
采用了	-5111
鲁斯	-5112
新城	-5113
车站结构	-5114
的说法	-5115
群体	-5116
参演	-5117
重庆市	-5118
县治	-5119
提出的	-5120
公共交通	-5121
调任	-5122
公式	-5123
彼此	-5124
慕尼黑	-5125
波士顿	-5126
公约	-5127
ove	-5128
YouTube	-5129
中心的	-5130
实践	-5131
旧金山	-5132
子弹	-5133
深入	-5134
就任	-5135
物理学	-5136
格拉斯	-5137
外部链接	-5138
ection	-5139
书法	-5140
变换	-5141
平安	-5142
物的	-5143
天文学家	-5144
头部	-5145
有两	-5146
王位	-5147
文化大革命	-5148
穿越	-5149
通行	-5150
十四年	-5151
及其他	-5152
水利	-5153
北京大学	-5154
US	-5155
洪水	-5156
参观	-5157
个人生活	-5158
革命军	-5159
姊妹	-5160
oth	-5161
六个	-5162
法尔	-5163
罗马帝国	-5164
数码	-5165
大将军	-5166
round	-5167
奖牌	-5168
在他的	-5169
利的	-5170
取得了	-5171
在上海	-5172
业余	-5173
台湾的	-5174
ISTAT	-5175
▁古	-5176
▁日	-5177
股权	-5178
化学式	-5179
县政府	-5180
高山	-5181
CH	-5182
省负责管辖	-5183
制成	-5184
后又	-5185
村民	-5186
多为	-5187
这两个	-5188
操作系统	-5189
佛罗里达州	-5190
理学	-5191
实力	-5192
底层水域	-5193
为期	-5194
元音	-5195
弹药	-5196
数百	-5197
ps	-5198
精灵	-5199
工作的	-5200
下的一个属	-5201
平民	-5202
选中	-5203
他认为	-5204
推测	-5205
丽莎白	-5206
尼泊	-5207
杰出	-5208
描写	-5209
ite	-5210
连续剧	-5211
宣告	-5212
光学	-5213
季后	-5214
东汉	-5215
真人	-5216
粮食	-5217
钢铁	-5218
莱斯	-5219
司令员	-5220
重点文物保护单位	-5221
选拔	-5222
不得不	-5223
在中国大陆	-5224
储存	-5225
任意	-5226
福音	-5227
慕容	-5228
诊断	-5229
的地位	-5230
第二个	-5231
代的	-5232
梅尔	-5233
arl	-5234
不知	-5235
之上	-5236
相较	-5237
包含了	-5238
东路	-5239
本来	-5240
场的	-5241
动车组	-5242
由来	-5243
候车	-5244
穿着	-5245
花莲	-5246
强的	-5247
疫苗	-5248
公署	-5249
动工	-5250
屋顶	-5251
公立	-5252
推翻	-5253
内存	-5254
顺治	-5255
协商	-5256
于同年	-5257
推出的	-5258
委常委	-5259
克罗地亚	-5260
”),	-5261
其子	-5262
看见	-5263
感情	-5264
建有	-5265
GB	-5266
弟子	-5267
甘肃省	-5268
足联	-5269
理事会	-5270
搭载	-5271
类似于	-5272
光谱	-5273
堪萨斯州	-5274
车手	-5275
一号	-5276
人才	-5277
uk	-5278
是大	-5279
也曾	-5280
后因	-5281
准确	-5282
异常	-5283
高校	-5284
亮相	-5285
飞行员	-5286
年亚洲	-5287
条目	-5288
尼古拉	-5289
作业	-5290
整理	-5291
十五年	-5292
机动	-5293
的圣	-5294
就可以	-5295
此前	-5296
爱荷	-5297
清真寺	-5298
全台	-5299
内政	-5300
英镑	-5301
ton	-5302
帕尔	-5303
直辖	-5304
签证	-5305
确诊	-5306
该物种的	-5307
ron	-5308
存在的	-5309
与此同时	-5310
领导的	-5311
族自治区	-5312
Pro	-5313
神父	-5314
男孩	-5315
之地	-5316
在北	-5317
谋杀	-5318
总部位于	-5319
做法	-5320
爱国	-5321
上诉	-5322
景观	-5323
饭店	-5324
存储	-5325
传递	-5326
溶液	-5327
科幻	-5328
适用于	-5329
ence	-5330
该地区	-5331
进口	-5332
部电影	-5333
下游	-5334
主教练	-5335
年代初	-5336
乐园	-5337
伦斯	-5338
年加入	-5339
马克思	-5340
ames	-5341
ical	-5342
黑暗	-5343
的代表	-5344
尔夫	-5345
Cat	-5346
因此在	-5347
提前	-5348
列颠	-5349
追求	-5350
乡道	-5351
技巧	-5352
激烈	-5353
环保	-5354
一支	-5355
年世界杯	-5356
冲击	-5357
功率	-5358
平定	-5359
地址	-5360
湖广	-5361
并且在	-5362
巴勒	-5363
广播电台	-5364
进球	-5365
同日	-5366
莫尔	-5367
但不	-5368
新北市	-5369
词汇	-5370
的比赛	-5371
划分	-5372
大队	-5373
▁皮	-5374
co	-5375
日平均	-5376
选民	-5377
Lin	-5378
堂区	-5379
伯格	-5380
开播	-5381
字符	-5382
致力于	-5383
降雨量	-5384
葡萄牙语	-5385
均有	-5386
IR	-5387
的日	-5388
()、	-5389
认定	-5390
系列的	-5391
尼日	-5392
打开	-5393
领先	-5394
造型	-5395
山口	-5396
批判	-5397
照顾	-5398
往返	-5399
个体	-5400
螺旋	-5401
科罗	-5402
率军	-5403
罗马天主教	-5404
认为是	-5405
性格	-5406
赛艇	-5407
的大型	-5408
新台币	-5409
伊尔	-5410
影展	-5411
户部	-5412
ara	-5413
UC	-5414
常规	-5415
线和	-5416
在位	-5417
三级	-5418
相机	-5419
之女	-5420
的能力	-5421
微博	-5422
出生在	-5423
▁双	-5424
员外	-5425
制品	-5426
前来	-5427
卢瓦尔	-5428
类型的	-5429
他人	-5430
经费	-5431
那州	-5432
男主角	-5433
冠状病毒病	-5434
幸福	-5435
太郎	-5436
BM	-5437
HD	-5438
及后	-5439
野生	-5440
长春	-5441
较高	-5442
得主	-5443
纳尔	-5444
晚间	-5445
穆罕默德	-5446
的一个属	-5447
▁!	-5448
上面	-5449
手中	-5450
领事馆	-5451
哈拉	-5452
的开	-5453
判断	-5454
三位	-5455
他对	-5456
神圣	-5457
CA	-5458
永远	-5459
本鱼	-5460
研制	-5461
--	-5462
夏天	-5463
清华大学	-5464
概述	-5465
模特儿	-5466
向西	-5467
专区	-5468
在西	-5469
虚构	-5470
裔美国人	-5471
沙漠	-5472
包括了	-5473
类别	-5474
住房	-5475
体积	-5476
超级联赛	-5477
即为	-5478
夫勒	-5479
流浪	-5480
命名的	-5481
是对	-5482
五世	-5483
格斯	-5484
体验	-5485
诺斯	-5486
威尼斯	-5487
集团军	-5488
专员	-5489
阵容	-5490
国际赛	-5491
一项	-5492
保卫	-5493
打败	-5494
回答	-5495
成化	-5496
背鳍	-5497
oft	-5498
院校	-5499
模式产地	-5500
端的	-5501
指的是	-5502
播映	-5503
原型	-5504
在内	-5505
州长	-5506
写道	-5507
都不	-5508
杀人	-5509
土壤	-5510
提供的	-5511
布罗	-5512
以其	-5513
当作	-5514
免疫	-5515
可是	-5516
Sc	-5517
事情	-5518
的机会	-5519
直属	-5520
界面	-5521
▁塞	-5522
九州	-5523
通常是	-5524
较少	-5525
严重的	-5526
以外的	-5527
路站	-5528
个国家	-5529
体重	-5530
编入	-5531
大埔	-5532
辞去	-5533
ude	-5534
失踪	-5535
克雷	-5536
奴隶	-5537
不列颠	-5538
眼睛	-5539
南斯拉夫	-5540
以往	-5541
歇尔	-5542
集的	-5543
雍正	-5544
电力机车	-5545
气温	-5546
晚期	-5547
的轨道	-5548
十六年	-5549
身亡	-5550
行车	-5551
▁孙	-5552
多伦多	-5553
现已	-5554
盆地	-5555
次数	-5556
黑龙江省	-5557
的四	-5558
边形	-5559
集团有限公司	-5560
EM	-5561
大帝	-5562
尼泊尔	-5563
形成了	-5564
被杀	-5565
年才	-5566
▁特	-5567
▁饰	-5568
诗歌	-5569
中原	-5570
被发现	-5571
等待	-5572
建筑面积	-5573
ivers	-5574
诺贝尔	-5575
数据库	-5576
纷纷	-5577
▁加	-5578
农历	-5579
沟通	-5580
有可能	-5581
封闭	-5582
福特	-5583
中场	-5584
过渡	-5585
▁万	-5586
▁雷	-5587
语音	-5588
▁col	-5589
AV	-5590
书店	-5591
作词	-5592
年人口普查	-5593
消灭	-5594
混乱	-5595
总共	-5596
ere	-5597
蒸汽	-5598
短期	-5599
发现了此天体	-5600
女神	-5601
往来	-5602
在前	-5603
提交	-5604
宣言	-5605
▁+	-5606
说是	-5607
的一位	-5608
存在于	-5609
并为	-5610
获取	-5611
梦想	-5612
和大	-5613
教科	-5614
ase	-5615
制备	-5616
得票	-5617
霍尔	-5618
可以用	-5619
专利	-5620
细节	-5621
问题的	-5622
雅典	-5623
机组	-5624
额为	-5625
完整的	-5626
back	-5627
伤亡	-5628
图尔	-5629
师长	-5630
北起顺时针与	-5631
的阿	-5632
道夫	-5633
天文学	-5634
生物学	-5635
殿试	-5636
南宋	-5637
和他的	-5638
的前身	-5639
这段	-5640
发生于	-5641
勃艮	-5642
北宋	-5643
复合	-5644
法学	-5645
平行	-5646
被告	-5647
这类	-5648
为首	-5649
政委	-5650
翰林院	-5651
提琴	-5652
版权	-5653
大学教授	-5654
世纪末	-5655
orld	-5656
营养	-5657
王室	-5658
名录	-5659
两座	-5660
皆为	-5661
社团	-5662
代数	-5663
同治	-5664
银河	-5665
来源于	-5666
党籍	-5667
洪武	-5668
里面	-5669
哺乳	-5670
菩萨	-5671
防空	-5672
并不是	-5673
为一个	-5674
该市镇	-5675
司机	-5676
声优	-5677
巴布	-5678
▁利	-5679
多元	-5680
山坡	-5681
界的	-5682
ru	-5683
其父	-5684
科下的一个属	-5685
海水	-5686
防守	-5687
会计	-5688
沙特	-5689
推行	-5690
出赛	-5691
一开始	-5692
友谊	-5693
▁y	-5694
跑道	-5695
良好	-5696
隔离	-5697
电流	-5698
硬件	-5699
剩余	-5700
灭亡	-5701
起诉	-5702
在这里	-5703
的第三	-5704
沿海省份	-5705
▁索	-5706
旗帜	-5707
的有	-5708
▁比	-5709
高铁	-5710
旅客铁道	-5711
▁塔	-5712
另一种	-5713
奖章	-5714
版本的	-5715
ris	-5716
瓦多	-5717
aur	-5718
de	-5719
▁e	-5720
的建筑	-5721
夜间	-5722
肯定	-5723
厄尔	-5724
比利牛	-5725
eng	-5726
巴士路线	-5727
周末	-5728
打造	-5729
氯化	-5730
保护区	-5731
晋升	-5732
上将	-5733
站厅	-5734
山顶	-5735
正德	-5736
一路	-5737
的马	-5738
篇小说	-5739
擅长	-5740
美国国家	-5741
海底	-5742
分之	-5743
百科	-5744
勃艮第	-5745
拉特	-5746
第二季	-5747
▁莱	-5748
受损	-5749
全国重点文物保护单位	-5750
在当时	-5751
伊丽莎白	-5752
规格	-5753
简单的	-5754
波特	-5755
财经	-5756
网友	-5757
ana	-5758
▁达	-5759
优先	-5760
沿用	-5761
安德烈	-5762
运动的	-5763
本次	-5764
夺取	-5765
德川	-5766
玛丽亚	-5767
事中	-5768
改装	-5769
分享	-5770
民籍	-5771
若干	-5772
att	-5773
嘉宾	-5774
渐渐	-5775
突击	-5776
普林	-5777
ML	-5778
没有任何	-5779
中世纪	-5780
但是在	-5781
历史学家	-5782
最重要的	-5783
后方	-5784
ius	-5785
文帝	-5786
改组	-5787
草原	-5788
残疾	-5789
EP	-5790
每一	-5791
爱好	-5792
改良	-5793
难民	-5794
ck	-5795
识字	-5796
封面	-5797
了一些	-5798
极为	-5799
”“	-5800
号月台	-5801
在欧洲	-5802
圣诞	-5803
动态	-5804
首领	-5805
情绪	-5806
学士学位	-5807
反而	-5808
四人	-5809
;"	-5810
ley	-5811
位于该国中部	-5812
af	-5813
族的	-5814
菲利普	-5815
图形	-5816
之时	-5817
名称为	-5818
独特的	-5819
陨坑	-5820
讯息	-5821
发达	-5822
▁An	-5823
森堡	-5824
Com	-5825
灵魂	-5826
浏览	-5827
专线	-5828
黄河	-5829
物资	-5830
流亡	-5831
沿着	-5832
路军	-5833
三名	-5834
的一次	-5835
orn	-5836
▁天主教	-5837
克利	-5838
天桥	-5839
博览	-5840
家庄	-5841
SP	-5842
打进	-5843
爱荷华州	-5844
▁吉	-5845
她是	-5846
庄为	-5847
布局	-5848
甲级联赛	-5849
绍兴	-5850
ype	-5851
乘坐	-5852
并获得	-5853
▁、	-5854
影评	-5855
预告	-5856
发展的	-5857
的第一个	-5858
泰尔	-5859
在这个	-5860
前者	-5861
牙齿	-5862
原来的	-5863
下来的	-5864
进而	-5865
▁II	-5866
游戏中	-5867
百年	-5868
喜爱	-5869
姐妹	-5870
Station	-5871
定于	-5872
漫画家	-5873
BO	-5874
结论	-5875
在第	-5876
无锡	-5877
为热带	-5878
ground	-5879
曲线	-5880
数值	-5881
宁夏	-5882
出于	-5883
芯片	-5884
将他	-5885
奥斯曼	-5886
人体	-5887
综艺节目	-5888
是有	-5889
年为	-5890
主编	-5891
之意	-5892
累积	-5893
始终	-5894
高等学校	-5895
方形	-5896
的手	-5897
列宁	-5898
高峰	-5899
收视率	-5900
英超	-5901
内斯	-5902
制造商	-5903
发布了	-5904
发表了	-5905
无线电	-5906
开始了	-5907
的西	-5908
row	-5909
."	-5910
战中	-5911
战败	-5912
牛津	-5913
马德里	-5914
华北	-5915
电压	-5916
中国科学院	-5917
CC	-5918
即是	-5919
的全	-5920
工作人员	-5921
人与	-5922
过于	-5923
义务	-5924
株式	-5925
否认	-5926
马达	-5927
都可以	-5928
名叫	-5929
火炮	-5930
站至	-5931
塞罗	-5932
智慧	-5933
寄生	-5934
男演员	-5935
的特征	-5936
并止于	-5937
前身为	-5938
月中	-5939
去世后	-5940
首批	-5941
燃烧	-5942
株式会社	-5943
数目	-5944
text	-5945
哈佛	-5946
归类	-5947
ans	-5948
基本上	-5949
国中	-5950
▁style	-5951
次子	-5952
荃湾	-5953
GA	-5954
MA	-5955
有了	-5956
其在	-5957
金斯	-5958
信任	-5959
车站大楼	-5960
火灾	-5961
哈德	-5962
日凌晨	-5963
之乱	-5964
县级	-5965
的计划	-5966
茨基	-5967
模仿	-5968
一旦	-5969
框架	-5970
二十年	-5971
零售	-5972
老挝	-5973
解除	-5974
成功的	-5975
并成为	-5976
科研	-5977
路德	-5978
香港时间	-5979
ve	-5980
又在	-5981
大批	-5982
为食	-5983
反抗	-5984
拿破	-5985
ance	-5986
策划	-5987
国小	-5988
里昂	-5989
ons	-5990
勒斯	-5991
年因	-5992
该物种的模式产地	-5993
面包	-5994
吏部	-5995
是一款	-5996
平等	-5997
own	-5998
改任	-5999
星际	-6000
配角	-6001
▁约翰	-6002
委员会主席	-6003
西区	-6004
强大的	-6005
其顿	-6006
牺牲	-6007
上法兰西	-6008
在今	-6009
数个	-6010
受到了	-6011
县道	-6012
剧中	-6013
创作的	-6014
大林	-6015
休息	-6016
还原	-6017
最有	-6018
TA	-6019
以及中国大陆的	-6020
办公厅	-6021
工作者	-6022
同志	-6023
重修	-6024
社长	-6025
拿破仑	-6026
岛式月台	-6027
阿列	-6028
强化	-6029
上法兰西大区	-6030
明的	-6031
斯里	-6032
但却	-6033
网页	-6034
栖息深度	-6035
她与	-6036
最终在	-6037
的特有植物	-6038
一共	-6039
而得名	-6040
仅仅	-6041
徒刑	-6042
古老的	-6043
停留	-6044
.&	-6045
刑部	-6046
线路口	-6047
鲈形目	-6048
定律	-6049
路径	-6050
▁:	-6051
曹操	-6052
三角形	-6053
灵感	-6054
炮兵	-6055
方向的	-6056
亦为	-6057
迫使	-6058
唐代	-6059
命运	-6060
繁忙	-6061
ree	-6062
催化	-6063
吉林省	-6064
沉积	-6065
是巴西	-6066
放置	-6067
高丽	-6068
别名	-6069
中断	-6070
封锁	-6071
主人	-6072
教徒	-6073
葬于	-6074
很大的	-6075
高地	-6076
的大部分	-6077
但仍	-6078
决策	-6079
继位	-6080
影业	-6081
染色	-6082
十七年	-6083
华语	-6084
古屋	-6085
▁on	-6086
广岛	-6087
生效	-6088
各大	-6089
塔尼大区	-6090
离心	-6091
高层	-6092
条款	-6093
一角	-6094
阵亡	-6095
ale	-6096
元朗	-6097
队在	-6098
职责	-6099
限于	-6100
首歌曲	-6101
工部	-6102
王后	-6103
雕像	-6104
,"	-6105
各项	-6106
与大	-6107
月刊	-6108
索恩	-6109
响应	-6110
▁En	-6111
第一代	-6112
仪器	-6113
永乐	-6114
也能	-6115
他以	-6116
文本	-6117
短片	-6118
翡翠	-6119
▁la	-6120
Ad	-6121
郑州	-6122
这两	-6123
放射	-6124
事变	-6125
复活	-6126
基辅	-6127
二层	-6128
▁凯	-6129
奥古	-6130
布列	-6131
的活动	-6132
交汇处	-6133
而该地	-6134
法人	-6135
酸盐	-6136
片段	-6137
见到	-6138
寺院	-6139
海关	-6140
终身	-6141
夏朗德	-6142
密码	-6143
节奏	-6144
egory	-6145
och	-6146
定义为	-6147
之内	-6148
这条	-6149
迁往	-6150
基督徒	-6151
但其	-6152
▁Mar	-6153
区议会选举	-6154
摩泽尔省	-6155
更改	-6156
批复	-6157
发电厂	-6158
精确	-6159
III	-6160
环绕	-6161
年冬季奥林匹克运动会	-6162
召集	-6163
称赞	-6164
唱片公司	-6165
加勒比	-6166
十八年	-6167
委员会的	-6168
恩斯	-6169
甲组	-6170
illi	-6171
马恩	-6172
为日本	-6173
电子游戏	-6174
白俄罗斯	-6175
站位于	-6176
国共	-6177
就被	-6178
中等	-6179
初步	-6180
哈利	-6181
因子	-6182
国民革命军	-6183
充分	-6184
人文	-6185
最高法院	-6186
%;	-6187
哈里	-6188
幸存	-6189
新区	-6190
全书	-6191
产量	-6192
体型	-6193
宗座	-6194
婚礼	-6195
二甲	-6196
车型	-6197
外界	-6198
和美国	-6199
中以	-6200
爆发后	-6201
广播公司	-6202
罕见	-6203
OV	-6204
总督府	-6205
搭配	-6206
太宗	-6207
Te	-6208
▁韦	-6209
垃圾	-6210
而闻名	-6211
石头	-6212
创意	-6213
公车	-6214
共享	-6215
▁You	-6216
斯图	-6217
ash	-6218
亚利	-6219
居委会	-6220
股票	-6221
战争期间	-6222
丁堡	-6223
千人	-6224
的比赛中	-6225
典型的	-6226
的热	-6227
合理	-6228
语系	-6229
随之	-6230
关联	-6231
亦可	-6232
年球季	-6233
主唱	-6234
种加	-6235
他说	-6236
电梯	-6237
处决	-6238
年秋	-6239
传教士	-6240
南区	-6241
调节	-6242
color	-6243
发育	-6244
祖籍	-6245
名古屋	-6246
泰因	-6247
于香港	-6248
剑桥	-6249
▁ch	-6250
至此	-6251
交战	-6252
某个	-6253
他将	-6254
支部	-6255
▁日本	-6256
北美洲	-6257
百货	-6258
普及	-6259
正是	-6260
的中心	-6261
▁Ph	-6262
wit	-6263
每一个	-6264
指责	-6265
而后	-6266
限定	-6267
轰炸机	-6268
恋爱	-6269
边为	-6270
PlayStation	-6271
华东	-6272
Category	-6273
水上	-6274
center	-6275
混凝	-6276
的最高	-6277
亚当	-6278
便是	-6279
顶点	-6280
真正的	-6281
位于该国西南部	-6282
还包括	-6283
或其他	-6284
igh	-6285
吉亚	-6286
曾有	-6287
重的	-6288
时刻	-6289
各地的	-6290
特别行政区	-6291
军在	-6292
网民	-6293
▁is	-6294
较大的	-6295
捐赠	-6296
烈士	-6297
厅长	-6298
后来在	-6299
变更	-6300
先前	-6301
美的	-6302
正规	-6303
吉斯	-6304
则以	-6305
年轻的	-6306
的一个区	-6307
sk	-6308
格莱	-6309
驻地	-6310
org	-6311
阿布	-6312
大东部	-6313
跨越	-6314
维基	-6315
lex	-6316
的游戏	-6317
起源于	-6318
科技大学	-6319
国立台湾	-6320
半径	-6321
索尼	-6322
紧张	-6323
纺织	-6324
▁杜	-6325
寺庙	-6326
拜占	-6327
SO	-6328
部分的	-6329
龙科	-6330
enn	-6331
回家	-6332
年中国	-6333
贵州省	-6334
行政长官	-6335
撞击坑	-6336
兵力	-6337
lor	-6338
时常	-6339
:《	-6340
混凝土	-6341
不受	-6342
州人	-6343
维莱	-6344
马力	-6345
国籍	-6346
进军	-6347
John	-6348
侦察	-6349
一生	-6350
学堂	-6351
的对	-6352
推出了	-6353
过度	-6354
即时	-6355
某种	-6356
播出的	-6357
先锋	-6358
文革	-6359
DC	-6360
一层	-6361
世代	-6362
创办人	-6363
最初的	-6364
理事长	-6365
安打	-6366
会议上	-6367
的存在	-6368
给事中	-6369
大学生	-6370
搭档	-6371
安人	-6372
DS	-6373
▁山	-6374
啤酒	-6375
指标	-6376
防卫	-6377
实业	-6378
阿姆	-6379
普尔	-6380
自从	-6381
所长	-6382
军舰	-6383
ount	-6384
属的动物	-6385
分组	-6386
res	-6387
乌拉	-6388
血液	-6389
赛马	-6390
初级	-6391
汤姆	-6392
青山	-6393
的双	-6394
一只	-6395
典型	-6396
。"	-6397
的神	-6398
是韩国	-6399
正统	-6400
参议员	-6401
就像	-6402
延安	-6403
有多	-6404
确实	-6405
统治者	-6406
大于	-6407
活动的	-6408
肉食性	-6409
董事会	-6410
誉为	-6411
近年来	-6412
追溯到	-6413
马其顿	-6414
反射	-6415
电影的	-6416
大东部大区	-6417
基尔	-6418
幻想	-6419
pen	-6420
background	-6421
文的	-6422
浪漫	-6423
▁五	-6424
一方	-6425
认知	-6426
二氧化	-6427
布政使	-6428
庙宇	-6429
海姆	-6430
▁何	-6431
面上	-6432
领衔	-6433
谢尔	-6434
又被	-6435
为该	-6436
北区	-6437
预防	-6438
客家	-6439
选票	-6440
古希腊	-6441
场上	-6442
建立的	-6443
安置	-6444
球迷	-6445
align	-6446
为辐鳍鱼纲鲈形目	-6447
南路	-6448
金像	-6449
过世	-6450
明显的	-6451
纽约市	-6452
▁Col	-6453
每小时	-6454
有三	-6455
足球会	-6456
编曲	-6457
为主题	-6458
首张	-6459
部副部长	-6460
咸丰	-6461
佩尔	-6462
都没有	-6463
宫殿	-6464
原址	-6465
是最	-6466
步行	-6467
时间的	-6468
"”	-6469
俘虏	-6470
国外	-6471
起了	-6472
里程	-6473
第一季	-6474
缓慢	-6475
该组织	-6476
之前的	-6477
代号	-6478
城市的	-6479
听到	-6480
权的	-6481
白人	-6482
oo	-6483
技能	-6484
录影带	-6485
瑞拉	-6486
第一部	-6487
医药	-6488
又译	-6489
学院的	-6490
弘治	-6491
草案	-6492
▁水	-6493
教导	-6494
武术	-6495
第一批	-6496
入了	-6497
否则	-6498
示范	-6499
阿尔巴	-6500
共和党	-6501
篮球运动员	-6502
市内	-6503
加热	-6504
楼梯	-6505
那个	-6506
香港时间逢星期	-6507
英国的	-6508
种加词	-6509
晚年	-6510
国家级	-6511
众人	-6512
应对	-6513
的官方	-6514
▁{	-6515
太祖	-6516
依靠	-6517
改设	-6518
织田	-6519
▁Ser	-6520
的一个县	-6521
城门	-6522
硬币	-6523
亚热带	-6524
拜占庭	-6525
刊登	-6526
局部	-6527
CR	-6528
年上映	-6529
一份	-6530
上半	-6531
卡特	-6532
总司令	-6533
观念	-6534
语中	-6535
在与	-6536
urn	-6537
水的	-6538
里奇	-6539
街道下辖以下地区	-6540
其中的	-6541
约克	-6542
动员	-6543
那样	-6544
一千	-6545
伦堡	-6546
▁前	-6547
菌属	-6548
Net	-6549
老板	-6550
身高	-6551
评论家	-6552
ild	-6553
该建筑	-6554
云林	-6555
▁Le	-6556
和新	-6557
横滨	-6558
中央电视台	-6559
苗栗	-6560
克劳	-6561
季节	-6562
和一个	-6563
液体	-6564
连同	-6565
死去	-6566
阿基坦	-6567
故障	-6568
汉堡	-6569
日公布	-6570
的过程	-6571
可分为	-6572
情形	-6573
消费者	-6574
▁NGC	-6575
光明	-6576
可能性	-6577
法规	-6578
电气化	-6579
赔偿	-6580
展出	-6581
爱沙	-6582
最后的	-6583
维拉	-6584
座位	-6585
观塘	-6586
商标	-6587
雅各	-6588
独自	-6589
肌肉	-6590
婴儿	-6591
塞拜	-6592
学校的	-6593
▁下	-6594
男人	-6595
一日	-6596
爱沙尼亚	-6597
活性	-6598
质的	-6599
参赛资格	-6600
▁霍	-6601
宰相	-6602
布置	-6603
浓度	-6604
角逐	-6605
领队	-6606
在南	-6607
兰卡	-6608
、“	-6609
补助	-6610
其中有	-6611
年总人口	-6612
关东	-6613
废止	-6614
组长	-6615
总计	-6616
讷省	-6617
不多	-6618
RNA	-6619
”)。	-6620
厂商	-6621
远东	-6622
优惠	-6623
交付	-6624
宽度	-6625
设立的	-6626
之路	-6627
天空	-6628
造船	-6629
次日	-6630
塞拜疆	-6631
时被	-6632
秩序	-6633
丘陵	-6634
分开	-6635
西路	-6636
海盗	-6637
以下是	-6638
石器	-6639
IF	-6640
不佳	-6641
近似	-6642
专注	-6643
▁库	-6644
同为	-6645
广义	-6646
予以	-6647
改由	-6648
一所	-6649
的多	-6650
物理学家	-6651
执法	-6652
月份	-6653
刚果	-6654
王朱	-6655
年有	-6656
金门	-6657
生长在	-6658
歌剧	-6659
ini	-6660
▁/&	-6661
ower	-6662
一半	-6663
区议员	-6664
乒乓	-6665
ome	-6666
年国际	-6667
脊椎	-6668
ilver	-6669
日文	-6670
蒙德	-6671
▁Me	-6672
更大的	-6673
该省份为法国北部	-6674
莱坞	-6675
真菌	-6676
已在	-6677
年末	-6678
盟军	-6679
▁欧	-6680
干扰	-6681
给他	-6682
血管	-6683
的功能	-6684
法军	-6685
本部	-6686
uper	-6687
月被	-6688
目录	-6689
讯号	-6690
伯利亚	-6691
黑人	-6692
可靠	-6693
学员	-6694
真的	-6695
能在	-6696
深圳市	-6697
确立	-6698
员外郎	-6699
表现出	-6700
释出	-6701
的其他	-6702
获得第	-6703
回来	-6704
玫瑰	-6705
轨电车	-6706
面积约为	-6707
全程	-6708
首映	-6709
孙中山	-6710
一代	-6711
时会	-6712
编程	-6713
巡逻	-6714
上任	-6715
心理学	-6716
的同时	-6717
元首	-6718
激光	-6719
字体	-6720
州立	-6721
总体	-6722
续集	-6723
转型	-6724
的标准	-6725
不但	-6726
枪管	-6727
划入	-6728
校友	-6729
删除	-6730
氨基	-6731
团的	-6732
坐标	-6733
来看	-6734
蒂安	-6735
香港的	-6736
板块	-6737
歧视	-6738
洛伊	-6739
section	-6740
航行	-6741
人死亡	-6742
国会议员	-6743
带来的	-6744
同月	-6745
▁colspan	-6746
一等	-6747
一间	-6748
▁Te	-6749
亚种	-6750
概况	-6751
自主	-6752
超人	-6753
TO	-6754
先发	-6755
参政	-6756
巴克	-6757
是南极洲的	-6758
化工	-6759
法定	-6760
进程	-6761
纵队	-6762
立体	-6763
索姆	-6764
的使用	-6765
du	-6766
写的	-6767
很难	-6768
新华	-6769
礼拜	-6770
集会	-6771
科的一个属	-6772
又有	-6773
▁叶	-6774
空调	-6775
谴责	-6776
周恩	-6777
道教	-6778
苏里	-6779
//	-6780
影响力	-6781
父亲是	-6782
年来	-6783
击败了	-6784
录音室	-6785
房子	-6786
还要	-6787
科学技术	-6788
Le	-6789
工党	-6790
得奖	-6791
巴拿	-6792
癌症	-6793
兵部	-6794
主播	-6795
此类	-6796
运会	-6797
拉萨	-6798
位在	-6799
议长	-6800
的一家	-6801
rist	-6802
执行官	-6803
立法院	-6804
信奉	-6805
弹劾	-6806
号种子	-6807
了该	-6808
绘制	-6809
街庄	-6810
政治局	-6811
设置的	-6812
icros	-6813
此处	-6814
干燥	-6815
数学家	-6816
写成	-6817
阳光	-6818
冲绳	-6819
树木	-6820
线是	-6821
语法	-6822
总决赛	-6823
样本	-6824
开发区	-6825
湿地	-6826
体现	-6827
老人	-6828
印度洋	-6829
兴起	-6830
音乐会	-6831
Ste	-6832
攻势	-6833
丹尼	-6834
最小	-6835
▁上海	-6836
▁Mus	-6837
一说	-6838
ose	-6839
干事	-6840
悬挂	-6841
泰罗	-6842
北极	-6843
者为	-6844
野战	-6845
埃塞	-6846
军方	-6847
当前	-6848
位于该国南部	-6849
项目的	-6850
集结	-6851
第三甲	-6852
万平方米	-6853
亚利桑	-6854
的母亲	-6855
▁毛	-6856
委内	-6857
日记	-6858
腓特	-6859
西门	-6860
蒂利亚	-6861
快乐	-6862
的家	-6863
▁于	-6864
特定的	-6865
柴油机车	-6866
国家队参加	-6867
武昌	-6868
张家	-6869
out	-6870
病人	-6871
诺曼底	-6872
拯救	-6873
悠久	-6874
证书	-6875
发行了	-6876
南下	-6877
宋朝	-6878
明治三十	-6879
作物	-6880
时速	-6881
sc	-6882
便利	-6883
新型	-6884
常用	-6885
被选为	-6886
ward	-6887
ystem	-6888
是一颗恒星	-6889
”(),	-6890
保育	-6891
转变	-6892
历代	-6893
发送	-6894
▁Cl	-6895
动词	-6896
树林	-6897
的一所	-6898
ta	-6899
一期	-6900
的社会	-6901
的土地	-6902
内蒙古自治区	-6903
升降	-6904
意思是	-6905
介石	-6906
华侨	-6907
▁Sc	-6908
系统中	-6909
导体	-6910
纪念馆	-6911
▁施	-6912
委内瑞拉	-6913
北路	-6914
相传	-6915
趋势	-6916
迈克尔	-6917
遗体	-6918
年电影	-6919
利奥	-6920
腓特烈	-6921
电磁	-6922
远征	-6923
债务	-6924
瑞克	-6925
矿物	-6926
一张	-6927
的金	-6928
大军	-6929
奖励	-6930
运送	-6931
会以	-6932
党委书记	-6933
(、	-6934
在水	-6935
江县	-6936
辩论	-6937
▁福	-6938
为名	-6939
月后	-6940
的消息	-6941
守备	-6942
霍夫	-6943
分辨	-6944
较小	-6945
的作用	-6946
图片	-6947
特种	-6948
语和	-6949
右翼	-6950
摩托	-6951
党委	-6952
差距	-6953
额外	-6954
之称	-6955
希特勒	-6956
更名	-6957
侵略	-6958
决于	-6959
ual	-6960
文化遗产	-6961
享有	-6962
用地	-6963
▁四	-6964
中南部	-6965
围棋	-6966
逃离	-6967
可由	-6968
包装	-6969
变量	-6970
口岸	-6971
外交官	-6972
南端	-6973
的表现	-6974
末年	-6975
火力	-6976
崇拜	-6977
要塞	-6978
道歉	-6979
失去了	-6980
气象局	-6981
场合	-6982
物业	-6983
血统	-6984
利安	-6985
尊重	-6986
替换	-6987
塞罗那	-6988
器官	-6989
射线	-6990
▁郭	-6991
变形	-6992
使他	-6993
诸多	-6994
ank	-6995
结局	-6996
新生	-6997
驻扎	-6998
据点	-6999
西日本	-7000
的经济	-7001
治理	-7002
菲尔	-7003
纳粹德国	-7004
赋予	-7005
ult	-7006
合肥	-7007
所得	-7008
移植	-7009
idae	-7010
农村居民点	-7011
科医生	-7012
中东	-7013
UB	-7014
灰色	-7015
转播	-7016
北部的	-7017
科罗拉多	-7018
业者	-7019
节点	-7020
司长	-7021
稳定的	-7022
前线	-7023
权益	-7024
北洋	-7025
波音	-7026
年正式	-7027
相对于	-7028
民用	-7029
时尚	-7030
重播	-7031
运载	-7032
ille	-7033
逃亡	-7034
的不同	-7035
出身于	-7036
拓跋	-7037
独特	-7038
莱昂	-7039
为他	-7040
榴弹	-7041
后世	-7042
当晚	-7043
特朗	-7044
的要求	-7045
DP	-7046
当初	-7047
所谓的	-7048
知名的	-7049
使者	-7050
总是	-7051
攻入	-7052
治安	-7053
省会	-7054
街头	-7055
Am	-7056
新村	-7057
贷款	-7058
GP	-7059
立委	-7060
DA	-7061
有关的	-7062
射入	-7063
参赛者	-7064
日耳	-7065
则于	-7066
中华民国政府	-7067
该区	-7068
蒋介石	-7069
位于该国东南部	-7070
相较于	-7071
▁许	-7072
降落	-7073
阿拉斯	-7074
ebook	-7075
发布的	-7076
从小	-7077
愤怒	-7078
极大	-7079
法学院	-7080
撤离	-7081
大厅	-7082
搬到	-7083
这位	-7084
ony	-7085
和社会	-7086
期望	-7087
分散	-7088
悉尼	-7089
权威	-7090
登堡	-7091
一书	-7092
的内	-7093
回复	-7094
马萨	-7095
山镇	-7096
TS	-7097
滑冰	-7098
隔年	-7099
立刻	-7100
曾祖父	-7101
艾伦	-7102
范畴	-7103
支球队	-7104
故居	-7105
标示	-7106
费城	-7107
第二代	-7108
良好的	-7109
Re	-7110
冷却	-7111
ella	-7112
车的	-7113
irl	-7114
名列	-7115
位于该国东北部	-7116
发的	-7117
桂林	-7118
也称为	-7119
▁二	-7120
三层	-7121
磷酸	-7122
说服	-7123
女性为	-7124
时间内	-7125
总长	-7126
开封	-7127
年首次	-7128
期徒刑	-7129
隐藏	-7130
又称为	-7131
理工学院	-7132
女人	-7133
极端	-7134
第一名	-7135
SN	-7136
则被	-7137
代表队	-7138
岁以下	-7139
分布于南美洲	-7140
兄长	-7141
迪斯	-7142
卢森堡	-7143
法师	-7144
客串	-7145
转投	-7146
▁蒙	-7147
山站	-7148
系的	-7149
物浦	-7150
ink	-7151
作品的	-7152
帝国的	-7153
军长	-7154
就业	-7155
上校	-7156
企业家	-7157
旋律	-7158
根据美国	-7159
海湾	-7160
关节	-7161
市级	-7162
尼日利亚	-7163
在当地	-7164
克鲁	-7165
▁id	-7166
肿瘤	-7167
蝙蝠	-7168
原因是	-7169
传承	-7170
面积约	-7171
olog	-7172
是瑞士	-7173
提案	-7174
]][[	-7175
监管	-7176
终结	-7177
aint	-7178
瀑布	-7179
是奥地利	-7180
Met	-7181
缩短	-7182
配乐	-7183
马路	-7184
最近的	-7185
民党	-7186
北面	-7187
毫无	-7188
热门	-7189
lic	-7190
BL	-7191
ound	-7192
高级中学	-7193
▁唐	-7194
河内	-7195
世界的	-7196
原有的	-7197
相近	-7198
引起了	-7199
验证	-7200
乌鲁	-7201
其间	-7202
天王	-7203
度假	-7204
资深	-7205
恐惧	-7206
▁为	-7207
的非	-7208
南投	-7209
小镇	-7210
对比	-7211
透明	-7212
国公	-7213
壁画	-7214
▁Ex	-7215
其种加词	-7216
减弱	-7217
过了	-7218
年代为	-7219
地方资料	-7220
等站	-7221
延伸至	-7222
伦特	-7223
的区域	-7224
ava	-7225
届全国人大代表	-7226
中所	-7227
女歌手	-7228
雕刻	-7229
季后赛	-7230
组成部分	-7231
Ge	-7232
母舰	-7233
适当	-7234
公益	-7235
潜在	-7236
ise	-7237
有一些	-7238
巨人	-7239
上获得	-7240
的定义	-7241
国铁	-7242
但没有	-7243
庄为邻	-7244
RO	-7245
执教	-7246
EX	-7247
icrosoft	-7248
ler	-7249
最后一次	-7250
奉命	-7251
意图	-7252
的技术	-7253
中央军委	-7254
原料	-7255
黎明	-7256
美国总统	-7257
看法	-7258
的传统	-7259
上线	-7260
阿尔及	-7261
沼泽	-7262
巴塞罗那	-7263
人气	-7264
不在	-7265
ola	-7266
专科学校	-7267
不如	-7268
则会	-7269
财富	-7270
邮件	-7271
高宗	-7272
▁沃	-7273
只在	-7274
较多	-7275
丹尼尔	-7276
接受了	-7277
民主主义	-7278
别墅	-7279
的心	-7280
▁武	-7281
交往	-7282
极限	-7283
并向	-7284
今属	-7285
开辟	-7286
护卫	-7287
炮台	-7288
历史建筑	-7289
首届	-7290
▁[	-7291
依旧	-7292
不需要	-7293
中央委员会	-7294
me	-7295
并开始	-7296
足球甲级联赛	-7297
六世	-7298
南部的	-7299
天启	-7300
英属	-7301
铁路的	-7302
作的	-7303
型态	-7304
斯在	-7305
福冈	-7306
日宣布	-7307
复制	-7308
战舰	-7309
瓦拉	-7310
专案	-7311
开行	-7312
的环境	-7313
企划	-7314
斯和	-7315
▁与	-7316
全年	-7317
租借	-7318
西汉	-7319
奇幻	-7320
岁人口	-7321
阿基坦大区	-7322
acebook	-7323
出局	-7324
主要为	-7325
加龙省	-7326
▁i	-7327
支撑	-7328
肯尼	-7329
有人口	-7330
花费	-7331
▁托	-7332
翻新	-7333
少数民族	-7334
中国国家	-7335
电站	-7336
斯大林	-7337
分数	-7338
最好的	-7339
▁小行星列表	-7340
大大	-7341
起飞	-7342
官职	-7343
朝阳	-7344
法拉	-7345
深刻	-7346
频繁	-7347
废弃	-7348
脂肪	-7349
船员	-7350
调查局	-7351
德兰	-7352
无关	-7353
也成为	-7354
lass	-7355
roid	-7356
班机	-7357
交会	-7358
▁Be	-7359
敏感	-7360
加里	-7361
总书记	-7362
出资	-7363
ake	-7364
anc	-7365
不可能	-7366
第二轮	-7367
新阿基坦大区	-7368
故此	-7369
率先	-7370
生意	-7371
哈特	-7372
皇室	-7373
▁Car	-7374
位于中华人民共和国	-7375
探讨	-7376
发言人	-7377
色情	-7378
to	-7379
年出版	-7380
▁鲁	-7381
平县	-7382
检验	-7383
横跨	-7384
两大	-7385
应当	-7386
手法	-7387
莲花	-7388
好莱坞	-7389
节日	-7390
的一项	-7391
当然	-7392
情感	-7393
Mac	-7394
心的	-7395
接驳	-7396
寿命	-7397
真相	-7398
简化	-7399
ins	-7400
只好	-7401
德勒	-7402
泰罗尼亚	-7403
可以使用	-7404
创业	-7405
东南接	-7406
卸任	-7407
▁pro	-7408
是一个位于美国	-7409
侵犯	-7410
公投	-7411
林业	-7412
候补	-7413
清军	-7414
编译	-7415
罪名	-7416
为香港	-7417
青铜	-7418
部曲	-7419
《》,	-7420
乔治亚州	-7421
na	-7422
宾夕	-7423
lo	-7424
勇士	-7425
并担任	-7426
eter	-7427
管理的	-7428
HT	-7429
ald	-7430
▁平	-7431
事宜	-7432
宫廷	-7433
病例	-7434
的美	-7435
高清	-7436
龙类	-7437
主要由	-7438
阿塞拜疆	-7439
淡水鱼	-7440
仓库	-7441
公演	-7442
是该	-7443
与之	-7444
改用	-7445
在东	-7446
位于该国西北部	-7447
长轴	-7448
年代末	-7449
一对	-7450
就能	-7451
取决于	-7452
ade	-7453
指挥部	-7454
此举	-7455
登录	-7456
利物浦	-7457
ics	-7458
年号	-7459
走廊	-7460
案例	-7461
面前	-7462
为主要	-7463
瞄准	-7464
个市镇	-7465
▁Re	-7466
支持者	-7467
补给	-7468
Linux	-7469
可以是	-7470
安妮	-7471
迷你专辑	-7472
爵位	-7473
战区	-7474
广泛的	-7475
艺名	-7476
一群	-7477
固体	-7478
垒打	-7479
夺冠	-7480
为美国	-7481
在上	-7482
日耳曼	-7483
HE	-7484
谢尔省	-7485
职工	-7486
联赛冠军	-7487
edia	-7488
TP	-7489
但因为	-7490
科多	-7491
送往	-7492
喇嘛	-7493
日本人	-7494
有很多	-7495
迄今	-7496
周恩来	-7497
HO	-7498
▁纳	-7499
但后来	-7500
德里克	-7501
全数	-7502
让人	-7503
戴维斯	-7504
公国	-7505
后勤	-7506
讲师	-7507
奥弗	-7508
间接	-7509
流通	-7510
温哥	-7511
现代化	-7512
的妻子	-7513
彗星	-7514
App	-7515
属的一种	-7516
公务员	-7517
阵线	-7518
了对	-7519
常数	-7520
金钟	-7521
俄亥	-7522
重力	-7523
千叶	-7524
预期	-7525
丰富的	-7526
俄亥俄	-7527
斯洛伐克	-7528
宗室	-7529
录像	-7530
本质	-7531
做了	-7532
可用	-7533
生日	-7534
出兵	-7535
格罗	-7536
礼部	-7537
冰岛	-7538
的东	-7539
IL	-7540
完善	-7541
识字率	-7542
进驻	-7543
陆战队	-7544
软条	-7545
哈萨	-7546
铃木	-7547
不良	-7548
付费	-7549
西北接	-7550
争论	-7551
头的	-7552
风速	-7553
理工大学	-7554
哲学家	-7555
未来的	-7556
继承人	-7557
路上	-7558
主要分布于	-7559
帆船	-7560
强迫	-7561
拉姆	-7562
排除	-7563
通勤	-7564
阴谋	-7565
一点	-7566
常被	-7567
温哥华	-7568
中华人民共和国成立后	-7569
我们的	-7570
最后一个	-7571
休闲	-7572
不等	-7573
差别	-7574
▁x	-7575
胡同	-7576
伊万	-7577
▁基	-7578
名额	-7579
进修	-7580
南朝	-7581
溪流	-7582
站内	-7583
诸如	-7584
预定	-7585
也可能	-7586
晋升为	-7587
年代的	-7588
公平	-7589
博尔	-7590
图示	-7591
曾与	-7592
改编为	-7593
索尔	-7594
app	-7595
移交	-7596
个性	-7597
itt	-7598
▁佩	-7599
地势	-7600
拍摄的	-7601
(“	-7602
享受	-7603
北伐	-7604
都御史	-7605
宝石	-7606
亚马	-7607
消除	-7608
oid	-7609
代表作	-7610
总统选举	-7611
耶律	-7612
利尔	-7613
东站	-7614
五百	-7615
年左右	-7616
共识	-7617
居于	-7618
同一个	-7619
不及	-7620
县和	-7621
不久后	-7622
直通	-7623
次的	-7624
中环	-7625
妈妈	-7626
怀孕	-7627
小于	-7628
ari	-7629
合金	-7630
样的	-7631
宾夕法	-7632
郊区	-7633
不同于	-7634
车体	-7635
少量	-7636
乌尔	-7637
口号	-7638
监视	-7639
Br	-7640
文化的	-7641
该物种的模式产地在	-7642
象棋	-7643
旁边	-7644
哈根	-7645
出现于	-7646
询问	-7647
年时的	-7648
BBC	-7649
海滩	-7650
罗门	-7651
购入	-7652
顶部	-7653
最著名的	-7654
复杂的	-7655
他又	-7656
臀鳍	-7657
钻石	-7658
国家安全	-7659
推理	-7660
熟悉	-7661
RE	-7662
万吨	-7663
roup	-7664
支队	-7665
利尼	-7666
幼儿	-7667
成为一个	-7668
士坦	-7669
宇文	-7670
日发售	-7671
挖掘	-7672
州和	-7673
战役中	-7674
加密	-7675
大门	-7676
她曾代表	-7677
前任	-7678
历经	-7679
夫妻	-7680
此一	-7681
毁灭	-7682
玩具	-7683
就已经	-7684
国土	-7685
复仇	-7686
围攻	-7687
巴哈	-7688
特雷	-7689
探险队	-7690
新兴	-7691
暗杀	-7692
该书	-7693
进化	-7694
镇区的	-7695
管道	-7696
为中心	-7697
加泰罗尼亚	-7698
了两	-7699
公子	-7700
公所	-7701
类型为	-7702
城内	-7703
西藏自治区	-7704
光绪二十	-7705
日以	-7706
衣服	-7707
学金	-7708
南面	-7709
告示	-7710
笔名	-7711
▁江	-7712
学历	-7713
转入	-7714
习俗	-7715
刊物	-7716
中北部	-7717
强大	-7718
理查德	-7719
▁乔	-7720
对他	-7721
山谷	-7722
音乐家	-7723
大部分的	-7724
恶魔	-7725
施行	-7726
高等教育	-7727
系数	-7728
史料	-7729
是一所	-7730
足以	-7731
青海省	-7732
七个	-7733
俄语	-7734
AKB	-7735
不幸	-7736
思考	-7737
上场	-7738
肺炎	-7739
更高	-7740
不论	-7741
迫害	-7742
政府在	-7743
特鲁	-7744
职能	-7745
半长轴	-7746
的一座城市	-7747
ail	-7748
在线	-7749
和小	-7750
奥克西	-7751
。)	-7752
下水	-7753
珍珠	-7754
应用于	-7755
ym	-7756
▁永	-7757
六十	-7758
二百	-7759
促使	-7760
和西	-7761
王的	-7762
奖的	-7763
翡翠台	-7764
利于	-7765
含量	-7766
埃德	-7767
闽南	-7768
阿尔巴尼亚	-7769
ole	-7770
此剧	-7771
点是	-7772
silver	-7773
港澳	-7774
各省	-7775
小行星带	-7776
▁国际	-7777
残疾人	-7778
林中	-7779
足总	-7780
box	-7781
政治委员	-7782
彻斯特	-7783
舞台剧	-7784
后裔	-7785
告知	-7786
泽西	-7787
监禁	-7788
与中国	-7789
杜鹃	-7790
讽刺	-7791
而死	-7792
人认为	-7793
传佛教	-7794
氨酸	-7795
三百	-7796
之父	-7797
传染	-7798
交通部	-7799
借此	-7800
元件	-7801
大纲	-7802
更有	-7803
摩洛	-7804
伯恩	-7805
台铁	-7806
的结构	-7807
们的	-7808
其中男	-7809
由美国	-7810
个别	-7811
一时	-7812
可以被	-7813
茨克	-7814
过后	-7815
中队	-7816
故意	-7817
赛会	-7818
人是	-7819
几年	-7820
出品	-7821
恶化	-7822
无效	-7823
蜘蛛	-7824
语言的	-7825
导致了	-7826
庄村	-7827
违法	-7828
▁杰	-7829
计划的	-7830
▁内	-7831
木材	-7832
下旬	-7833
与他	-7834
排球	-7835
音乐学院	-7836
江市	-7837
警员	-7838
广西壮	-7839
经纪公司	-7840
aj	-7841
系列赛	-7842
紧密	-7843
再加上	-7844
转移到	-7845
江户时代	-7846
画作	-7847
站前	-7848
厄尔省	-7849
长老	-7850
君士坦	-7851
破产	-7852
分别在	-7853
red	-7854
鱼亚目	-7855
▁康	-7856
庄园	-7857
舆论	-7858
轻轨	-7859
发表的	-7860
”()。	-7861
德利	-7862
时空	-7863
玛格	-7864
▁汉	-7865
大略	-7866
收录于	-7867
栖息地	-7868
创下	-7869
的一部	-7870
被列为	-7871
监察御史	-7872
所知	-7873
击退	-7874
吉祥	-7875
在校	-7876
扬州	-7877
通过了	-7878
翻唱	-7879
怀特	-7880
朝鲜半岛	-7881
CE	-7882
事迹	-7883
世界遗产	-7884
rop	-7885
斯洛文	-7886
▁文	-7887
这也	-7888
为主的	-7889
入狱	-7890
治所在	-7891
日内	-7892
form	-7893
幕后	-7894
繁荣	-7895
奥克西塔尼大区	-7896
ict	-7897
助于	-7898
纳西	-7899
的名义	-7900
亚斯	-7901
列斯	-7902
还会	-7903
搭乘	-7904
杀手	-7905
信用	-7906
为中	-7907
初中	-7908
窗口	-7909
▁美	-7910
河东	-7911
▁*	-7912
一边	-7913
藤原	-7914
的速度	-7915
密歇	-7916
用了	-7917
日与	-7918
背面	-7919
天地	-7920
供电	-7921
拳击	-7922
的正	-7923
密歇根	-7924
的两个	-7925
代谢	-7926
枢机	-7927
酋长	-7928
日益	-7929
之一的	-7930
斯洛文尼亚	-7931
两项	-7932
服务的	-7933
ft	-7934
莉亚	-7935
人事	-7936
精英	-7937
县的一个城镇	-7938
并称	-7939
亦在	-7940
兰德	-7941
分割	-7942
损害	-7943
是当地	-7944
与前	-7945
oci	-7946
高尔夫	-7947
受害者	-7948
金马	-7949
收录了	-7950
科多尔省	-7951
表彰	-7952
ject	-7953
cc	-7954
里约	-7955
巴拿马	-7956
斯特拉	-7957
托夫	-7958
年代中期	-7959
可容纳	-7960
和的	-7961
事件的	-7962
第一轮	-7963
开创	-7964
红旗	-7965
全美	-7966
孔泰	-7967
解体	-7968
比赛的	-7969
台的	-7970
分类法	-7971
ke	-7972
灌木	-7973
精选	-7974
氏的	-7975
奥布	-7976
最新	-7977
第一任	-7978
Hz	-7979
年从	-7980
莱特	-7981
弗朗什	-7982
▁无	-7983
国子	-7984
the	-7985
奥弗涅	-7986
整数	-7987
简易	-7988
流行音乐	-7989
给出	-7990
的单	-7991
▁或	-7992
剩下	-7993
吉利	-7994
年参加	-7995
号码	-7996
湾仔	-7997
克拉克	-7998
自由党	-7999
大都会	-8000
宁县	-8001
宇航	-8002
▁Pr	-8003
Be	-8004
可供	-8005
组的	-8006
生素	-8007
华南	-8008
答应	-8009
广播电视	-8010
之初	-8011
风力	-8012
含义	-8013
瓦兹	-8014
俄比亚	-8015
北站	-8016
是将	-8017
混淆	-8018
any	-8019
illa	-8020
广西壮族自治区	-8021
世界各地	-8022
时为	-8023
山上	-8024
其中男性为	-8025
暴露	-8026
珠海	-8027
北与	-8028
京师	-8029
与美国	-8030
领域的	-8031
灾难	-8032
也将	-8033
奥德	-8034
总面积为	-8035
香港政府	-8036
RS	-8037
克勒	-8038
哥特	-8039
形式的	-8040
De	-8041
是秘鲁	-8042
招募	-8043
数千	-8044
副院长	-8045
地面车站	-8046
半球	-8047
总管	-8048
追踪	-8049
巴勒斯坦	-8050
创刊	-8051
平坦	-8052
车站周边	-8053
sch	-8054
奥利	-8055
生前	-8056
姓名	-8057
季军	-8058
射手	-8059
映射	-8060
韩民国	-8061
出境	-8062
▁For	-8063
my	-8064
草地	-8065
▁He	-8066
之后在	-8067
▁洛	-8068
多位	-8069
微分	-8070
收复	-8071
外围赛	-8072
完颜	-8073
司铎	-8074
客机	-8075
家属	-8076
文中	-8077
启发	-8078
首席执行官	-8079
人被	-8080
孙子	-8081
大败	-8082
纽约州	-8083
旺斯	-8084
▁诺	-8085
吉隆	-8086
煤矿	-8087
交由	-8088
但也	-8089
后不久	-8090
En	-8091
动的	-8092
收获	-8093
风云	-8094
era	-8095
尚有	-8096
屋苑	-8097
本届赛事	-8098
科长	-8099
的目标	-8100
延迟	-8101
清末	-8102
香港电影	-8103
下面	-8104
天然气	-8105
配音员	-8106
MC	-8107
行政镇区	-8108
聘请	-8109
阿克	-8110
斯里兰卡	-8111
助攻	-8112
橡胶	-8113
赛道	-8114
ited	-8115
岛式	-8116
古城	-8117
▁八	-8118
也被称为	-8119
航空母舰	-8120
都能	-8121
萨瓦	-8122
完结	-8123
诸侯	-8124
▁UA	-8125
是一条	-8126
第二届	-8127
亦会	-8128
节目中	-8129
▁with	-8130
流程	-8131
车次	-8132
毕业生	-8133
侦探	-8134
引导	-8135
水面	-8136
的光	-8137
西站	-8138
和中国	-8139
卡斯蒂利亚	-8140
用在	-8141
里希	-8142
办学	-8143
并对	-8144
后来被	-8145
▁New	-8146
万张	-8147
最具	-8148
流放	-8149
民航	-8150
专栏	-8151
南站	-8152
战死	-8153
防护	-8154
aul	-8155
动物的	-8156
电机	-8157
一周	-8158
丧失	-8159
加利福尼亚	-8160
五代	-8161
玻利	-8162
进入了	-8163
边疆	-8164
副总统	-8165
新疆维吾尔	-8166
参议	-8167
战时	-8168
县的一个行政镇区	-8169
间谍	-8170
发现于	-8171
戏院	-8172
able	-8173
地表	-8174
平均降雨量	-8175
合共	-8176
迁徙	-8177
总结	-8178
置于	-8179
▁Man	-8180
可用于	-8181
较高的	-8182
译作	-8183
之用	-8184
属肉食性	-8185
▁泰	-8186
的面积为	-8187
低地	-8188
全垒打	-8189
重伤	-8190
▁尼	-8191
神学	-8192
程度上	-8193
护理	-8194
琼斯	-8195
被评为	-8196
右侧	-8197
该小行星	-8198
水泥	-8199
断层	-8200
而成的	-8201
受体	-8202
圣保罗	-8203
的一名	-8204
的基本	-8205
的和	-8206
定了	-8207
激素	-8208
膨胀	-8209
体内	-8210
因病	-8211
通常会	-8212
绘入	-8213
镇区的面积为	-8214
月加入中国共产党	-8215
实质	-8216
由其	-8217
隋朝	-8218
地狱	-8219
小巴	-8220
赤道	-8221
深水	-8222
负面	-8223
ene	-8224
TE	-8225
师从	-8226
〉、	-8227
▁Comp	-8228
中学校	-8229
有意	-8230
沃克	-8231
最少	-8232
缺陷	-8233
已经被	-8234
传记	-8235
在本	-8236
威斯	-8237
小项	-8238
为何	-8239
后才	-8240
意识到	-8241
日晚	-8242
行李	-8243
但最终	-8244
Bl	-8245
▁爱	-8246
航站	-8247
飞船	-8248
的女性	-8249
平方英里	-8250
航海	-8251
贝拉	-8252
的人口	-8253
入学	-8254
歌舞	-8255
教友	-8256
硫酸	-8257
落败	-8258
开除	-8259
罢工	-8260
阿肯	-8261
军用	-8262
完美	-8263
鱼科的其中一种	-8264
党校	-8265
两层	-8266
巴达	-8267
者和	-8268
战争的	-8269
同知	-8270
转而	-8271
作为一个	-8272
西比	-8273
二十厅	-8274
副局长	-8275
追击	-8276
阿尔卑斯大区	-8277
以及在	-8278
制片人	-8279
和中	-8280
人受伤	-8281
牧区	-8282
奖学金	-8283
环节	-8284
一年后	-8285
世宗	-8286
梅克	-8287
决赛中	-8288
果实	-8289
绕太阳	-8290
铁路公司	-8291
二等	-8292
出租	-8293
德堡	-8294
炮塔	-8295
未经	-8296
离心率为	-8297
纪律	-8298
孔泰大区	-8299
饮料	-8300
华裔	-8301
年仅	-8302
畅销	-8303
排序	-8304
烧毁	-8305
官兵	-8306
只有一	-8307
西德	-8308
oss	-8309
que	-8310
事物	-8311
举行了	-8312
卫冕	-8313
签下	-8314
不愿	-8315
斯达	-8316
不一	-8317
几种	-8318
撒冷	-8319
汝拉	-8320
派人	-8321
原作	-8322
▁▁▁▁▁▁▁▁	-8323
四名	-8324
摩洛哥	-8325
迁入	-8326
▁Con	-8327
在高	-8328
日发现	-8329
五大	-8330
位于法国大东部大区	-8331
▁里	-8332
耶路	-8333
蝴蝶	-8334
▁梁	-8335
人类的	-8336
谥号	-8337
哈萨克斯坦	-8338
聚会	-8339
轨道参数	-8340
进展	-8341
一辆	-8342
三星	-8343
先驱	-8344
遇难	-8345
配套	-8346
在德国	-8347
前方	-8348
司徒	-8349
帕拉	-8350
深夜	-8351
带到	-8352
扩散	-8353
郡王	-8354
年进入	-8355
台风警报	-8356
倾斜	-8357
脱维亚	-8358
安省	-8359
府知府	-8360
拉丁语	-8361
特斯	-8362
ott	-8363
多涅	-8364
深受	-8365
风格的	-8366
为第	-8367
ings	-8368
和阿	-8369
墓地	-8370
岭南	-8371
维希	-8372
的军事	-8373
他成为	-8374
国共内战	-8375
阿拉巴马	-8376
半长轴为	-8377
高速铁路	-8378
▁School	-8379
▁j	-8380
的一场	-8381
武士	-8382
特罗	-8383
人口密度为	-8384
▁麦	-8385
安达	-8386
ream	-8387
日和	-8388
皆有	-8389
师范学校	-8390
后代	-8391
单行	-8392
葡萄酒	-8393
北约	-8394
替补	-8395
绘入地图	-8396
县名	-8397
塔基	-8398
建造的	-8399
阿尔及利亚	-8400
中和	-8401
大力	-8402
实习	-8403
放映	-8404
拼音	-8405
结识	-8406
保定	-8407
大将	-8408
阵营	-8409
现金	-8410
年完成	-8411
足球超级联赛	-8412
光禄	-8413
键盘	-8414
作品中	-8415
西伯利亚	-8416
提倡	-8417
是他	-8418
每月	-8419
负担	-8420
部下	-8421
▁Ad	-8422
吉士	-8423
土木	-8424
资格赛	-8425
▁韩	-8426
起兵	-8427
双向	-8428
涡轮	-8429
化学式为	-8430
汗国	-8431
港区	-8432
证券交易所	-8433
绑架	-8434
译名	-8435
最高点为	-8436
全境	-8437
木齐	-8438
欣赏	-8439
一般的	-8440
时装	-8441
一组	-8442
渔业	-8443
碰撞	-8444
堡垒	-8445
普森	-8446
集中在	-8447
郡的	-8448
那时	-8449
沃夫	-8450
位于台湾	-8451
神的	-8452
不含	-8453
怎么	-8454
皮埃尔	-8455
的基础上	-8456
制造的	-8457
暴动	-8458
描述了	-8459
看起来	-8460
乐坛	-8461
五人	-8462
腹部	-8463
埃塞俄比亚	-8464
初始	-8465
普里	-8466
部位	-8467
船舶	-8468
由该	-8469
公里处	-8470
民主派	-8471
沙特阿拉伯	-8472
CS	-8473
GO	-8474
全新	-8475
死者	-8476
,,	-8477
介入	-8478
生母	-8479
连锁	-8480
见面	-8481
灵顿	-8482
群的	-8483
贩卖	-8484
热带低气压	-8485
新几内亚	-8486
耶路撒冷	-8487
▁迪	-8488
各界	-8489
骨骼	-8490
enc	-8491
合资	-8492
孔子	-8493
接待	-8494
摄政	-8495
占地面积	-8496
▁费	-8497
位于日本	-8498
德克萨斯州	-8499
是其	-8500
站名	-8501
该小行星于	-8502
的轨道半长轴为	-8503
保健	-8504
处处长	-8505
绕太阳运	-8506
奥多	-8507
条纹	-8508
洋基	-8509
接手	-8510
生理	-8511
酒吧	-8512
东与	-8513
前夕	-8514
该年	-8515
近平	-8516
是一颗绕太阳运	-8517
GN	-8518
老虎	-8519
是一颗绕太阳运转的小行星	-8520
县市	-8521
多瓦	-8522
太极	-8523
电铁	-8524
位列	-8525
偶尔	-8526
国歌	-8527
同进士出身	-8528
下去	-8529
小孩	-8530
两年后	-8531
乘车	-8532
该村	-8533
▁法	-8534
消耗	-8535
处死	-8536
干预	-8537
军政	-8538
位置是	-8539
的事情	-8540
属性	-8541
委员会主任	-8542
体字	-8543
交通大学	-8544
▁吕	-8545
原声	-8546
全民	-8547
组件	-8548
数次	-8549
多尔多涅	-8550
所著	-8551
的无	-8552
历史沿革	-8553
cm	-8554
年第	-8555
灾害	-8556
登山	-8557
驻守	-8558
发源于	-8559
三重	-8560
生殖	-8561
──	-8562
▁夏	-8563
峡谷	-8564
料理	-8565
加索	-8566
街区	-8567
台大	-8568
停办	-8569
将军澳	-8570
▁松	-8571
》)	-8572
会将	-8573
反对派	-8574
一至五	-8575
上层	-8576
的一员	-8577
ha	-8578
日食	-8579
酒精	-8580
了一种	-8581
左侧	-8582
贫困	-8583
打入	-8584
单曲榜	-8585
位居	-8586
而有	-8587
阿斯	-8588
的湖泊	-8589
反击	-8590
学园	-8591
▁弗	-8592
人口变化	-8593
金额	-8594
夫斯基	-8595
决心	-8596
处罚	-8597
嫁给	-8598
明尼	-8599
激进	-8600
mus	-8601
bo	-8602
损坏	-8603
小行星带小行星	-8604
ternational	-8605
后任	-8606
不敢	-8607
习近平	-8608
的语言	-8609
而人口密度为每平方千米人	-8610
传动	-8611
伟大的	-8612
北至	-8613
的车站	-8614
这部电影	-8615
oll	-8616
在国际	-8617
为主小行星带小行星	-8618
扩充	-8619
普罗旺斯	-8620
得出	-8621
速率	-8622
在此期间	-8623
各有	-8624
参考资料	-8625
DD	-8626
他州	-8627
克里米亚	-8628
参军	-8629
巴里	-8630
操纵	-8631
过往	-8632
遵守	-8633
信托	-8634
房地产	-8635
ane	-8636
特殊的	-8637
▁田	-8638
巨星	-8639
及时	-8640
星球	-8641
洛林	-8642
出版了	-8643
纳米	-8644
罪行	-8645
匈奴	-8646
曝光	-8647
东部的	-8648
徐州	-8649
下议院	-8650
ition	-8651
诸葛	-8652
采集	-8653
社会的	-8654
华纳	-8655
番茄	-8656
他的父亲	-8657
分局	-8658
用品	-8659
站在	-8660
多家	-8661
rat	-8662
早年生活	-8663
领衔主演	-8664
未被	-8665
的亲	-8666
的电	-8667
八个	-8668
塔拉	-8669
教室	-8670
末端	-8671
年当选	-8672
击中	-8673
普勒	-8674
con	-8675
行使	-8676
普利	-8677
传送	-8678
可汗	-8679
总兵	-8680
翌日	-8681
收回	-8682
欧阳	-8683
NHK	-8684
动物园	-8685
以及其他	-8686
来了	-8687
空袭	-8688
陈列	-8689
辅音	-8690
按察使	-8691
线车站	-8692
illiam	-8693
亦被	-8694
设立了	-8695
文艺复兴	-8696
游乐	-8697
美食	-8698
rag	-8699
博览会	-8700
卜杜	-8701
投入使用	-8702
但被	-8703
中立	-8704
多米	-8705
大堂	-8706
吉隆坡	-8707
舰艇	-8708
马尼	-8709
厕所	-8710
降级	-8711
▁蔡	-8712
区的一个	-8713
新疆维吾尔自治区	-8714
二号	-8715
卡通	-8716
希伯	-8717
裁定	-8718
西蒙	-8719
安定	-8720
浦路	-8721
人口变化图示	-8722
离开了	-8723
公墓	-8724
战机	-8725
黄埔	-8726
佩斯	-8727
务局	-8728
彩虹	-8729
清廷	-8730
年奥运会	-8731
半部	-8732
基础上	-8733
会馆	-8734
开国	-8735
接口	-8736
阿肯色	-8737
溶于	-8738
内外	-8739
暗示	-8740
乌兹	-8741
clude	-8742
警备	-8743
终点站	-8744
党组书记	-8745
丞相	-8746
南北朝	-8747
穆尔	-8748
当地居民	-8749
都要	-8750
拓扑	-8751
捷克斯	-8752
也开始	-8753
杰克逊	-8754
的军队	-8755
中途	-8756
▁Windows	-8757
’,	-8758
波利	-8759
焦点	-8760
财团	-8761
最长的	-8762
外籍	-8763
干涉	-8764
对应的	-8765
弗拉基	-8766
纳州	-8767
半导体	-8768
BR	-8769
同事	-8770
西岸	-8771
的家庭	-8772
总额为	-8773
▁光	-8774
对战	-8775
安德鲁	-8776
古建筑	-8777
所使用的	-8778
报复	-8779
重型	-8780
斯德	-8781
白垩	-8782
远离	-8783
镇守	-8784
Pr	-8785
的大小	-8786
莱茵省	-8787
avid	-8788
CN	-8789
雄性	-8790
板桥	-8791
ner	-8792
拉脱维亚	-8793
巴特	-8794
摩根	-8795
▁De	-8796
足球协会	-8797
龙属	-8798
▁中华人民共和国	-8799
全日	-8800
感谢	-8801
▁赫	-8802
马利	-8803
魁北	-8804
捷克斯洛	-8805
父子	-8806
王国的	-8807
信长	-8808
努斯	-8809
水中	-8810
矿业	-8811
通称	-8812
Game	-8813
》;	-8814
学部	-8815
征召	-8816
说话	-8817
十二厅	-8818
公使	-8819
第二天	-8820
是被	-8821
碎片	-8822
天府乡试	-8823
是用	-8824
药品	-8825
保守党	-8826
前期	-8827
派往	-8828
ena	-8829
下行	-8830
常用的	-8831
一直到	-8832
达到了	-8833
下设	-8834
年及	-8835
的头	-8836
去了	-8837
哈顿	-8838
立面	-8839
Facebook	-8840
介于	-8841
较早	-8842
所在的	-8843
宪兵	-8844
斯克州	-8845
与上	-8846
台语	-8847
采购	-8848
患有	-8849
圣彼得	-8850
年区议会选举	-8851
标签	-8852
桃园市	-8853
航站楼	-8854
还有一	-8855
门外	-8856
就职	-8857
才会	-8858
榜单	-8859
可能的	-8860
orth	-8861
Android	-8862
评选	-8863
与日本	-8864
诸塞	-8865
故乡	-8866
第十四	-8867
之事	-8868
假日	-8869
科特	-8870
Ed	-8871
爪哇	-8872
见证	-8873
身边	-8874
研究的	-8875
车身	-8876
生活的	-8877
害怕	-8878
抽象	-8879
造成了	-8880
内尔	-8881
同期	-8882
着手	-8883
移除	-8884
关系的	-8885
星云	-8886
步骤	-8887
宣布将	-8888
氟化	-8889
流入	-8890
罗曼	-8891
亚利桑那州	-8892
八路军	-8893
侧式月台	-8894
毒品	-8895
决定将	-8896
在场	-8897
哈萨克	-8898
乌鲁木齐	-8899
夏朗德省	-8900
iversity	-8901
直流	-8902
ref	-8903
取代了	-8904
中层水域	-8905
实用	-8906
全市	-8907
底部	-8908
大火	-8909
八十	-8910
演变	-8911
英国皇家	-8912
BE	-8913
弯曲	-8914
痛苦	-8915
中获得	-8916
ave	-8917
占有	-8918
的天	-8919
较小的	-8920
卡尔瓦多	-8921
更大	-8922
艾尔	-8923
路轨	-8924
主打歌	-8925
最高点为海拔高度	-8926
局势	-8927
▁TV	-8928
公司在	-8929
还可以	-8930
▁Br	-8931
型电力机车	-8932
月到	-8933
年时的人口为	-8934
MO	-8935
曼谷	-8936
而该地最高点为海拔高度	-8937
冲锋	-8938
杀了	-8939
鉴定	-8940
颗粒	-8941
装有	-8942
三条	-8943
神奈	-8944
维新	-8945
难度	-8946
变成了	-8947
小平	-8948
秀吉	-8949
狩猎	-8950
Microsoft	-8951
巴嫩	-8952
栖息于	-8953
亚洲电视	-8954
关卡	-8955
金钱	-8956
ett	-8957
ula	-8958
空降	-8959
浏览器	-8960
大名	-8961
景区	-8962
每年平均降雨量	-8963
培育	-8964
地方政府	-8965
回收	-8966
北端	-8967
地区代表	-8968
一直在	-8969
庶吉士	-8970
计划在	-8971
贩售	-8972
les	-8973
副会长	-8974
日启用	-8975
IE	-8976
危害	-8977
因在	-8978
落实	-8979
由中国	-8980
▁沈	-8981
亚马逊	-8982
▁戴	-8983
总统府	-8984
标准的	-8985
部作品	-8986
散文	-8987
安东尼	-8988
式建筑	-8989
栖息在底层水域	-8990
▁宋	-8991
扫描	-8992
墓葬	-8993
马哈	-8994
▁),	-8995
腐败	-8996
二期	-8997
他从	-8998
行程	-8999
西尔	-9000
与新	-9001
瓦兹省	-9002
反复	-9003
疯狂	-9004
史蒂芬	-9005
并表示	-9006
红外	-9007
部件	-9008
布伦	-9009
攻克	-9010
敲出	-9011
音节	-9012
曼联	-9013
分店	-9014
例外	-9015
想到	-9016
马场	-9017
黎巴嫩	-9018
优异	-9019
你们	-9020
概率	-9021
彰化县	-9022
%)	-9023
之家	-9024
惩罚	-9025
南京市	-9026
清晰	-9027
aria	-9028
适用	-9029
考虑到	-9030
全国人大代表	-9031
基亚	-9032
的相关	-9033
巴登	-9034
动机	-9035
ble	-9036
号在	-9037
▁勒	-9038
中的一个	-9039
彩色	-9040
西贡	-9041
是位于美国伊利诺伊州	-9042
El	-9043
人所	-9044
这么	-9045
月下旬	-9046
音乐剧	-9047
的比	-9048
三十年	-9049
内务	-9050
腾讯	-9051
不用	-9052
入读	-9053
助手	-9054
告示牌	-9055
日晚上	-9056
的决定	-9057
哈佛大学	-9058
省委	-9059
雷诺	-9060
已成为	-9061
家长	-9062
罗宾	-9063
是于	-9064
该镇	-9065
《》。	-9066
流体	-9067
在一些	-9068
▁一	-9069
三千	-9070
影集	-9071
生物学家	-9072
直线	-9073
和水	-9074
宗旨	-9075
神户	-9076
不知道	-9077
合作的	-9078
年推出	-9079
相互作用	-9080
对立	-9081
上演	-9082
的一属	-9083
卫斯	-9084
奉天	-9085
arg	-9086
他担任	-9087
不合	-9088
出入	-9089
共青	-9090
厚的	-9091
师团	-9092
的可	-9093
传入	-9094
曼哈顿	-9095
分泌	-9096
河川	-9097
德州	-9098
民生	-9099
迁到	-9100
月参加	-9101
地亚哥	-9102
的地下	-9103
塔斯	-9104
报名	-9105
行省	-9106
▁be	-9107
父亲的	-9108
土著	-9109
煤炭	-9110
处分	-9111
let	-9112
人力	-9113
攻读	-9114
为什么	-9115
活佛	-9116
副市长	-9117
状的	-9118
孚日	-9119
远的	-9120
长时间	-9121
检察院	-9122
TR	-9123
工农	-9124
百合	-9125
顺位	-9126
ops	-9127
出家	-9128
""	-9129
可惜	-9130
He	-9131
当年的	-9132
屏幕	-9133
明清	-9134
职人员	-9135
拉的	-9136
集成	-9137
分会	-9138
探测器	-9139
include	-9140
十九年	-9141
减轻	-9142
TVB	-9143
▁Ed	-9144
年份	-9145
而已	-9146
魁北克	-9147
▁World	-9148
惯例	-9149
文书	-9150
月中旬	-9151
豪华	-9152
投入服务	-9153
政协副主席	-9154
蒂斯	-9155
追随	-9156
接下来	-9157
完成后	-9158
落后	-9159
条件下	-9160
很有	-9161
旅馆	-9162
这使得	-9163
rans	-9164
战绩	-9165
清治	-9166
描述为	-9167
王朝的	-9168
待遇	-9169
月号	-9170
化学家	-9171
位于法国新阿基坦大区	-9172
日间	-9173
琳娜	-9174
传统上	-9175
萨摩	-9176
高压	-9177
))	-9178
卒于	-9179
四周	-9180
该处	-9181
亚特兰	-9182
增至	-9183
顶级	-9184
的球员	-9185
人都	-9186
工资	-9187
水系	-9188
ery	-9189
不过在	-9190
布拉格	-9191
中午	-9192
电荷	-9193
多年的	-9194
伊勒	-9195
和南	-9196
哥本	-9197
学派	-9198
接力	-9199
My	-9200
亦称	-9201
德甲	-9202
显得	-9203
饲养	-9204
由英国	-9205
大和	-9206
皮尔	-9207
格达	-9208
的资料	-9209
捐款	-9210
ement	-9211
先后在	-9212
检察官	-9213
最快	-9214
赛事中	-9215
迎接	-9216
.)	-9217
一事	-9218
仍是	-9219
▁Is	-9220
目的地	-9221
ouse	-9222
不太	-9223
这是一个	-9224
为热带淡水鱼	-9225
青岛市	-9226
国安	-9227
的信	-9228
颗恒星	-9229
委员会副主任	-9230
务段	-9231
生育	-9232
的变化	-9233
▁end	-9234
格鲁吉亚	-9235
OK	-9236
昔日	-9237
中西部	-9238
西南接	-9239
女士	-9240
的石	-9241
ret	-9242
小说家	-9243
社会党	-9244
汉朝	-9245
林肯	-9246
白金	-9247
常住	-9248
开发者	-9249
一片	-9250
为三	-9251
礼仪	-9252
主要以	-9253
,(	-9254
各级文物保护单位	-9255
宋代	-9256
可能指	-9257
的版本	-9258
单行本	-9259
哥本哈根	-9260
军衔	-9261
在外	-9262
主要有	-9263
帮助下	-9264
审理	-9265
炮弹	-9266
的自	-9267
西临	-9268
依法	-9269
庇护	-9270
立为	-9271
属名	-9272
顾客	-9273
年日本	-9274
La	-9275
伊夫	-9276
罗伯	-9277
德国的	-9278
▁富	-9279
号和	-9280
社会科学	-9281
编成	-9282
alk	-9283
佥事	-9284
的下	-9285
加来	-9286
划分为	-9287
该省份为法国西北部	-9288
变体	-9289
剧组	-9290
警务	-9291
巡回赛	-9292
)》	-9293
笔记	-9294
阶层	-9295
aster	-9296
Co	-9297
▁史	-9298
将被	-9299
前去	-9300
战列	-9301
染色体	-9302
讲座	-9303
亦于	-9304
汉口	-9305
米勒	-9306
分歧	-9307
结盟	-9308
草科	-9309
联合台风警报	-9310
UR	-9311
一体	-9312
一架	-9313
北上	-9314
沉没	-9315
方面军	-9316
的最大	-9317
发放	-9318
就此	-9319
绝大多数	-9320
机身	-9321
泉州	-9322
国防军	-9323
的任务	-9324
人群	-9325
对该	-9326
球衣	-9327
ero	-9328
雅克	-9329
成员国	-9330
手下	-9331
攻陷	-9332
灌溉	-9333
狭窄	-9334
站是	-9335
端点	-9336
For	-9337
一个人	-9338
鉴于	-9339
联合台风警报中心	-9340
放大	-9341
最长	-9342
诺尔	-9343
一首	-9344
土库	-9345
iro	-9346
日上映	-9347
reat	-9348
在阿	-9349
国家杯	-9350
足球锦标赛	-9351
发展出	-9352
改成	-9353
花岗	-9354
译本	-9355
狙击	-9356
家族的	-9357
一线	-9358
天正	-9359
过去的	-9360
SD	-9361
中兴	-9362
阵地	-9363
Rob	-9364
慢慢	-9365
的制作	-9366
巡回演唱会	-9367
分部	-9368
清洁	-9369
写真	-9370
失业	-9371
护士	-9372
进出	-9373
一套	-9374
〉、〈	-9375
则认为	-9376
示威者	-9377
":	-9378
卫斯理	-9379
系主任	-9380
塔克	-9381
被誉为	-9382
钓鱼	-9383
▁Tr	-9384
法国的	-9385
▁One	-9386
击沉	-9387
路的	-9388
年轻人	-9389
学业	-9390
被判	-9391
连串	-9392
决赛以	-9393
隆庆	-9394
致命	-9395
牡丹	-9396
早已	-9397
间隔	-9398
的过程中	-9399
ora	-9400
注射	-9401
和歌	-9402
绰号	-9403
万年	-9404
军籍	-9405
票价	-9406
▁Or	-9407
但这	-9408
商会	-9409
保留了	-9410
一段时间	-9411
师范学院	-9412
零件	-9413
人马	-9414
年统计	-9415
▁'	-9416
两地	-9417
洞穴	-9418
总署	-9419
斯科特	-9420
研究人员	-9421
羽球	-9422
录音室专辑	-9423
侵蚀	-9424
双人	-9425
备受	-9426
位于南	-9427
安大略	-9428
研究室	-9429
原属	-9430
武力	-9431
神庙	-9432
相应的	-9433
你的	-9434
域名	-9435
怪物	-9436
ital	-9437
中也	-9438
修筑	-9439
aris	-9440
将该	-9441
混血	-9442
里尔	-9443
捷克斯洛伐克	-9444
New	-9445
预言	-9446
音乐录影带	-9447
东莞	-9448
底中层水域	-9449
四种	-9450
著称	-9451
合唱团	-9452
有效的	-9453
oz	-9454
关押	-9455
千瓦	-9456
▁北京	-9457
官方网站	-9458
形势	-9459
完毕	-9460
位素	-9461
少卿	-9462
毒性	-9463
灯塔	-9464
联会	-9465
逃到	-9466
改建为	-9467
子孙	-9468
的乡	-9469
乌兹别	-9470
修正案	-9471
的价格	-9472
科大学	-9473
接下来的	-9474
▁潘	-9475
篮板	-9476
NO	-9477
出色	-9478
和马	-9479
▁青	-9480
推迟	-9481
艺员	-9482
经过本地区	-9483
服饰	-9484
注意到	-9485
的弟弟	-9486
句话	-9487
无需	-9488
说的	-9489
第二大	-9490
▁卡尔	-9491
九龙巴士	-9492
一处	-9493
和高	-9494
最好	-9495
干道	-9496
雌性	-9497
比利牛斯省	-9498
临近	-9499
和其	-9500
天水	-9501
重叠	-9502
内政部	-9503
山峰	-9504
特朗普	-9505
仅在	-9506
信义	-9507
民主主义人民共和国	-9508
亚太	-9509
头角	-9510
另一位	-9511
的建议	-9512
生下	-9513
第三代	-9514
anth	-9515
Wh	-9516
在地	-9517
帕克	-9518
博士生	-9519
部分地区	-9520
将此	-9521
恶劣	-9522
而出	-9523
贯穿	-9524
min	-9525
记者会	-9526
山乡	-9527
为辐鳍鱼纲鲤	-9528
根据地	-9529
七十	-9530
普雷	-9531
副校长	-9532
乐曲	-9533
是新	-9534
ral	-9535
发生后	-9536
玛格丽	-9537
〉,	-9538
东晋	-9539
指南	-9540
是匈牙利	-9541
学界	-9542
万立方米	-9543
理会	-9544
年建成	-9545
维埃纳省	-9546
发源自	-9547
爱好者	-9548
党派	-9549
接到	-9550
的老	-9551
最终于	-9552
结束了	-9553
方针	-9554
ila	-9555
正式成立	-9556
获得男子	-9557
朝鲜民主主义人民共和国	-9558
与李	-9559
海拔为	-9560
共用	-9561
后人	-9562
游击队	-9563
下诏	-9564
多项式	-9565
审议	-9566
模糊	-9567
遵循	-9568
ael	-9569
后面	-9570
塑料	-9571
铸造	-9572
他也是	-9573
LO	-9574
以致	-9575
开采	-9576
▁()	-9577
线索	-9578
Jo	-9579
安市	-9580
聚居	-9581
旺角	-9582
单纯	-9583
招生	-9584
阿拉巴马州	-9585
丽丝	-9586
盖尔	-9587
战事	-9588
纠纷	-9589
罗杰	-9590
一直是	-9591
蔬菜	-9592
迪南	-9593
战斗中	-9594
上是	-9595
磁场	-9596
会堂	-9597
弗莱	-9598
法兰克福	-9599
度过	-9600
电影院	-9601
朝日	-9602
isc	-9603
加勒比海	-9604
管理委员会	-9605
自愿	-9606
希腊语	-9607
的演出	-9608
只会	-9609
妈祖	-9610
chn	-9611
的个人	-9612
▁花	-9613
在海	-9614
联盟的	-9615
滨海塞纳	-9616
之星	-9617
总队	-9618
楼宇	-9619
▁wh	-9620
《》(	-9621
魔术	-9622
教育家	-9623
副秘书长	-9624
遇上	-9625
多年来	-9626
的数量	-9627
获得的	-9628
分别于	-9629
的特殊	-9630
;),	-9631
售票机	-9632
超市	-9633
市政厅	-9634
子和	-9635
年又	-9636
多媒体	-9637
因为在	-9638
ener	-9639
二十世纪	-9640
锦赛	-9641
被列入	-9642
该省份为法国北部内陆省份	-9643
ky	-9644
出去	-9645
新星	-9646
车厂	-9647
东面	-9648
中日	-9649
写了	-9650
柔道	-9651
ray	-9652
早于	-9653
现状	-9654
加的	-9655
创造了	-9656
一中	-9657
植被	-9658
等同	-9659
▁方	-9660
处在	-9661
省政府	-9662
事发	-9663
像素	-9664
二十三年	-9665
首部	-9666
纳的	-9667
卓越	-9668
多部	-9669
北欧	-9670
奥托	-9671
四位	-9672
马萨诸塞	-9673
:,	-9674
包裹	-9675
管弦	-9676
▁Cor	-9677
by	-9678
时有	-9679
深海	-9680
要素	-9681
贡士	-9682
都统	-9683
影评人	-9684
并把	-9685
巴赫河	-9686
杭州市	-9687
OH	-9688
▁冯	-9689
斑点	-9690
一个月	-9691
杆菌	-9692
知名度	-9693
有轨电车	-9694
上传	-9695
楚国	-9696
年出生于	-9697
演绎	-9698
中南	-9699
公正	-9700
美拉	-9701
乒乓球	-9702
的组织	-9703
党内	-9704
演技	-9705
多条	-9706
会导致	-9707
诺维奇	-9708
制服	-9709
仍未	-9710
总值	-9711
排放	-9712
摔跤	-9713
俄罗斯联邦	-9714
崛起	-9715
活跃于	-9716
分的	-9717
眼镜	-9718
PA	-9719
”。《	-9720
最受欢迎	-9721
避难	-9722
继承了	-9723
曲棍	-9724
月间	-9725
枢密	-9726
真理	-9727
逃往	-9728
获得一枚金牌	-9729
mp	-9730
多姆	-9731
镇的	-9732
该陨坑	-9733
清晨	-9734
墨尔	-9735
宠物	-9736
拘捕	-9737
一面	-9738
中路	-9739
结尾	-9740
长城	-9741
曾参与	-9742
富有	-9743
巡演	-9744
的反应	-9745
话题	-9746
的一系列	-9747
DE	-9748
考证	-9749
住户	-9750
等价	-9751
约束	-9752
“”,	-9753
标志着	-9754
伯里	-9755
种种	-9756
长崎	-9757
ute	-9758
辅导	-9759
年在位	-9760
却被	-9761
李氏	-9762
ham	-9763
考量	-9764
一颗	-9765
依次	-9766
楼高	-9767
世凯	-9768
很高	-9769
运载火箭	-9770
编修	-9771
)、“	-9772
号班机	-9773
Java	-9774
▁Enter	-9775
拨款	-9776
中亚	-9777
县负责管辖	-9778
大洋	-9779
开拓	-9780
副教授	-9781
步兵师	-9782
假期	-9783
订购	-9784
进制	-9785
法尔茨	-9786
++	-9787
全身	-9788
合适	-9789
技术的	-9790
丽的	-9791
冰原	-9792
在某些	-9793
会面	-9794
在全球	-9795
鲶形目	-9796
吉尼亚州	-9797
戏曲	-9798
筹建	-9799
是当时	-9800
.※	-9801
再生	-9802
辽东	-9803
ren	-9804
发电机	-9805
并将其	-9806
的冠军	-9807
快车	-9808
二十四	-9809
以下的	-9810
we	-9811
▁–	-9812
▁希	-9813
片尾	-9814
有线电视	-9815
民俗	-9816
▁Stud	-9817
ike	-9818
额外的	-9819
位于法国奥克西塔尼大区	-9820
之孙	-9821
优化	-9822
学和	-9823
童军	-9824
单车	-9825
冠状病毒病疫情	-9826
外星	-9827
补偿	-9828
tain	-9829
拆卸	-9830
监控	-9831
将近	-9832
清理	-9833
站点	-9834
背部	-9835
的铁路	-9836
变动	-9837
沙滩	-9838
地下铁	-9839
的声音	-9840
参考文献	-9841
迁居	-9842
普通话	-9843
阿肯色州	-9844
专属	-9845
兼容	-9846
air	-9847
商学院	-9848
王府	-9849
一小时	-9850
的状态	-9851
小提琴	-9852
宦官	-9853
iu	-9854
光年	-9855
水准	-9856
厚度	-9857
尼基	-9858
瑟琳	-9859
后成为	-9860
小时的	-9861
在三	-9862
女友	-9863
是罗马尼亚	-9864
LA	-9865
▁.	-9866
祈祷	-9867
但也有	-9868
经历了	-9869
Fran	-9870
成名	-9871
普顿	-9872
▁Co	-9873
为纪念	-9874
▁神	-9875
复出	-9876
宣誓	-9877
局面	-9878
黑山	-9879
VID	-9880
▁by	-9881
阿姆斯特	-9882
利润	-9883
阻碍	-9884
除非	-9885
希伯来	-9886
否决	-9887
民族主义	-9888
羽毛球锦标赛	-9889
伴侣	-9890
塔利	-9891
珍妮	-9892
编为	-9893
玻利维亚	-9894
年幼	-9895
苏达	-9896
门下	-9897
是来自	-9898
社会主义共和国	-9899
损伤	-9900
历程	-9901
量产	-9902
引起的	-9903
马拉松	-9904
高等法院	-9905
写为	-9906
在对	-9907
拓展	-9908
温暖	-9909
华德	-9910
将来	-9911
山城	-9912
感受	-9913
显然	-9914
莱尔	-9915
蒋中正	-9916
努尔	-9917
满意	-9918
为人知	-9919
亿港元	-9920
▁贾	-9921
光的	-9922
列车的	-9923
曾多次	-9924
和解	-9925
致使	-9926
足够的	-9927
万名	-9928
文凭	-9929
作客	-9930
片中	-9931
▁兰	-9932
借用	-9933
大兴	-9934
lan	-9935
第二次世界大战期间	-9936
后由	-9937
的二	-9938
特急	-9939
世纪时	-9940
外交关系	-9941
场馆	-9942
新教	-9943
民意	-9944
营造	-9945
转运	-9946
的纪录	-9947
为辐鳍鱼纲鲶形目	-9948
它被	-9949
枪械	-9950
直辖市	-9951
代尔	-9952
延期	-9953
艺术学院	-9954
园林	-9955
Or	-9956
主机	-9957
留守	-9958
圣公会	-9959
加州大学	-9960
水县	-9961
曾经在	-9962
上行	-9963
车票	-9964
PO	-9965
反响	-9966
后备	-9967
崩溃	-9968
弹匣	-9969
欢乐	-9970
的副	-9971
金星	-9972
预留	-9973
族自治县	-9974
LC	-9975
森特	-9976
了一座	-9977
及香港	-9978
县立	-9979
现名	-9980
▁世界	-9981
一台	-9982
世的	-9983
双重	-9984
垄断	-9985
缩小	-9986
ino	-9987
结构的	-9988
袁世凯	-9989
中毒	-9990
东岸	-9991
港岛	-9992
中文版	-9993
吐蕃	-9994
漫威	-9995
党部	-9996
划为	-9997
旗舰	-9998
政事	-9999
比斯	-10000
食用鱼	-10001
年将	-10002
正当	-10003
科雷	-10004
晚会	-10005
很容易	-10006
控制的	-10007
敌军	-10008
离职	-10009
rol	-10010
Xbox	-10011
日推出	-10012
抽签	-10013
棕色	-10014
后为	-10015
和第	-10016
巴德	-10017
索瓦	-10018
波多	-10019
民兵	-10020
讲话	-10021
预警	-10022
群岛的	-10023
潜水	-10024
独裁	-10025
教科文	-10026
▁穆	-10027
永安	-10028
民主共和国	-10029
位于法国奥弗涅	-10030
地层	-10031
该项目	-10032
net	-10033
专注于	-10034
住宅区	-10035
左岸	-10036
段的	-10037
下属的	-10038
中国政府	-10039
插入	-10040
鸦片	-10041
简称为	-10042
店铺	-10043
}-,	-10044
剧场版	-10045
berg	-10046
初次	-10047
它可以	-10048
举重	-10049
水道	-10050
其他人	-10051
下表	-10052
六甲	-10053
赞赏	-10054
元的	-10055
za	-10056
四军	-10057
占领了	-10058
合并而成	-10059
物件	-10060
门的	-10061
中使用	-10062
明星赛	-10063
其次	-10064
达赖	-10065
过来	-10066
▁as	-10067
其主要	-10068
埃纳省	-10069
跟着	-10070
开始于	-10071
▁°	-10072
南华	-10073
意指	-10074
曼恩	-10075
▁桑	-10076
马赛	-10077
的节目	-10078
atus	-10079
这张专辑	-10080
是南极洲的山峰	-10081
军校	-10082
电源	-10083
erv	-10084
波罗的海	-10085
的音	-10086
硬棘	-10087
▁尤	-10088
默尔特	-10089
化妆	-10090
有一定	-10091
纽约时报	-10092
Me	-10093
提督	-10094
诠释	-10095
年夏季奥运会	-10096
倡议	-10097
水果	-10098
可作为	-10099
摄影师	-10100
武汉市	-10101
人间	-10102
万人次	-10103
卡斯特	-10104
参与者	-10105
综合性	-10106
个月后	-10107
共青团	-10108
件事	-10109
嫌疑	-10110
引力	-10111
是属于	-10112
容器	-10113
掌管	-10114
普法尔茨	-10115
代言	-10116
先行	-10117
大地震	-10118
的情形	-10119
野战军	-10120
丧生	-10121
右岸	-10122
录取	-10123
的意见	-10124
Tr	-10125
伏尔	-10126
山村	-10127
客量	-10128
巩固	-10129
马上	-10130
的现象	-10131
卡洛	-10132
密西	-10133
获颁	-10134
巴士总站	-10135
星光	-10136
祖母	-10137
藏书	-10138
以来的	-10139
等人的	-10140
ts	-10141
不动	-10142
目前已	-10143
▁曹	-10144
届中央	-10145
▁com	-10146
东至	-10147
关心	-10148
▁陆	-10149
长途	-10150
首长	-10151
://	-10152
人口的	-10153
原本的	-10154
家里	-10155
南边	-10156
命中	-10157
海滨	-10158
基础设施	-10159
南宁	-10160
水晶	-10161
线与	-10162
"、	-10163
尾巴	-10164
招收	-10165
做的	-10166
吸血	-10167
两度	-10168
攻下	-10169
约旦	-10170
被称作	-10171
拍卖	-10172
演习	-10173
福克	-10174
总冠军	-10175
构想	-10176
铜锣	-10177
Car	-10178
阿拉伯语	-10179
填词	-10180
钟楼	-10181
强烈的	-10182
欧美	-10183
军中	-10184
罗尔	-10185
道具	-10186
东北与	-10187
占总人口	-10188
海口	-10189
埼玉	-10190
科隆	-10191
邪恶	-10192
代表性	-10193
多面体	-10194
总公司	-10195
不应	-10196
向前	-10197
水手	-10198
不大	-10199
支配	-10200
融入	-10201
研究者	-10202
弗拉基米尔	-10203
MB	-10204
该堂	-10205
金华	-10206
了一场	-10207
和国家	-10208
中国传统	-10209
▁温	-10210
丰田	-10211
萤幕	-10212
辩护	-10213
第一期	-10214
松江	-10215
大学士	-10216
世界大赛	-10217
奈良	-10218
汇入	-10219
而其	-10220
高温	-10221
的历史年代为	-10222
是与	-10223
费尔德	-10224
金像奖	-10225
忽略	-10226
出色的	-10227
年去世	-10228
基层	-10229
山路	-10230
比特	-10231
满贯	-10232
的行动	-10233
兼职	-10234
的名	-10235
的规定	-10236
嘉义县	-10237
月正式	-10238
族自治州	-10239
摩斯	-10240
男爵	-10241
肯尼迪	-10242
有限责任	-10243
型柴油机车	-10244
该市有人口	-10245
ka	-10246
分行	-10247
only	-10248
中级	-10249
嘉兴	-10250
沿途	-10251
猎人	-10252
缺少	-10253
车人次为	-10254
FA	-10255
挑选	-10256
之间的关系	-10257
位于香港	-10258
乃至	-10259
分发	-10260
收益	-10261
之所以	-10262
创建于	-10263
还没有	-10264
GM	-10265
刻有	-10266
采纳	-10267
阳郡	-10268
uro	-10269
影响了	-10270
的地面	-10271
的花	-10272
布列塔尼	-10273
专题	-10274
多少	-10275
监测	-10276
由于其	-10277
约翰逊	-10278
yr	-10279
夺回	-10280
运转	-10281
uch	-10282
附加赛	-10283
后来成为	-10284
▁or	-10285
铁道部	-10286
马来亚	-10287
联邦政府	-10288
奇迹	-10289
毛里	-10290
蒂亚	-10291
lix	-10292
rand	-10293
分布于中国大陆的	-10294
gh	-10295
击出	-10296
她于	-10297
浦东	-10298
不存在	-10299
型机车	-10300
受邀	-10301
年均	-10302
是通过	-10303
万美元的	-10304
取景	-10305
这款	-10306
所罗门	-10307
Twit	-10308
)&	-10309
国营	-10310
日圆	-10311
》:“	-10312
玩法	-10313
古罗马	-10314
阮福	-10315
预赛	-10316
htt	-10317
inc	-10318
加来海峡	-10319
健身	-10320
现役	-10321
归属	-10322
相接	-10323
世纪中	-10324
和谐	-10325
德米	-10326
贪污	-10327
水源	-10328
照明	-10329
育有	-10330
▁km	-10331
性行为	-10332
追溯至	-10333
上以	-10334
光复	-10335
各式	-10336
处女	-10337
比起	-10338
里尼	-10339
候车室	-10340
教区主教	-10341
段时间	-10342
圣彼得堡	-10343
该属	-10344
耶维奇	-10345
仅存	-10346
科斯	-10347
于美国	-10348
所采用	-10349
第三季	-10350
同样的	-10351
八强	-10352
密集	-10353
石灰	-10354
fer	-10355
更好的	-10356
▁戈	-10357
检讨	-10358
大屠杀	-10359
草本	-10360
最后在	-10361
多达	-10362
平日	-10363
接纳	-10364
莱恩	-10365
台湾总督府	-10366
中华人民共和国驻	-10367
契约	-10368
拘留	-10369
egin	-10370
没收	-10371
着陆	-10372
如下表	-10373
星期六	-10374
赞成	-10375
财政部	-10376
大王	-10377
转到	-10378
音乐节	-10379
iver	-10380
几率	-10381
索沃	-10382
迪克	-10383
一块	-10384
哺乳动物	-10385
两家	-10386
被人	-10387
贵的	-10388
这就是	-10389
不同的是	-10390
▁Love	-10391
▁萧	-10392
举办了	-10393
人均	-10394
加特	-10395
逃走	-10396
的特性	-10397
新鲜	-10398
闪电	-10399
第二百	-10400
年以后	-10401
年之后	-10402
祖国	-10403
amb	-10404
淘汰赛	-10405
遇见	-10406
一方面	-10407
万英镑	-10408
圣地亚哥	-10409
镶嵌	-10410
首周	-10411
云南等地	-10412
不够	-10413
马匹	-10414
脉冲	-10415
与同	-10416
了其	-10417
被指	-10418
了一份	-10419
的一个村	-10420
会合	-10421
感应	-10422
研讨	-10423
阿密	-10424
餐饮	-10425
诺克	-10426
到来	-10427
民事	-10428
有一座	-10429
的事件	-10430
养殖	-10431
个镇	-10432
字子	-10433
tel	-10434
目前的	-10435
历时	-10436
搜集	-10437
送给	-10438
然而在	-10439
IX	-10440
SU	-10441
喷射	-10442
太和	-10443
真空	-10444
大阪府	-10445
中文大学	-10446
业主	-10447
建的	-10448
联队	-10449
被授予	-10450
昵称	-10451
达科	-10452
分治	-10453
逃脱	-10454
ATP	-10455
▁Ro	-10456
▁Music	-10457
Open	-10458
外借	-10459
五千	-10460
位于该国东部	-10461
%、	-10462
向上	-10463
若望	-10464
.,	-10465
兵器	-10466
驻华	-10467
图曼	-10468
它与	-10469
至元	-10470
除外	-10471
归还	-10472
的平均	-10473
传达	-10474
假名	-10475
才是	-10476
故宫	-10477
ira	-10478
是位于美国印地安纳州	-10479
交互	-10480
轻型	-10481
年夏天	-10482
渤海	-10483
▁中华民国	-10484
从中	-10485
名人堂	-10486
史记	-10487
学说	-10488
结晶	-10489
剥夺	-10490
中位	-10491
现行	-10492
年创立	-10493
上书	-10494
支出	-10495
腾堡	-10496
吉他手	-10497
感兴趣	-10498
▁明	-10499
不见	-10500
和三	-10501
家村	-10502
礼堂	-10503
网络上	-10504
四十二年	-10505
正式的	-10506
ield	-10507
大地	-10508
利比亚	-10509
布鲁克	-10510
遇到了	-10511
巴林	-10512
找到了	-10513
不利	-10514
曾孙	-10515
武将	-10516
甲板	-10517
osa	-10518
潮州	-10519
火焰	-10520
率兵	-10521
ors	-10522
way	-10523
ya	-10524
移至	-10525
退伍	-10526
电视网	-10527
Se	-10528
整修	-10529
可以得到	-10530
凯特	-10531
契丹	-10532
控股有限公司	-10533
丑闻	-10534
缩写为	-10535
集中营	-10536
富豪	-10537
风波	-10538
▁Go	-10539
墨尔本	-10540
更高的	-10541
的控制	-10542
(《	-10543
一批	-10544
的理论	-10545
执照	-10546
时在	-10547
模块	-10548
电器	-10549
布里斯	-10550
了自己的	-10551
站为	-10552
乌拉圭	-10553
武田	-10554
每秒	-10555
阿德	-10556
ION	-10557
▁le	-10558
!》	-10559
SC	-10560
推举	-10561
警卫	-10562
▁Bl	-10563
别人	-10564
潮湿	-10565
位于法国勃艮第	-10566
南洋	-10567
南道	-10568
工学院	-10569
日期间	-10570
最终以	-10571
复旦	-10572
屋邨	-10573
查询	-10574
▁该	-10575
太保	-10576
尔巴	-10577
开元	-10578
续约	-10579
的记载	-10580
阿卜杜	-10581
侍中	-10582
辛亥	-10583
率领的	-10584
第二名	-10585
一艘	-10586
央视	-10587
献给	-10588
俄军	-10589
修缮	-10590
机型	-10591
芒什	-10592
亮的	-10593
在一次	-10594
后再	-10595
村的	-10596
汝拉省	-10597
是世界上	-10598
弹性	-10599
评分	-10600
选项	-10601
鹦鹉	-10602
有期徒刑	-10603
Super	-10604
师生	-10605
政法	-10606
弗雷德	-10607
许可证	-10608
和他	-10609
市立	-10610
溶剂	-10611
隆头	-10612
技术学院	-10613
站和	-10614
获准	-10615
模式种	-10616
搜寻	-10617
者是	-10618
上空	-10619
的重	-10620
性鱼类	-10621
便会	-10622
总数	-10623
沙咀	-10624
玉米	-10625
科普	-10626
曾参加	-10627
▁锡	-10628
人心	-10629
阿勒	-10630
Col	-10631
oon	-10632
竞争对手	-10633
CT	-10634
并列	-10635
全能	-10636
总编辑	-10637
的公司	-10638
Qu	-10639
情人	-10640
Red	-10641
有不少	-10642
相隔	-10643
空难	-10644
母亲是	-10645
肯塔基	-10646
科罗拉多州	-10647
为四	-10648
暴雨	-10649
苏军	-10650
有助于	-10651
制裁	-10652
第四次	-10653
始祖	-10654
家康	-10655
温和	-10656
its	-10657
的权利	-10658
了在	-10659
客场	-10660
的人士	-10661
精神病	-10662
批复同意	-10663
华沙	-10664
的文章	-10665
石刻	-10666
缘故	-10667
分公司	-10668
关西	-10669
延长至	-10670
摩托车	-10671
更好	-10672
总教练	-10673
的核心	-10674
是中	-10675
莉丝	-10676
erg	-10677
年度最佳	-10678
资本主义	-10679
威斯特	-10680
是根据	-10681
的需求	-10682
PG	-10683
湖区	-10684
迈阿密	-10685
安东尼奥	-10686
在全国	-10687
塞浦路	-10688
大概	-10689
林区	-10690
都以	-10691
外语	-10692
年内	-10693
花科	-10694
公布为	-10695
的法律	-10696
十余	-10697
原定	-10698
麦可	-10699
满洲国	-10700
石器时代	-10701
中止	-10702
中担任	-10703
刚刚	-10704
幽默	-10705
延至	-10706
签名	-10707
大学和	-10708
周年纪念	-10709
巡视	-10710
迪尔	-10711
骚扰	-10712
就开始	-10713
节目的	-10714
诺曼底大区	-10715
之旅	-10716
复数	-10717
龙省	-10718
尔斯克	-10719
yp	-10720
随后在	-10721
马达加斯	-10722
▁六	-10723
层次	-10724
击落	-10725
打点	-10726
氧气	-10727
玄宗	-10728
日发布	-10729
石家庄	-10730
▁孔	-10731
承受	-10732
标识	-10733
奥委会	-10734
SH	-10735
的字	-10736
乐章	-10737
ision	-10738
始发	-10739
座的	-10740
误差	-10741
国家和	-10742
lack	-10743
瓦斯	-10744
案的	-10745
泰山	-10746
投诉	-10747
航运	-10748
▁//	-10749
计划于	-10750
停泊	-10751
西克	-10752
要在	-10753
此站是	-10754
分布于非洲	-10755
气氛	-10756
▁邓	-10757
参战	-10758
广大	-10759
凯尔	-10760
噶尔	-10761
挑战赛	-10762
▁钱	-10763
北韩	-10764
这个词	-10765
日本帝国	-10766
轻松	-10767
内设有	-10768
却是	-10769
方济	-10770
一郎	-10771
纪委	-10772
已故	-10773
世界纪录	-10774
为界	-10775
结业	-10776
籍贯	-10777
小组赛	-10778
▁魏	-10779
一道	-10780
干旱	-10781
亦改制为	-10782
均匀	-10783
汉人	-10784
路与	-10785
卡洛斯	-10786
在这些	-10787
日内瓦	-10788
沙尔	-10789
注重	-10790
文学奖	-10791
英联邦	-10792
克洛	-10793
相遇	-10794
都城	-10795
的香港	-10796
蜿蜒	-10797
▁ex	-10798
属下的一个变种	-10799
存活	-10800
属下	-10801
志明	-10802
电讯	-10803
编纂	-10804
▁中国人民解放军	-10805
▁;	-10806
州区	-10807
的观点	-10808
▁Bar	-10809
两栖	-10810
会战	-10811
分隔	-10812
纯粹	-10813
be	-10814
一万	-10815
追赠	-10816
倒塌	-10817
揭露	-10818
新干线	-10819
转向架	-10820
经济发展	-10821
政治部主任	-10822
既有	-10823
此种	-10824
田中	-10825
补选	-10826
户外	-10827
石勒	-10828
福斯	-10829
所组成	-10830
歌曲的	-10831
状元	-10832
肖像	-10833
可以追溯到	-10834
碳酸	-10835
自幼	-10836
东临上	-10837
美联	-10838
(,,	-10839
图斯	-10840
换取	-10841
赛后	-10842
偏西	-10843
民建	-10844
明尼苏达	-10845
拉格	-10846
知州	-10847
藏传佛教	-10848
该省份为法国西南部	-10849
奠基	-10850
游玩	-10851
王氏	-10852
维特	-10853
▁sp	-10854
的居民	-10855
▁短	-10856
户籍	-10857
现址	-10858
ript	-10859
马克思主义	-10860
分手	-10861
的五	-10862
会见	-10863
布什	-10864
此书	-10865
者在	-10866
转化为	-10867
以至	-10868
瓦尔德	-10869
引发了	-10870
目标是	-10871
营地	-10872
升降机	-10873
亦曾	-10874
总领事馆	-10875
▁洪	-10876
住所	-10877
振兴	-10878
缺点	-10879
藩主	-10880
市委书记	-10881
同年五月	-10882
"|	-10883
RA	-10884
line	-10885
职棒大联盟	-10886
东正	-10887
都尉	-10888
道格拉斯	-10889
▁彭	-10890
日进行	-10891
科维奇	-10892
▁丁	-10893
东德	-10894
新庄	-10895
盛行	-10896
大区的	-10897
巴比	-10898
静冈	-10899
也就是说	-10900
工程学院	-10901
之役	-10902
牛顿	-10903
唱歌	-10904
齐国	-10905
所需的	-10906
这是因为	-10907
刺杀	-10908
北岸	-10909
很好	-10910
用法	-10911
ines	-10912
松山	-10913
三角洲	-10914
伦西亚	-10915
人对	-10916
篮球队	-10917
但未	-10918
布达	-10919
征收	-10920
海平面	-10921
的开发	-10922
二十二年	-10923
Ne	-10924
奥会	-10925
跳水	-10926
第三届	-10927
强奸	-10928
虐待	-10929
涅夫勒	-10930
首府设于	-10931
外科	-10932
岛峰	-10933
西边	-10934
半决赛	-10935
却在	-10936
无穷	-10937
样式	-10938
赞扬	-10939
埃斯	-10940
民营	-10941
羽联	-10942
伊泽尔省	-10943
有限责任公司	-10944
分布在中国大陆的	-10945
贵妃	-10946
马特	-10947
的的	-10948
交界处	-10949
的球队	-10950
角色的	-10951
地理位置	-10952
羽毛球国际赛	-10953
海战	-10954
萨尔特	-10955
中央政府	-10956
制动	-10957
有趣	-10958
省级文物保护单位	-10959
是位于美国加利福尼亚州	-10960
打出	-10961
▁扎	-10962
文档	-10963
是第	-10964
达斯	-10965
劳伦斯	-10966
男友	-10967
Con	-10968
东印度	-10969
罢免	-10970
Ex	-10971
号召	-10972
率部	-10973
的旧	-10974
ior	-10975
馆长	-10976
稳定性	-10977
之人	-10978
和华	-10979
学研究	-10980
杯冠军	-10981
大赏	-10982
陶瓷	-10983
云林县	-10984
布莱恩	-10985
交响乐团	-10986
全家	-10987
困扰	-10988
uss	-10989
以纪念	-10990
于台湾	-10991
太阳系	-10992
教义	-10993
同时在	-10994
鄂图曼	-10995
守门	-10996
ney	-10997
按察司	-10998
质子	-10999
马鞍	-11000
ISO	-11001
多尔多涅省	-11002
宣统	-11003
记述	-11004
喀什	-11005
礼物	-11006
论述	-11007
消化	-11008
角的	-11009
邓小平	-11010
二氧化碳	-11011
期待	-11012
▁威廉	-11013
京剧	-11014
单词	-11015
般的	-11016
文化和	-11017
集团的	-11018
克力	-11019
动脉	-11020
林斯	-11021
的风	-11022
囚犯	-11023
谈话	-11024
yd	-11025
不错	-11026
异构	-11027
阿登	-11028
巴布亚	-11029
▁后	-11030
毛利	-11031
走了	-11032
Type	-11033
学中	-11034
生活于	-11035
flix	-11036
县的城市	-11037
七世	-11038
单人	-11039
南美	-11040
外来	-11041
此曲	-11042
国家统计	-11043
填海	-11044
过滤	-11045
索姆省	-11046
国民小学	-11047
使命	-11048
拜访	-11049
格的	-11050
登基	-11051
应付	-11052
拿到	-11053
贫穷	-11054
是一项	-11055
这一点	-11056
批全国重点文物保护单位	-11057
总主教	-11058
叛军	-11059
)、(	-11060
而成为	-11061
工业大学	-11062
onlyinclude	-11063
不被	-11064
的列车	-11065
罚款	-11066
了一系列	-11067
市人民政府	-11068
的古	-11069
常务委员会	-11070
▁范	-11071
葬礼	-11072
太常	-11073
过多	-11074
手持	-11075
账户	-11076
传出	-11077
福岛	-11078
行性	-11079
其名称	-11080
工业区	-11081
通常在	-11082
全省	-11083
是西班牙卡斯蒂利亚	-11084
四强	-11085
也为	-11086
多斯	-11087
德里希	-11088
哈尔科夫	-11089
不想	-11090
▁sh	-11091
▁图	-11092
胡安	-11093
起草	-11094
由该道路	-11095
行政中心为	-11096
之声	-11097
亚瑟	-11098
则是在	-11099
爱丁堡	-11100
州立大学	-11101
在被	-11102
日到	-11103
阿韦	-11104
影响的	-11105
在那	-11106
春季	-11107
白云	-11108
两部分	-11109
索马里	-11110
密西西比	-11111
反派	-11112
冰原岛峰	-11113
物流	-11114
个人的	-11115
卡罗来	-11116
而来的	-11117
是法国上	-11118
三号	-11119
合计	-11120
视野	-11121
卢瓦雷	-11122
玛格丽特	-11123
位于法国上法兰西大区	-11124
会谈	-11125
塔恩	-11126
极其	-11127
产阶级	-11128
之久	-11129
刑法	-11130
新秀	-11131
东西向	-11132
巴利	-11133
江湖	-11134
第三个	-11135
塞特	-11136
无机	-11137
舞曲	-11138
级行政区划	-11139
甲壳	-11140
逃跑	-11141
三部曲	-11142
聚合	-11143
中国共产党党员	-11144
捕捉	-11145
本季	-11146
得到的	-11147
的意义	-11148
北周	-11149
密的	-11150
背后	-11151
螺科	-11152
诗集	-11153
中国古代	-11154
北纬	-11155
委员长	-11156
安装在	-11157
西部的	-11158
区道	-11159
纸币	-11160
防线	-11161
全新的	-11162
第三名	-11163
公孙	-11164
弹道	-11165
进步党	-11166
一班	-11167
长者	-11168
以前的	-11169
对待	-11170
文斯	-11171
有功	-11172
武德	-11173
ars	-11174
化物	-11175
建交	-11176
泰坦	-11177
可以将	-11178
xy	-11179
和在	-11180
年代后期	-11181
拉丁美洲	-11182
脊椎动物	-11183
▁蒂	-11184
传闻	-11185
病的	-11186
人口有	-11187
▁蓝	-11188
硝酸	-11189
规律	-11190
结束时	-11191
尽管如此	-11192
解决方案	-11193
一小	-11194
凤山	-11195
供应商	-11196
可做为	-11197
约定	-11198
马林	-11199
相似的	-11200
指定地区	-11201
合称	-11202
奏曲	-11203
年发行	-11204
所属行政区域	-11205
泽尔	-11206
疼痛	-11207
▁at	-11208
奥斯曼帝国	-11209
代价	-11210
史称	-11211
派对	-11212
领导小组	-11213
撤回	-11214
▁an	-11215
掩护	-11216
珠江	-11217
奥恩省	-11218
的英国	-11219
这个名字	-11220
获得一枚银牌	-11221
卡车	-11222
直达	-11223
终年	-11224
拒绝了	-11225
▁曾	-11226
电厂	-11227
米高	-11228
婆罗	-11229
吉尼亚	-11230
电动机	-11231
观赏鱼	-11232
他开始	-11233
会产生	-11234
公安局	-11235
讲述了	-11236
▁System	-11237
事件中	-11238
明末	-11239
司司长	-11240
法属	-11241
因为它	-11242
位于中国广东省	-11243
亚伯	-11244
葬在	-11245
日本政府	-11246
双层	-11247
拦截	-11248
近期	-11249
人口约	-11250
儿岛	-11251
新一	-11252
逆转	-11253
注意的是	-11254
国立台湾大学	-11255
两端	-11256
击剑	-11257
归国	-11258
时所	-11259
创作了	-11260
使用状况	-11261
联合国教科文	-11262
合一	-11263
界线	-11264
乙酸	-11265
也以	-11266
津贴	-11267
封建	-11268
统领	-11269
程度的	-11270
人造	-11271
iOS	-11272
业界	-11273
事项	-11274
变迁	-11275
多处	-11276
寻常	-11277
教材	-11278
新成立的	-11279
之歌	-11280
和圣	-11281
特务	-11282
日成立	-11283
三项	-11284
emp	-11285
“”(	-11286
▁Am	-11287
游泳池	-11288
夫兰	-11289
普斯	-11290
龙山	-11291
构成的	-11292
千万	-11293
太多	-11294
分辨率	-11295
中央人民政府	-11296
时区	-11297
正好	-11298
伯尔	-11299
通报	-11300
▁Group	-11301
人口普查指定地区	-11302
月由	-11303
这意味着	-11304
基部	-11305
可以从	-11306
ritic	-11307
四处	-11308
建筑群	-11309
放射性	-11310
九巴	-11311
厄瓜	-11312
侦测	-11313
威特	-11314
在其他	-11315
足利	-11316
屏东县	-11317
》“	-11318
文库	-11319
的权力	-11320
的目的	-11321
类动物	-11322
▁Live	-11323
团员	-11324
市委	-11325
雅图	-11326
齐亚	-11327
指定为	-11328
的力量	-11329
乙级联赛	-11330
年纪	-11331
库斯	-11332
操控	-11333
册封	-11334
再转	-11335
治愈	-11336
吉伦特	-11337
学生的	-11338
Mich	-11339
兵库	-11340
带回	-11341
路面	-11342
白垩纪	-11343
Netflix	-11344
东边	-11345
erm	-11346
位于美国	-11347
亮度	-11348
甲烷	-11349
飞往	-11350
打击率	-11351
前作	-11352
嘉定	-11353
“”。	-11354
的同名	-11355
Web	-11356
主委	-11357
失望	-11358
▁埃尔	-11359
也与	-11360
着重	-11361
二战后	-11362
西山	-11363
全力	-11364
晋国	-11365
交响曲	-11366
强行	-11367
假面	-11368
声母	-11369
富裕	-11370
经济学家	-11371
在这种	-11372
文化部	-11373
英国伦敦	-11374
DJ	-11375
的人类	-11376
看作	-11377
的领导	-11378
秋季	-11379
密苏里	-11380
抵制	-11381
新任	-11382
物语	-11383
的爱	-11384
短篇	-11385
西面	-11386
长为	-11387
两人的	-11388
岛上的	-11389
只得	-11390
容许	-11391
构建	-11392
▁Rec	-11393
▁木	-11394
摩天	-11395
bert	-11396
无人车站	-11397
披露	-11398
来表示	-11399
提起	-11400
摔角	-11401
美金	-11402
太阳的	-11403
等方面	-11404
西太平洋	-11405
全港	-11406
动漫	-11407
正确的	-11408
的服务	-11409
盟友	-11410
并于同年	-11411
卡西	-11412
味道	-11413
短篇小说	-11414
▁个	-11415
哥拉	-11416
接连	-11417
▁Wh	-11418
客户端	-11419
西西里	-11420
网球公开赛	-11421
领主	-11422
历史的	-11423
升至	-11424
有个	-11425
台北县	-11426
的特点	-11427
幼稚	-11428
衰落	-11429
ism	-11430
年亚洲运动会	-11431
河水	-11432
环状	-11433
解说	-11434
年之前	-11435
EA	-11436
Je	-11437
▁奇	-11438
协同	-11439
菲亚	-11440
ull	-11441
尖沙咀	-11442
底层	-11443
吸引了	-11444
极大的	-11445
的例子	-11446
最古老的	-11447
集资	-11448
▁国家	-11449
美奖	-11450
一定的	-11451
买卖	-11452
台后	-11453
页面	-11454
百强	-11455
高祖	-11456
的台湾	-11457
自动化	-11458
博士生导师	-11459
分出	-11460
听说	-11461
神像	-11462
凯瑟琳	-11463
地方法院	-11464
制药	-11465
塞拉	-11466
履行	-11467
瓦尼	-11468
年之间	-11469
斯塔夫	-11470
ij	-11471
作画	-11472
华中	-11473
家臣	-11474
爸爸	-11475
职权	-11476
有两种	-11477
波德	-11478
烟草	-11479
疗法	-11480
试剂	-11481
完成的	-11482
的特色	-11483
icode	-11484
▁Girl	-11485
参照	-11486
unn	-11487
仍然是	-11488
天鹅	-11489
对付	-11490
平壤	-11491
年赛季	-11492
改编成	-11493
新泽西	-11494
热尔省	-11495
亿元人民币	-11496
史诗	-11497
霹雳	-11498
众议员	-11499
动画电影	-11500
▁#	-11501
相望	-11502
不了	-11503
转化	-11504
ita	-11505
巴洛克	-11506
ense	-11507
加拿大的	-11508
arm	-11509
其范围	-11510
第一座	-11511
孟加拉国	-11512
ricon	-11513
失利	-11514
将军衔	-11515
四国	-11516
挂牌	-11517
田站	-11518
因此被	-11519
自己是	-11520
outh	-11521
俗名	-11522
修读	-11523
奥兰	-11524
投影	-11525
最先	-11526
道尔	-11527
、、、	-11528
电视广播	-11529
▁对	-11530
组成了	-11531
度量	-11532
凶手	-11533
射程	-11534
把他	-11535
正选	-11536
被俘	-11537
神奈川县	-11538
ology	-11539
外形	-11540
派系	-11541
并设有	-11542
名胜	-11543
高句	-11544
分布于亚洲	-11545
OL	-11546
二楼	-11547
分院	-11548
囚禁	-11549
均由	-11550
tainment	-11551
中区	-11552
打印	-11553
的生产	-11554
NS	-11555
上一	-11556
供给	-11557
北大	-11558
并从	-11559
行列	-11560
阳人	-11561
改变了	-11562
ublic	-11563
叶片	-11564
让她	-11565
担任过	-11566
ulat	-11567
法兰西岛	-11568
职业足球	-11569
审计	-11570
辞典	-11571
预选	-11572
学生会	-11573
散布	-11574
曾获	-11575
越过	-11576
札幌	-11577
皇宫	-11578
秦国	-11579
有一种	-11580
有三个	-11581
营销	-11582
边区	-11583
uck	-11584
▁con	-11585
量为	-11586
不当	-11587
阿曼	-11588
电车站	-11589
紫色	-11590
公布了	-11591
两部	-11592
年夏	-11593
当今	-11594
饱和	-11595
椭圆形	-11596
日在美国	-11597
是位于乌克兰	-11598
大脑	-11599
:(	-11600
所作	-11601
的车	-11602
京城	-11603
指的	-11604
提取	-11605
统筹	-11606
隐居	-11607
有超过	-11608
喷发	-11609
贝斯	-11610
世袭	-11611
主要在	-11612
主要用于	-11613
改以	-11614
酿酒	-11615
行政村	-11616
▁Saint	-11617
圆柱	-11618
突尼斯	-11619
路易斯安	-11620
母语	-11621
美国陆军	-11622
亚尔	-11623
塔特	-11624
成像	-11625
星座	-11626
门口	-11627
产权	-11628
托勒	-11629
野生动物	-11630
下级	-11631
告别	-11632
庆典	-11633
灌丛	-11634
马耶	-11635
为例	-11636
保禄	-11637
格斗	-11638
演说	-11639
今天的	-11640
和日本	-11641
陪同	-11642
在韩国	-11643
海军的	-11644
区长	-11645
南开	-11646
李克	-11647
莱克	-11648
多于	-11649
明帝	-11650
曾经是	-11651
对外开放	-11652
但该	-11653
缺席	-11654
是中国的特有植物	-11655
冬天	-11656
撤出	-11657
青衣	-11658
海岸线	-11659
▁克里斯	-11660
路德维希	-11661
看台	-11662
人之	-11663
侄子	-11664
分级	-11665
旅程	-11666
韦斯	-11667
法西斯	-11668
现有的	-11669
与小	-11670
世家	-11671
枪击	-11672
濒危	-11673
而他	-11674
贯通	-11675
首脑	-11676
得票率	-11677
帽子	-11678
的安全	-11679
流星	-11680
由香港	-11681
警察局	-11682
二千	-11683
为首的	-11684
有部分	-11685
研究会	-11686
文化中心	-11687
TT	-11688
比克	-11689
应急	-11690
急行	-11691
童年	-11692
外国语	-11693
有所不同	-11694
善于	-11695
出身的	-11696
日出生于	-11697
严厉	-11698
激发	-11699
伯克	-11700
北条	-11701
湿润	-11702
首歌	-11703
创立了	-11704
是基于	-11705
邮票	-11706
利沃夫	-11707
空中照片	-11708
三等	-11709
变速	-11710
溶解	-11711
idth	-11712
td	-11713
几次	-11714
标注	-11715
▁九	-11716
▁宝	-11717
镰仓	-11718
录像带	-11719
乙烯	-11720
二八	-11721
出使	-11722
岛和	-11723
组别	-11724
ali	-11725
巴拉圭	-11726
是一位美国	-11727
本种	-11728
成都市	-11729
取名	-11730
蜂鸟	-11731
汕头	-11732
科学与	-11733
高加索	-11734
ze	-11735
不设	-11736
失误	-11737
必然	-11738
带来了	-11739
▁柳	-11740
德雷	-11741
摆脱	-11742
"-	-11743
光线	-11744
断裂	-11745
的书	-11746
拉里	-11747
清河	-11748
向西北	-11749
植物种	-11750
吉尔吉斯	-11751
牛津大学	-11752
子弟	-11753
舍人	-11754
的一处	-11755
主线	-11756
已经在	-11757
不易	-11758
写信	-11759
厨房	-11760
的统治	-11761
加油	-11762
土司	-11763
的黑	-11764
米哈	-11765
辖境	-11766
大教堂	-11767
冠军联赛	-11768
因为他	-11769
在同一	-11770
圣马	-11771
模范	-11772
▁University	-11773
准则	-11774
加纳	-11775
某一	-11776
哥斯达	-11777
Twitter	-11778
永康	-11779
输送	-11780
▁On	-11781
有时会	-11782
目击	-11783
詹姆	-11784
远程	-11785
海军陆战队	-11786
Oricon	-11787
低压	-11788
张学	-11789
门将	-11790
有一名	-11791
ello	-11792
▁广	-11793
兰克林	-11794
观察到	-11795
神圣罗马帝国	-11796
ki	-11797
修斯	-11798
元老	-11799
督察	-11800
为中国的特有植物	-11801
偶然	-11802
守卫	-11803
次郎	-11804
私有	-11805
▁ne	-11806
▁德国	-11807
珠宝	-11808
Fe	-11809
清除	-11810
当地人	-11811
学者认为	-11812
Sch	-11813
机构的	-11814
购物中心	-11815
阿尔卑斯省	-11816
对流	-11817
捕获	-11818
日子	-11819
inal	-11820
进了	-11821
经营的	-11822
知识分子	-11823
八达	-11824
卡塔	-11825
常侍	-11826
国庆	-11827
麦隆	-11828
ven	-11829
副省长	-11830
年以前	-11831
第二位	-11832
战线	-11833
加快	-11834
康复	-11835
淮南	-11836
该节目	-11837
▁Colle	-11838
巡航	-11839
朱元	-11840
维利	-11841
离散	-11842
osh	-11843
大法官	-11844
的一支	-11845
的范围	-11846
▁Ass	-11847
官话	-11848
玉环	-11849
地马拉	-11850
科索沃	-11851
▁崔	-11852
之变	-11853
声调	-11854
字形	-11855
导航	-11856
斐济	-11857
蔷薇	-11858
基因组	-11859
平台上	-11860
最小的	-11861
收取	-11862
特别是在	-11863
解析	-11864
reet	-11865
得名于	-11866
年起担任	-11867
atch	-11868
产于	-11869
售卖	-11870
商船	-11871
忍者	-11872
瓦勒	-11873
成员的	-11874
拉丁文	-11875
第一家	-11876
第十三届全国人民代表大会	-11877
北齐	-11878
南与	-11879
指向	-11880
教士	-11881
荆州	-11882
解剖	-11883
首轮	-11884
主演的	-11885
万余	-11886
将之	-11887
木星	-11888
死了	-11889
耕地	-11890
▁Par	-11891
人民党	-11892
旅游业	-11893
虽然在	-11894
邻近的	-11895
鹿儿岛	-11896
夫的	-11897
已婚	-11898
的地点	-11899
篇文章	-11900
新宿	-11901
oot	-11902
投资者	-11903
大韩民国	-11904
淡水流域	-11905
规模最大的	-11906
思维	-11907
正值	-11908
疏散	-11909
痕迹	-11910
突变	-11911
与台湾	-11912
前身是	-11913
控制器	-11914
车站编号为	-11915
yc	-11916
历届	-11917
没能	-11918
还将	-11919
部和	-11920
暹罗	-11921
}-、	-11922
▁OS	-11923
同时该地	-11924
豪斯	-11925
足球赛	-11926
地主	-11927
外侧	-11928
西至	-11929
守门员	-11930
短期大学	-11931
也因	-11932
仍为	-11933
一般来说	-11934
香港大学	-11935
仁宗	-11936
摩擦	-11937
公斤级	-11938
和英国	-11939
世俗	-11940
武警	-11941
太阳能	-11942
一般认为	-11943
东风	-11944
侦查	-11945
勃兰	-11946
疑似	-11947
续作	-11948
语文	-11949
的一段	-11950
卡尔瓦多斯省	-11951
内侧	-11952
货车	-11953
安德森	-11954
冈山	-11955
校方	-11956
的白	-11957
希望能	-11958
等职务	-11959
东经	-11960
心灵	-11961
收缩	-11962
的评价	-11963
并用	-11964
河镇	-11965
莫斯	-11966
的形象	-11967
▁~	-11968
买下	-11969
孤儿	-11970
带动	-11971
柴油机	-11972
PL	-11973
南山	-11974
台视	-11975
史迹	-11976
帮忙	-11977
电影中	-11978
首次在	-11979
马达加斯加	-11980
招待	-11981
在许多	-11982
玛利亚	-11983
他的儿子	-11984
怪兽	-11985
塞浦路斯	-11986
蜗牛	-11987
被毁	-11988
)”。	-11989
来进行	-11990
又以	-11991
期限	-11992
蒙特利尔	-11993
猎物	-11994
提供服务	-11995
茅斯	-11996
行销	-11997
家协会	-11998
只需	-11999
连线	-12000
红十字	-12001
的一个铁路车站	-12002
她和	-12003
组装	-12004
罗伊	-12005
跟踪	-12006
lus	-12007
宇航员	-12008
并要求	-12009
第二批	-12010
剧情简介	-12011
区块	-12012
英吉利	-12013
over	-12014
勒姆	-12015
据称	-12016
)”,	-12017
战列舰	-12018
世界冠军	-12019
中山大学	-12020
宾馆	-12021
底栖	-12022
霸王	-12023
伯明	-12024
发酵	-12025
贞观	-12026
▁马尔	-12027
年台湾	-12028
是由于	-12029
的唯一	-12030
长度为	-12031
是俄罗斯联邦	-12032
tr	-12033
统帅	-12034
汇报	-12035
流域为	-12036
莱茵兰	-12037
acritic	-12038
巴巴	-12039
平反	-12040
该岛	-12041
百老	-12042
战争爆发	-12043
EL	-12044
大胜	-12045
楼层	-12046
选择了	-12047
得多	-12048
第四名	-12049
角色扮演	-12050
墙壁	-12051
牧场	-12052
布鲁斯	-12053
五名	-12054
洋行	-12055
赏识	-12056
下一个	-12057
地球的	-12058
现代的	-12059
被用于	-12060
骑士团	-12061
充当	-12062
轻微	-12063
中医	-12064
美人	-12065
危地马拉	-12066
赛艇运动员	-12067
五位	-12068
背叛	-12069
转让	-12070
让他们	-12071
OC	-12072
东山	-12073
旧称	-12074
评级	-12075
所处的	-12076
当场	-12077
投身	-12078
符腾堡	-12079
人选	-12080
舰只	-12081
该寺	-12082
苏拉	-12083
地图上	-12084
巴士站	-12085
台北市政府	-12086
EG	-12087
旅客列车	-12088
致仕	-12089
党魁	-12090
刘备	-12091
千年	-12092
社会科学院	-12093
加达	-12094
幼虫	-12095
iew	-12096
公理	-12097
营利	-12098
优点	-12099
里德	-12100
便宜	-12101
农田	-12102
有权	-12103
突袭	-12104
”("	-12105
市议会	-12106
等海域	-12107
▁begin	-12108
并获	-12109
总领事	-12110
合伙	-12111
招标	-12112
科目	-12113
萨姆	-12114
邯郸	-12115
百老汇	-12116
安抚	-12117
旁的	-12118
理性	-12119
▁Mc	-12120
男子团体	-12121
军阀	-12122
哥尔	-12123
昆士	-12124
平方呎	-12125
位于法国诺曼底大区	-12126
而与	-12127
奥尔良	-12128
欧亚	-12129
▁七	-12130
牙买	-12131
提醒	-12132
二十一年	-12133
摄氏	-12134
油画	-12135
向公众	-12136
创立于	-12137
存在着	-12138
皇太后	-12139
大专	-12140
战俘	-12141
报刊	-12142
DF	-12143
储备	-12144
座椅	-12145
揭幕	-12146
模组	-12147
源头	-12148
遍布	-12149
日治初期	-12150
David	-12151
也许	-12152
姿态	-12153
ele	-12154
和国际	-12155
橄榄球	-12156
三座	-12157
异性	-12158
斯堡	-12159
是自	-12160
莱德	-12161
坐落于	-12162
公布时间为	-12163
开往	-12164
王妃	-12165
街的	-12166
ater	-12167
他所	-12168
电报	-12169
右侍郎	-12170
氧化物	-12171
会所	-12172
船长	-12173
音乐的	-12174
大正九年	-12175
▁Entertainment	-12176
多半	-12177
行道	-12178
大选中	-12179
戴维	-12180
沃伦	-12181
注释	-12182
ios	-12183
年毕业	-12184
录得	-12185
万欧元	-12186
作品有	-12187
多样性	-12188
数量的	-12189
ution	-12190
票选	-12191
中国人	-12192
并通过	-12193
最大水深	-12194
无力	-12195
暴风	-12196
特有	-12197
ump	-12198
联合国教科文组织	-12199
椭圆	-12200
教育局	-12201
▁Ste	-12202
三菱	-12203
广域	-12204
年生于	-12205
▁And	-12206
友人	-12207
破裂	-12208
纪元	-12209
在世界	-12210
▁Ind	-12211
伦理	-12212
大规模的	-12213
亚特兰大	-12214
曼彻斯特	-12215
▁雅	-12216
但它	-12217
僧人	-12218
而这	-12219
邻居	-12220
釜山	-12221
rem	-12222
▁My	-12223
年改为	-12224
ations	-12225
察院	-12226
对决	-12227
熊本	-12228
瓦夫	-12229
陈述	-12230
之神	-12231
弹头	-12232
阳明	-12233
交通局	-12234
▁细	-12235
上奏	-12236
也就	-12237
大为	-12238
季风	-12239
尼察	-12240
OVA	-12241
的系统	-12242
SL	-12243
日月	-12244
蒙古国	-12245
为正	-12246
灵活	-12247
万年前	-12248
切尔尼	-12249
的政策	-12250
铜锣湾	-12251
EF	-12252
抚养	-12253
用语	-12254
高出	-12255
科三甲	-12256
德塞	-12257
忠诚	-12258
终极	-12259
ura	-12260
军队的	-12261
集团公司	-12262
卡普	-12263
〉。	-12264
主攻	-12265
朱元璋	-12266
是位于日本	-12267
加装	-12268
在天	-12269
尺度	-12270
IVE	-12271
于日本	-12272
北部省	-12273
冷战	-12274
镇江	-12275
渗透	-12276
历史上的	-12277
)-	-12278
各方	-12279
在职	-12280
开枪	-12281
当中的	-12282
耶稣会	-12283
平均水平	-12284
代什	-12285
国联	-12286
设法	-12287
是德国的河流	-12288
耗资	-12289
观政	-12290
委任为	-12291
时表示	-12292
协商会议	-12293
威力	-12294
IBM	-12295
微生物	-12296
的可能性	-12297
兴奋	-12298
有机会	-12299
射箭	-12300
左派	-12301
同位素	-12302
有一条	-12303
今河南省	-12304
在此之前	-12305
!!	-12306
不便	-12307
削弱	-12308
独家	-12309
殿试登进士	-12310
Metacritic	-12311
充电	-12312
到底	-12313
缓解	-12314
铺设	-12315
清政府	-12316
规定的	-12317
革命党	-12318
偏南	-12319
格纳	-12320
缓冲	-12321
雇佣	-12322
聚合物	-12323
现效力于	-12324
切断	-12325
西晋	-12326
urg	-12327
等问题	-12328
军事委员会	-12329
SK	-12330
国徽	-12331
AA	-12332
北门	-12333
改正	-12334
羟基	-12335
%)、	-12336
名将	-12337
城中	-12338
折返	-12339
老年	-12340
赫特	-12341
轶事	-12342
“-{	-12343
可使用	-12344
回到了	-12345
王刘	-12346
的南	-12347
长野	-12348
在没有	-12349
铁路线	-12350
夜晚	-12351
日前	-12352
继母	-12353
宫崎	-12354
报社	-12355
雇员	-12356
转变为	-12357
修行	-12358
困境	-12359
大约有	-12360
日常生活	-12361
入伍	-12362
坠毁	-12363
干达	-12364
罪犯	-12365
意大利语	-12366
美国政府	-12367
尼的	-12368
税收	-12369
视察	-12370
执导的	-12371
敌对	-12372
救护	-12373
也很	-12374
租赁	-12375
算是	-12376
释迦	-12377
ama	-12378
气象厅	-12379
器和	-12380
推断	-12381
越野	-12382
许多人	-12383
UP	-12384
视角	-12385
马耳	-12386
伴随	-12387
倡导	-12388
八一	-12389
河上	-12390
露天	-12391
日通车	-12392
第二任	-12393
位元	-12394
养子	-12395
庞大	-12396
德文	-12397
在这一	-12398
大会上	-12399
庞大的	-12400
▁Res	-12401
弗雷德里克	-12402
是次	-12403
腓力	-12404
不丹	-12405
拉拉	-12406
取消了	-12407
自动售票机	-12408
上尉	-12409
氏族	-12410
看守	-12411
车祸	-12412
这对	-12413
青年团	-12414
东华	-12415
诊所	-12416
赶到	-12417
苏联的	-12418
主要从事	-12419
不安	-12420
建安	-12421
无缘	-12422
桥镇	-12423
皇子	-12424
纳税	-12425
orge	-12426
士官	-12427
对面	-12428
捍卫	-12429
终端	-12430
在同年	-12431
曾获得	-12432
议会议员	-12433
回族	-12434
师的	-12435
无罪	-12436
流派	-12437
花序	-12438
陵县	-12439
ico	-12440
北道	-12441
号称	-12442
抢救	-12443
副总理	-12444
歌唱大赛	-12445
无意	-12446
约在	-12447
”。“	-12448
系教授	-12449
MD	-12450
不起	-12451
与阿	-12452
奥匈	-12453
幸运	-12454
pha	-12455
代牧区	-12456
哥斯达黎	-12457
外交部长	-12458
几天	-12459
长征	-12460
年所	-12461
车门	-12462
源代码	-12463
党组成员	-12464
发性	-12465
在任	-12466
世锦赛	-12467
制成的	-12468
后来又	-12469
中型	-12470
北边	-12471
那不	-12472
▁彼得	-12473
的艺术	-12474
第十八	-12475
设置了	-12476
折叠	-12477
林根	-12478
乌兰	-12479
金正	-12480
于是在	-12481
级行政区划单位	-12482
城巴	-12483
山下	-12484
或许	-12485
放弃了	-12486
被广泛	-12487
米拉	-12488
这份	-12489
的态度	-12490
环境保护	-12491
四方	-12492
客观	-12493
底质	-12494
erc	-12495
和政治	-12496
的独立	-12497
▁元	-12498
会与	-12499
后转	-12500
库克	-12501
归入	-12502
次会议	-12503
Inst	-12504
个案	-12505
立交	-12506
歌剧院	-12507
自然科学	-12508
中子	-12509
船上	-12510
师师长	-12511
珊瑚礁	-12512
禾本科	-12513
大殿	-12514
石碑	-12515
耶鲁	-12516
▁Se	-12517
都察院	-12518
佩里	-12519
夫特	-12520
张国	-12521
签署了	-12522
荣耀	-12523
高斯	-12524
的人物	-12525
ator	-12526
意识形态	-12527
滤波	-12528
▁Gu	-12529
乡民	-12530
召唤	-12531
和约	-12532
木儿	-12533
马赫	-12534
相邻的	-12535
elle	-12536
oint	-12537
但实际上	-12538
栖息在底中层水域	-12539
亲属	-12540
从来	-12541
共振	-12542
和尚	-12543
Phone	-12544
下辖以下村	-12545
"&	-12546
哈密	-12547
now	-12548
训练班	-12549
布鲁克林	-12550
下莱茵省	-12551
中国铁路	-12552
是目前	-12553
比赛成绩	-12554
古坟	-12555
城乡	-12556
散骑	-12557
近卫	-12558
lin	-12559
归类为	-12560
找出	-12561
时年	-12562
海的	-12563
拥有的	-12564
oe	-12565
▁恩	-12566
就已	-12567
棉花	-12568
芭蕾	-12569
工委	-12570
新罗	-12571
他曾在	-12572
地铁站	-12573
▁z	-12574
假说	-12575
急性	-12576
抵御	-12577
落在	-12578
路由	-12579
也因为	-12580
工业部	-12581
NH	-12582
广电	-12583
的好	-12584
连通	-12585
ope	-12586
很快就	-12587
订单	-12588
道奇	-12589
不规则	-12590
烂番茄	-12591
球队的	-12592
的称号	-12593
立法会议员	-12594
三段	-12595
影音	-12596
阴阳	-12597
动力学	-12598
的效果	-12599
认定为	-12600
小心	-12601
托斯	-12602
掉了	-12603
▁he	-12604
索恩省	-12605
。,	-12606
叔叔	-12607
叙事	-12608
悲剧	-12609
不远	-12610
女优	-12611
海因	-12612
是世界	-12613
侧面	-12614
女生	-12615
鱼目	-12616
▁Mon	-12617
体育会	-12618
的乡份	-12619
神学院	-12620
奥斯卡最佳	-12621
代之	-12622
参赞	-12623
和文化	-12624
On	-12625
柔佛	-12626
语支	-12627
wan	-12628
弗兰克	-12629
优胜	-12630
该届	-12631
▁中华	-12632
地球上	-12633
是罗马尼亚的乡份	-12634
尼科	-12635
渡轮	-12636
节省	-12637
中出现	-12638
这本书	-12639
成员之一	-12640
不管	-12641
的一款	-12642
卢瓦雷省	-12643
全军	-12644
清初	-12645
比利牛斯	-12646
▁丹	-12647
揭发	-12648
原声带	-12649
劳斯	-12650
孤立	-12651
想像	-12652
机上	-12653
下辖以下村级行政区划单位	-12654
》.	-12655
ida	-12656
社会学	-12657
凯文	-12658
日元	-12659
生存于	-12660
罗斯福	-12661
获得一枚铜牌	-12662
抢劫	-12663
决定在	-12664
军营	-12665
旅长	-12666
特律	-12667
线在	-12668
伯明翰	-12669
可通过	-12670
必须在	-12671
有时候	-12672
切割	-12673
协和	-12674
卡片	-12675
年至今	-12676
写下	-12677
回响	-12678
场面	-12679
澄清	-12680
确切	-12681
随时	-12682
che	-12683
不办理	-12684
德意志帝国	-12685
WE	-12686
梅花	-12687
卢瓦省	-12688
二十六年	-12689
有别	-12690
逼近	-12691
棒球选手	-12692
后便	-12693
守军	-12694
推移	-12695
在印度	-12696
爱知县	-12697
甚至是	-12698
蔡英文	-12699
阿波罗	-12700
剑桥大学	-12701
中视	-12702
日向	-12703
魔鬼	-12704
该市镇总面积	-12705
塑胶	-12706
做出了	-12707
英国人	-12708
郡太守	-12709
都会区	-12710
叶子	-12711
宪章	-12712
文昌	-12713
发展成	-12714
自己在	-12715
佐治	-12716
公馆	-12717
剪辑	-12718
玉山	-12719
不包括	-12720
曾一度	-12721
年代开始	-12722
伴奏	-12723
列夫	-12724
图的	-12725
听众	-12726
未婚	-12727
所取代	-12728
As	-12729
所示	-12730
的路线	-12731
年代初期	-12732
Ab	-12733
仙女	-12734
使之	-12735
抓住	-12736
的自由	-12737
蝙蝠侠	-12738
拜仁	-12739
的李	-12740
的人员	-12741
医科大学	-12742
女子团体	-12743
卷入	-12744
是前	-12745
老鼠	-12746
联手	-12747
贝里	-12748
unt	-12749
了一项	-12750
切换	-12751
早晨	-12752
格利	-12753
外国人	-12754
ffice	-12755
手册	-12756
左支流	-12757
有以下	-12758
匹配	-12759
▁Ge	-12760
沃尔夫	-12761
天子	-12762
安区	-12763
骑师	-12764
第十六	-12765
魅力	-12766
三个月	-12767
横向	-12768
魔戒	-12769
Bar	-12770
小时内	-12771
第四届	-12772
之心	-12773
便于	-12774
张氏	-12775
洲际	-12776
陈氏	-12777
奥布省	-12778
由于在	-12779
经常被	-12780
集数	-12781
边界地带	-12782
压制	-12783
病患	-12784
为韩国	-12785
倾向于	-12786
偏北	-12787
智能手机	-12788
县的一个人口普查指定地区	-12789
一一	-12790
不像	-12791
入场	-12792
韩语	-12793
部队的	-12794
自然保护区	-12795
调用	-12796
oly	-12797
ote	-12798
流行的	-12799
五角	-12800
平时	-12801
弗洛	-12802
莫里	-12803
设为	-12804
轮胎	-12805
的对象	-12806
所辖的一个村	-12807
东欧	-12808
威尔逊	-12809
拉赫	-12810
机能	-12811
章节	-12812
副司令员	-12813
ua	-12814
一款	-12815
发文	-12816
法则	-12817
高句丽	-12818
达成协议	-12819
上与	-12820
赛程	-12821
的一切	-12822
也门	-12823
林下	-12824
白天	-12825
跳舞	-12826
心脏病	-12827
的首府	-12828
改革开放	-12829
会于	-12830
获选	-12831
向东北	-12832
▁Lim	-12833
制作公司	-12834
元和	-12835
升上	-12836
在她	-12837
荷马	-12838
降水	-12839
氨基酸	-12840
ther	-12841
山庄	-12842
裁决	-12843
iana	-12844
弗里德里希	-12845
阿姆斯特丹	-12846
损毁	-12847
生子	-12848
增加到	-12849
者之一	-12850
教育学院	-12851
维基百科	-12852
去除	-12853
月时	-12854
红磡	-12855
聘为	-12856
躲避	-12857
里夫	-12858
号线的	-12859
的出现	-12860
城隍	-12861
公布的	-12862
三间	-12863
主修	-12864
凯撒	-12865
德萨	-12866
州际	-12867
本区	-12868
牌照	-12869
建立一个	-12870
宾夕法尼亚州	-12871
在台	-12872
官吏	-12873
函数的	-12874
岛式站台	-12875
各级文物保护单位列表	-12876
FM	-12877
保密	-12878
十个	-12879
渔民	-12880
温州	-12881
建造了	-12882
▁from	-12883
修女	-12884
可梦	-12885
四季	-12886
宿主	-12887
发出的	-12888
成功地	-12889
port	-12890
生产总值	-12891
阿尔代什	-12892
前面	-12893
沙皇	-12894
陆上	-12895
大城市	-12896
小时候	-12897
原文	-12898
有过	-12899
服从	-12900
流的	-12901
赛制	-12902
都很	-12903
黑森	-12904
。”。	-12905
固定的	-12906
匈牙利语	-12907
科给事中	-12908
互通	-12909
手指	-12910
派员	-12911
号列车	-12912
政府军	-12913
开始进行	-12914
press	-12915
烟台	-12916
的精神	-12917
宝贝	-12918
雷尔	-12919
ada	-12920
答案	-12921
▁英国	-12922
市场的	-12923
大学学习	-12924
人道	-12925
企鹅	-12926
田径运动员	-12927
德县	-12928
民居	-12929
类案件	-12930
大学校长	-12931
大成	-12932
我是	-12933
沙巴	-12934
语族	-12935
幼儿园	-12936
临海	-12937
之弟	-12938
在小	-12939
的王	-12940
分组赛	-12941
职业篮球运动员	-12942
▁International	-12943
几位	-12944
加冕	-12945
南越	-12946
西欧	-12947
▁Ag	-12948
▁\	-12949
婚后	-12950
牛奶	-12951
得贡士	-12952
和多	-12953
希特	-12954
棕榈	-12955
落选	-12956
尼夫卡	-12957
支那	-12958
汽油	-12959
满分	-12960
ates	-12961
军节度使	-12962
河的左支流	-12963
车站是一座	-12964
书面	-12965
南亚	-12966
;“	-12967
斯威	-12968
瞬间	-12969
配有	-12970
竞技场	-12971
北爱尔兰	-12972
▁有	-12973
功臣	-12974
家园	-12975
必需	-12976
水师	-12977
派驻	-12978
不稳定	-12979
反应堆	-12980
只列出	-12981
:'	-12982
变异	-12983
曾以	-12984
的表	-12985
和一枚	-12986
国际象棋	-12987
▁是下辖的一个	-12988
是法国上法兰西大区	-12989
仆射	-12990
格伦	-12991
知事	-12992
它们是	-12993
.!	-12994
▁汤	-12995
是越南	-12996
▁des	-12997
当事	-12998
材质	-12999
工程院	-13000
弗朗索瓦	-13001
英吉利海峡	-13002
为前	-13003
低温	-13004
Unicode	-13005
文史	-13006
设的	-13007
在伦敦	-13008
停播	-13009
襄阳	-13010
第一书记	-13011
一级方程式	-13012
该省份为法国东北部	-13013
三司	-13014
层面	-13015
布洛	-13016
电阻	-13017
联同	-13018
商业银行	-13019
该省份为法国东北部内陆省份	-13020
中为	-13021
但她	-13022
账号	-13023
龙门	-13024
不一定	-13025
的小说	-13026
的风险	-13027
足球比赛	-13028
上班	-13029
安庆	-13030
多姆山	-13031
或者是	-13032
留下的	-13033
马克斯	-13034
鲶科的其中一种	-13035
与王	-13036
字节	-13037
RT	-13038
败给	-13039
只有一个	-13040
排水	-13041
年设立	-13042
伪造	-13043
四次	-13044
巨型	-13045
海尔	-13046
erson	-13047
三郎	-13048
与陈	-13049
丰臣	-13050
半年	-13051
街市	-13052
劳动党	-13053
全会	-13054
生化	-13055
的管理	-13056
位于本地区	-13057
区段	-13058
外表	-13059
德曼	-13060
腹足	-13061
费尔南	-13062
空军基地	-13063
发光	-13064
分配到	-13065
的想法	-13066
一女	-13067
下层	-13068
中超	-13069
天台	-13070
海地	-13071
yth	-13072
座的一	-13073
而无法	-13074
勇敢	-13075
双边	-13076
和弦	-13077
地标	-13078
天才	-13079
罗姆	-13080
由日本	-13081
住院	-13082
蒂尔	-13083
▁that	-13084
基准	-13085
钢筋	-13086
首发	-13087
幼稚园	-13088
上市公司	-13089
俄亥俄州	-13090
一并	-13091
辛格	-13092
更容易	-13093
AB	-13094
齿轮	-13095
卡罗莱	-13096
哥尔摩	-13097
ife	-13098
博物院	-13099
约讷省	-13100
勃兰登堡	-13101
当中包括	-13102
低音	-13103
是非	-13104
芜湖	-13105
的部队	-13106
足总杯	-13107
三峡	-13108
分化	-13109
布勒	-13110
▁蒋	-13111
向外	-13112
法伦	-13113
上疏	-13114
原生	-13115
清洗	-13116
经贸	-13117
las	-13118
影响力的	-13119
列举	-13120
带走	-13121
的遗	-13122
》,《	-13123
▁Fran	-13124
全县	-13125
工场	-13126
求学	-13127
布林	-13128
校址	-13129
但他们	-13130
参加过	-13131
繁忙时间	-13132
广播电视台	-13133
罹患	-13134
革命委员会	-13135
佐藤	-13136
海伦	-13137
莫里斯	-13138
都是由	-13139
楼的	-13140
沃特	-13141
离去	-13142
致敬	-13143
安哥拉	-13144
仅为	-13145
同行	-13146
建构	-13147
展示了	-13148
三日	-13149
音速	-13150
是一首	-13151
电缆	-13152
看出	-13153
这两种	-13154
将其升格为	-13155
稻田	-13156
颅骨	-13157
马术	-13158
ani	-13159
牙买加	-13160
坑壁	-13161
阳性	-13162
驻军	-13163
一提	-13164
花样	-13165
英宗	-13166
日照	-13167
精度	-13168
台南县	-13169
政治协商会议	-13170
是一个位于中国	-13171
▁铁	-13172
升班	-13173
安门	-13174
杂交	-13175
纵贯	-13176
触发	-13177
史以来	-13178
冠名	-13179
(、)	-13180
偏东	-13181
吞并	-13182
黑白	-13183
辛亥革命	-13184
多以	-13185
尾鳍	-13186
当他	-13187
解雇	-13188
卢瓦尔河谷	-13189
判定	-13190
片头	-13191
苏黎	-13192
韦恩	-13193
inn	-13194
吸血鬼	-13195
reen	-13196
二十五年	-13197
售价	-13198
喷泉	-13199
将由	-13200
特许	-13201
的最后	-13202
波斯尼亚	-13203
用水	-13204
长久	-13205
举例	-13206
伊势	-13207
出狱	-13208
鞑靼	-13209
中发现	-13210
设计了	-13211
造船厂	-13212
区的负责管辖	-13213
力士	-13214
日因	-13215
海啸	-13216
EST	-13217
其实是	-13218
波美拉	-13219
布鲁塞尔	-13220
DR	-13221
Li	-13222
首场	-13223
内部的	-13224
是唯一	-13225
的人们	-13226
英皇	-13227
万港元	-13228
贝尔福	-13229
aurus	-13230
duction	-13231
压迫	-13232
字的	-13233
格局	-13234
短的	-13235
制片厂	-13236
hann	-13237
俄罗斯的	-13238
全国代表大会	-13239
两边	-13240
争执	-13241
叔父	-13242
菊科	-13243
Par	-13244
很可能	-13245
相对论	-13246
第二期	-13247
▁Eng	-13248
他因	-13249
以免	-13250
山南	-13251
感动	-13252
慢性	-13253
托克	-13254
条文	-13255
剩下的	-13256
增援	-13257
Mus	-13258
厅厅长	-13259
历官	-13260
衔接	-13261
词曲	-13262
周围的	-13263
城际铁路	-13264
人民检察院	-13265
愿望	-13266
东吴	-13267
搬迁	-13268
▁清	-13269
教员	-13270
玄武	-13271
教科书	-13272
民建联	-13273
活动中	-13274
琉璃	-13275
聪明	-13276
下属的一座城市	-13277
梅克伦堡	-13278
初选	-13279
周六	-13280
希德	-13281
日早上	-13282
八大	-13283
及第	-13284
税务	-13285
豪森	-13286
吉安	-13287
大马	-13288
她也	-13289
开了	-13290
raph	-13291
ster	-13292
人格	-13293
金朝	-13294
他亦	-13295
伯利	-13296
出产	-13297
见的	-13298
半自动	-13299
日开通	-13300
omas	-13301
梅斯	-13302
河中	-13303
特纳	-13304
年完工	-13305
而导致	-13306
▁Park	-13307
Robert	-13308
塑造	-13309
艾滋	-13310
贝利	-13311
海南省	-13312
而受到	-13313
议会选举	-13314
之王	-13315
交道	-13316
但最后	-13317
新竹县	-13318
每年的	-13319
个乡	-13320
南北向	-13321
实现了	-13322
第十九	-13323
辖下的	-13324
▁齐	-13325
英九	-13326
追加	-13327
三面	-13328
值为	-13329
北非	-13330
告终	-13331
馆藏	-13332
例如在	-13333
分打点	-13334
创办了	-13335
William	-13336
初回	-13337
南县	-13338
否定	-13339
词典	-13340
Mag	-13341
哈迈	-13342
抗争	-13343
日及	-13344
藏族	-13345
明治三十四年	-13346
进度	-13347
风俗	-13348
首演	-13349
售出	-13350
它由	-13351
开源	-13352
星团	-13353
预先	-13354
喀麦隆	-13355
PP	-13356
三维	-13357
容积	-13358
寒冷	-13359
和德国	-13360
服用	-13361
白沙	-13362
ba	-13363
宫的	-13364
衰退	-13365
达拉	-13366
奥克兰	-13367
巧克力	-13368
字样	-13369
战功	-13370
向他	-13371
装修	-13372
读音	-13373
皇太子	-13374
嵌入	-13375
跨国	-13376
赛冠军	-13377
icro	-13378
二战期间	-13379
一样的	-13380
转移至	-13381
女双	-13382
她还	-13383
金陵	-13384
定名为	-13385
发表声明	-13386
家和	-13387
就要	-13388
CPU	-13389
交所	-13390
可可	-13391
噪音	-13392
实在	-13393
并发	-13394
友好城市	-13395
的一个车站	-13396
南阳	-13397
营救	-13398
西湖	-13399
交叉口	-13400
Apple	-13401
坚决	-13402
天花	-13403
震惊	-13404
颁发的	-13405
mo	-13406
之位	-13407
山水	-13408
环线	-13409
区域的	-13410
的报告	-13411
美式	-13412
深水埗	-13413
临时政府	-13414
为单	-13415
公职	-13416
凡尔	-13417
在家	-13418
它于	-13419
宫内	-13420
有大	-13421
硬盘	-13422
给定	-13423
鲁迅	-13424
抛弃	-13425
指引	-13426
出版物	-13427
ific	-13428
MM	-13429
石门	-13430
西域	-13431
rav	-13432
之夜	-13433
会对	-13434
华特	-13435
神明	-13436
自成	-13437
威斯康	-13438
男歌手	-13439
朝圣	-13440
科殿试	-13441
男子单打	-13442
右手	-13443
效能	-13444
精通	-13445
是波兰	-13446
东非	-13447
的一级	-13448
通过的	-13449
时事	-13450
测定	-13451
众议院议员	-13452
属下的一个植物种	-13453
▁云	-13454
拳道	-13455
核酸	-13456
底特律	-13457
波利斯	-13458
网站上	-13459
ange	-13460
年出版的	-13461
篮球联赛	-13462
绝大部分	-13463
其所	-13464
厄瓜多尔	-13465
塔吉	-13466
复原	-13467
实录	-13468
生在	-13469
但随着	-13470
斯蒂芬	-13471
海报	-13472
该系统	-13473
都是在	-13474
ords	-13475
二次大战	-13476
复旦大学	-13477
世子	-13478
荔枝	-13479
融资	-13480
请愿	-13481
驳回	-13482
功能的	-13483
君士坦丁堡	-13484
城市公共交通	-13485
周五	-13486
和对	-13487
妖怪	-13488
工事	-13489
游记	-13490
中西	-13491
乔木	-13492
此为	-13493
相交	-13494
INE	-13495
这里的	-13496
二十四年	-13497
第十一届全国政协委员	-13498
外墙	-13499
reg	-13500
机场的	-13501
滨海塞纳省	-13502
一本	-13503
卡纳	-13504
头发	-13505
茨堡	-13506
陵墓	-13507
是欧洲	-13508
work	-13509
并行	-13510
歼灭	-13511
贝勒	-13512
康斯坦	-13513
必要的	-13514
的主力	-13515
▁was	-13516
最常见的	-13517
反叛	-13518
放入	-13519
长寿	-13520
off	-13521
BN	-13522
下有	-13523
内特	-13524
实数	-13525
斩首	-13526
尼克斯	-13527
odel	-13528
唐纳	-13529
提示	-13530
布莱克	-13531
故事简介	-13532
的重要性	-13533
暗中	-13534
罗素	-13535
err	-13536
支持的	-13537
显示出	-13538
商铺	-13539
度为	-13540
歌迷	-13541
中国民主	-13542
人口数量为	-13543
分拆	-13544
会使用	-13545
细胞的	-13546
irst	-13547
存放	-13548
库容	-13549
攻破	-13550
比分	-13551
麻省	-13552
▁It	-13553
凯尔特	-13554
有一定的	-13555
管理学院	-13556
羽毛球运动员	-13557
上学	-13558
年代起	-13559
科学研究	-13560
使馆	-13561
水区	-13562
滥用	-13563
牛肉	-13564
称帝	-13565
控制了	-13566
常务委员	-13567
十万	-13568
坐在	-13569
克里斯蒂安	-13570
法制	-13571
十字军	-13572
有不同	-13573
地区为一	-13574
▁Award	-13575
反攻	-13576
金字	-13577
证明了	-13578
明白	-13579
回报	-13580
▁La	-13581
。”《	-13582
市级镇	-13583
个村	-13584
国人	-13585
底盘	-13586
降为	-13587
因斯坦	-13588
杀死了	-13589
等地的	-13590
都督府	-13591
时光	-13592
居民区	-13593
广为	-13594
星等	-13595
沃思	-13596
热情	-13597
表决	-13598
ule	-13599
二十五	-13600
亚运会	-13601
地下二层	-13602
游泳运动员	-13603
AF	-13604
克服	-13605
徽章	-13606
桥站	-13607
的空间	-13608
位处	-13609
不清楚	-13610
二十八	-13611
格拉斯哥	-13612
年中华民国	-13613
法兰西岛大区	-13614
常驻	-13615
的门	-13616
级数	-13617
陈水	-13618
▁欧洲	-13619
日首播	-13620
安平	-13621
小田	-13622
摩纳	-13623
灰蝶	-13624
现况	-13625
葫芦	-13626
ili	-13627
常见于	-13628
蒙古族	-13629
evel	-13630
个月的	-13631
漫画作品	-13632
▁John	-13633
刻意	-13634
帕特	-13635
右支流	-13636
第十五	-13637
默兹省	-13638
但有	-13639
才被	-13640
达克	-13641
富兰克林	-13642
南南	-13643
落入	-13644
向东南	-13645
该省份为法国西南部内陆省份	-13646
大都	-13647
湾区	-13648
▁Qu	-13649
环境中	-13650
ever	-13651
国民大会	-13652
韦伯	-13653
已知的	-13654
音乐作品	-13655
飓风中心	-13656
丽鱼	-13657
僧侣	-13658
克隆	-13659
年平均	-13660
河地区	-13661
卡里	-13662
制作了	-13663
失败后	-13664
UT	-13665
三天	-13666
布瓦	-13667
看来	-13668
骚乱	-13669
鼠属	-13670
衰变	-13671
位于今	-13672
高桥	-13673
印度的	-13674
奖得主	-13675
充足	-13676
正如	-13677
降水量	-13678
两台	-13679
年级	-13680
戛纳	-13681
承包	-13682
教派	-13683
王家	-13684
反映了	-13685
美少女	-13686
中华职棒	-13687
圣人	-13688
奇异	-13689
扎尔	-13690
和欧洲	-13691
维生素	-13692
月参加工作	-13693
还能	-13694
了一次	-13695
天顺	-13696
樱花	-13697
选举区	-13698
承建	-13699
号公路	-13700
距离首府	-13701
哥斯达黎加	-13702
而该	-13703
"("	-13704
所述	-13705
混双	-13706
熔岩	-13707
转战	-13708
中位数为	-13709
全权	-13710
力和	-13711
努瓦	-13712
宗的	-13713
爬行	-13714
亚足联	-13715
的信息	-13716
天宝	-13717
手动	-13718
河西	-13719
淋巴	-13720
事件后	-13721
新技术	-13722
史前	-13723
杀青	-13724
章程	-13725
年出任	-13726
恢复了	-13727
设计和	-13728
二段	-13729
兵马	-13730
布吕	-13731
幼年	-13732
水下	-13733
相容	-13734
线的铁路车站	-13735
承办	-13736
理论上	-13737
专线小巴	-13738
也都	-13739
受贿	-13740
媒介	-13741
饥荒	-13742
oun	-13743
印度教	-13744
宝可梦	-13745
世界排名	-13746
中信	-13747
塞维	-13748
开出	-13749
景泰	-13750
香山	-13751
佛像	-13752
到访	-13753
文集	-13754
的产品	-13755
▁曼	-13756
霍华德	-13757
AI	-13758
加德	-13759
南岸	-13760
和田	-13761
收敛	-13762
极度	-13763
神奇	-13764
米特	-13765
会出现	-13766
女子单打	-13767
张录音室专辑	-13768
’。	-13769
的本	-13770
自卫	-13771
乾隆帝	-13772
二十九年	-13773
小米	-13774
提拔	-13775
日对	-13776
秋田	-13777
将成为	-13778
的创作	-13779
Dr	-13780
▁鲍	-13781
鱼科	-13782
该省份为法国东部	-13783
王公	-13784
论证	-13785
雷特	-13786
机队	-13787
甲午	-13788
金球	-13789
鲤鱼	-13790
佛罗伦	-13791
十字架	-13792
署长	-13793
配偶	-13794
的网络	-13795
亿立方米	-13796
有四	-13797
校内	-13798
LED	-13799
主人公	-13800
的文化	-13801
中方	-13802
养老	-13803
称其为	-13804
露出	-13805
土库曼	-13806
月期间	-13807
西雅图	-13808
交涉	-13809
仙奴	-13810
投靠	-13811
纵向	-13812
阿卡	-13813
eta	-13814
自卫队	-13815
合作伙伴	-13816
分队	-13817
虎尾	-13818
过海	-13819
安德尔	-13820
▁ret	-13821
的主场	-13822
方位	-13823
自传	-13824
eri	-13825
伏尔加	-13826
埃里克	-13827
尔斯泰因	-13828
河的右支流	-13829
一战	-13830
淹没	-13831
阐述	-13832
之后又	-13833
到场	-13834
勒冈	-13835
夏令时间	-13836
下车	-13837
乘降	-13838
申报	-13839
▁Sm	-13840
市辖区	-13841
收购了	-13842
客运专线	-13843
有不同的	-13844
正式出道	-13845
传感	-13846
受命	-13847
宫中	-13848
曾用	-13849
Don	-13850
mun	-13851
库尔德	-13852
▁汪	-13853
全食	-13854
失效	-13855
总额	-13856
国内外	-13857
是使用	-13858
胜利后	-13859
效益	-13860
兵库县	-13861
被命名为	-13862
大字亦改制为	-13863
九个	-13864
器材	-13865
晤士	-13866
绿地	-13867
的红	-13868
语言学	-13869
全称	-13870
大甲	-13871
将原	-13872
等处	-13873
并认为	-13874
▁Mag	-13875
位于法国中央	-13876
首支	-13877
东正教	-13878
电视频道	-13879
座的一颗恒星	-13880
尼加	-13881
幽灵	-13882
股价	-13883
顶端	-13884
erry	-13885
军民	-13886
攻坚	-13887
混音	-13888
策骑	-13889
马的	-13890
工程系	-13891
身份证	-13892
协约	-13893
整编	-13894
海豚	-13895
球的	-13896
即位后	-13897
帖木儿	-13898
YP	-13899
报章	-13900
詹姆士	-13901
国立大学	-13902
来台	-13903
武侠	-13904
永和	-13905
行经	-13906
的首席	-13907
三十二年	-13908
莎拉	-13909
才开始	-13910
共和国的	-13911
是南极洲的海	-13912
GT	-13913
孙权	-13914
苏门	-13915
包括在	-13916
佛山	-13917
提亚	-13918
烹饪	-13919
Sam	-13920
还有一个	-13921
两天	-13922
修理	-13923
和黑	-13924
护航	-13925
片的	-13926
该舰	-13927
国际电影节	-13928
六四	-13929
已经有	-13930
▁单	-13931
不分	-13932
二个	-13933
日为	-13934
塔尔省	-13935
▁el	-13936
日播出	-13937
▁热	-13938
上级	-13939
大业	-13940
活塞	-13941
个人专辑	-13942
该庄隶属于	-13943
征战	-13944
瓦解	-13945
窗户	-13946
pro	-13947
延伸到	-13948
抨击	-13949
禅师	-13950
访谈	-13951
乡试举人	-13952
斯德哥尔摩	-13953
新潟	-13954
为代表	-13955
回忆录	-13956
车辆段	-13957
▁全	-13958
视作	-13959
产品的	-13960
召回	-13961
太尉	-13962
水流	-13963
的子	-13964
办公室主任	-13965
BI	-13966
ING	-13967
副处长	-13968
小时后	-13969
摩纳哥	-13970
▁丰	-13971
决战	-13972
趁机	-13973
霍普	-13974
的小型	-13975
的选手	-13976
表示为	-13977
是中华民国	-13978
卖给	-13979
女皇	-13980
开口	-13981
缘关系	-13982
使用情况	-13983
▁Ne	-13984
__	-13985
免于	-13986
随后的	-13987
也于	-13988
司空	-13989
意甲	-13990
反对党	-13991
ford	-13992
停运	-13993
特里克	-13994
仙台	-13995
光滑	-13996
劝说	-13997
马蒂	-13998
Mon	-13999
工程于	-14000
其中一个种	-14001
两场	-14002
博客	-14003
索伦	-14004
黄昏	-14005
俄勒冈	-14006
大约在	-14007
植物园	-14008
音乐人	-14009
Mark	-14010
上杉	-14011
不适	-14012
中尉	-14013
开皇	-14014
生死	-14015
▁Mac	-14016
他的名字	-14017
宁市	-14018
通风	-14019
回国后	-14020
的一半	-14021
音乐厅	-14022
激活	-14023
神宗	-14024
探险家	-14025
需要的	-14026
学院院长	-14027
的最后一	-14028
▁玛	-14029
侧线	-14030
敌方	-14031
二者	-14032
川崎	-14033
武功	-14034
语义	-14035
等设施	-14036
百科全书	-14037
晚报	-14038
天主	-14039
柠檬	-14040
离世	-14041
获选为	-14042
与张	-14043
丝绸	-14044
中外	-14045
官网	-14046
数年	-14047
通常为	-14048
雅加达	-14049
国防部长	-14050
为辐鳍鱼纲鲤形目	-14051
ross	-14052
▁钟	-14053
子科	-14054
担忧	-14055
落叶	-14056
逝世后	-14057
ichard	-14058
以内	-14059
侵入	-14060
城南	-14061
若瑟	-14062
日结束	-14063
第十七	-14064
跆拳道	-14065
之作	-14066
安提	-14067
扰动	-14068
改属	-14069
红色的	-14070
常栖息在	-14071
山脚	-14072
日渐	-14073
猜测	-14074
社的	-14075
女性的	-14076
媒体的	-14077
然后在	-14078
修士	-14079
启蒙	-14080
胞胎	-14081
贵阳	-14082
长女	-14083
aut	-14084
新闻台	-14085
搜查	-14086
藏于	-14087
只剩下	-14088
第五届	-14089
上课	-14090
姑娘	-14091
捷尔	-14092
翼龙	-14093
轻易	-14094
边防	-14095
oma	-14096
护卫舰	-14097
马英九	-14098
个出入口	-14099
第一阶段	-14100
东门	-14101
取胜	-14102
平章	-14103
开头	-14104
校尉	-14105
流感	-14106
翻译成	-14107
都拉斯	-14108
处以	-14109
无数	-14110
公司于	-14111
基本法	-14112
无障碍	-14113
官僚	-14114
搞笑	-14115
祖师	-14116
其下辖	-14117
定义的	-14118
枚金牌	-14119
的一个旧市镇	-14120
Sm	-14121
光荣	-14122
出国	-14123
到发	-14124
渡过	-14125
诅咒	-14126
线上的	-14127
民主进步党	-14128
官邸	-14129
弱的	-14130
征讨	-14131
插画	-14132
闯入	-14133
利夫卡	-14134
县境内	-14135
指挥使	-14136
运动场	-14137
日平均上下	-14138
救出	-14139
潮流	-14140
马可	-14141
▁乔治	-14142
上下行	-14143
▁异	-14144
塔的	-14145
开机	-14146
涂装	-14147
在巴黎	-14148
斯特里	-14149
州际公路	-14150
十名	-14151
当成	-14152
音频	-14153
福克斯	-14154
南威尔士	-14155
值的	-14156
少校	-14157
森的	-14158
残留	-14159
汉书	-14160
港台	-14161
行进	-14162
All	-14163
巴尔的	-14164
排水量	-14165
植物的	-14166
米歇尔	-14167
足协杯	-14168
荷尔斯泰因	-14169
制得	-14170
小麦	-14171
方索	-14172
缩减	-14173
黑帮	-14174
假面骑士	-14175
乙酰	-14176
开心	-14177
每集	-14178
约占	-14179
葵涌	-14180
该师	-14181
起于	-14182
也对	-14183
太太	-14184
新店	-14185
史学家	-14186
和一些	-14187
历史悠久	-14188
At	-14189
▁星	-14190
打破了	-14191
▁Boy	-14192
的主题曲	-14193
第二阶段	-14194
ABC	-14195
UND	-14196
建筑的	-14197
苏黎世	-14198
▁老	-14199
▁董	-14200
则可	-14201
政坛	-14202
月亮	-14203
渔港	-14204
煽动	-14205
藏品	-14206
野手	-14207
Har	-14208
克拉斯	-14209
▁查	-14210
eck	-14211
▁di	-14212
需要在	-14213
使徒	-14214
词语	-14215
现今的	-14216
书画	-14217
嘻哈	-14218
少林	-14219
罗克	-14220
ano	-14221
原本是	-14222
和前	-14223
外型	-14224
次长	-14225
汉武帝	-14226
源自于	-14227
花岗岩	-14228
命题	-14229
▁As	-14230
名学生	-14231
孢子	-14232
文教	-14233
皮亚	-14234
持续到	-14235
车站的	-14236
东北接	-14237
人民军	-14238
开设了	-14239
颁奖礼	-14240
电影公司	-14241
特曼	-14242
与他的	-14243
为王	-14244
部将	-14245
鱼的	-14246
丹佛	-14247
的国	-14248
开放式	-14249
艺术品	-14250
是加拿大	-14251
”·	-14252
也要	-14253
浩特	-14254
里士	-14255
第一条	-14256
市和	-14257
带的	-14258
权限	-14259
衙门	-14260
话剧	-14261
与西	-14262
可以由	-14263
宜兰县	-14264
铁矿	-14265
可能有	-14266
而获得	-14267
法国大革命	-14268
万里	-14269
佛寺	-14270
在不	-14271
新世	-14272
元代	-14273
的长子	-14274
XX	-14275
商议	-14276
敦煌	-14277
机密	-14278
邮报	-14279
哥罗德	-14280
而这些	-14281
为高	-14282
▁Air	-14283
范围内的	-14284
目睹	-14285
▁me	-14286
Team	-14287
正式宣布	-14288
优良	-14289
信心	-14290
掌控	-14291
等到	-14292
花了	-14293
por	-14294
催化剂	-14295
▁原	-14296
化县	-14297
化身	-14298
千里	-14299
在意大利	-14300
COVID	-14301
两艘	-14302
德比	-14303
不出	-14304
主办的	-14305
单式月台	-14306
▁他	-14307
均以	-14308
戊戌	-14309
派兵	-14310
米德	-14311
英冠	-14312
特色的	-14313
曾任中国	-14314
俄罗斯帝国	-14315
伊达	-14316
拥立	-14317
曾进入	-14318
他们认为	-14319
几乎没有	-14320
作法	-14321
离任	-14322
降至	-14323
能力的	-14324
We	-14325
千户	-14326
县厅	-14327
餐馆	-14328
卡塔尔	-14329
小学校	-14330
队参加	-14331
负责管理	-14332
▁柯	-14333
坟墓	-14334
绿化	-14335
阔叶	-14336
出生的	-14337
其他地区	-14338
电影学院	-14339
吉拉	-14340
举动	-14341
的转	-14342
索引	-14343
只有在	-14344
表面的	-14345
马萨诸塞州	-14346
▁英	-14347
▁总面积	-14348
不列颠哥伦比亚	-14349
长史	-14350
▁坎	-14351
古尔	-14352
价值观	-14353
那不勒斯	-14354
债券	-14355
致死	-14356
有机化合物	-14357
▁秦	-14358
书的	-14359
治所	-14360
达荷	-14361
割让	-14362
铁线	-14363
星级	-14364
普京	-14365
渠道	-14366
年英国	-14367
收录在	-14368
上限	-14369
县令	-14370
小队	-14371
院的	-14372
"、"	-14373
排行第	-14374
而没有	-14375
伴随着	-14376
发射器	-14377
人大常委会副主任	-14378
一字	-14379
下放	-14380
乙醇	-14381
靠着	-14382
境外	-14383
将以	-14384
新冠	-14385
和香港	-14386
就以	-14387
立宪	-14388
蛛科	-14389
铜像	-14390
鼓手	-14391
事先	-14392
侏罗	-14393
原著	-14394
头目	-14395
最强	-14396
畜牧	-14397
百余	-14398
的状况	-14399
至少有	-14400
一球	-14401
不堪	-14402
反之	-14403
回顾	-14404
埃罗	-14405
麦当	-14406
八世	-14407
救济	-14408
热内	-14409
维尼	-14410
罗汉	-14411
协会的	-14412
遭到了	-14413
合格	-14414
形成一个	-14415
交替	-14416
大仙	-14417
嘉义市	-14418
年落成	-14419
住宿	-14420
尽量	-14421
是无	-14422
更在	-14423
残骸	-14424
特快	-14425
童话	-14426
输给	-14427
以至于	-14428
名司铎	-14429
管理处	-14430
湖南卫视	-14431
(,,),	-14432
内心	-14433
一丁目	-14434
一年的	-14435
犹太教	-14436
地貌	-14437
期为	-14438
水位	-14439
汉中	-14440
ush	-14441
他表示	-14442
在整个	-14443
候补委员	-14444
车站是一座地面车站	-14445
近亲	-14446
防御率	-14447
停站	-14448
傍晚	-14449
千代	-14450
考取	-14451
铭文	-14452
陈水扁	-14453
中级人民法院	-14454
最高点海拔高度	-14455
一队	-14456
同情	-14457
大怒	-14458
渴望	-14459
连环	-14460
即今	-14461
有点	-14462
猛烈	-14463
答腊	-14464
胜负	-14465
钱币	-14466
空间的	-14467
所属行政区域划归	-14468
该省份为法国西北部沿海省份	-14469
人质	-14470
太仆	-14471
提斯	-14472
溪县	-14473
稀少	-14474
在不同	-14475
大洋洲	-14476
大约是	-14477
爱因斯坦	-14478
汉斯	-14479
在东京	-14480
广播剧	-14481
获得冠军	-14482
日治明治三十四年	-14483
·“	-14484
收容	-14485
潜力	-14486
矮星	-14487
不超过	-14488
年建立	-14489
田纳西	-14490
的原始	-14491
:‘	-14492
AX	-14493
波希	-14494
总工会	-14495
SR	-14496
ci	-14497
不好	-14498
出血	-14499
白宫	-14500
的东西	-14501
乙组	-14502
光度	-14503
名声	-14504
年再	-14505
与英国	-14506
主义和	-14507
泰晤士	-14508
划艇	-14509
大英	-14510
平息	-14511
佛罗伦萨	-14512
以示	-14513
出动	-14514
四面	-14515
uz	-14516
开关	-14517
推官	-14518
汉文	-14519
名次	-14520
后半	-14521
布里亚	-14522
地区为一街庄	-14523
▁伯	-14524
两周	-14525
投奔	-14526
rib	-14527
教会的	-14528
mi	-14529
七人	-14530
各州	-14531
巡按	-14532
德鲁	-14533
起的	-14534
分布于印度	-14535
▁紫	-14536
实时	-14537
开拍	-14538
因为其	-14539
年发表	-14540
Man	-14541
可能在	-14542
UE	-14543
县内	-14544
开馆	-14545
时至	-14546
核糖	-14547
迈克	-14548
arles	-14549
无论是	-14550
东起	-14551
古斯	-14552
和李	-14553
她被	-14554
惊悚	-14555
现身	-14556
alis	-14557
OP	-14558
右派	-14559
河和	-14560
公学校	-14561
▁余	-14562
一楼	-14563
纬度	-14564
队史	-14565
改组为	-14566
的比例	-14567
德塞夫勒	-14568
会使	-14569
热爱	-14570
为背景	-14571
的运动	-14572
武装部队	-14573
沦陷	-14574
登场人物	-14575
卢瓦尔省和	-14576
法国平均水平	-14577
LD	-14578
可乐	-14579
河岸	-14580
莫拉	-14581
鹿港	-14582
奥古斯特	-14583
年少	-14584
提早	-14585
显微	-14586
联播	-14587
蕨科	-14588
迎战	-14589
的第四	-14590
的颜色	-14591
MI	-14592
三省	-14593
介质	-14594
奇怪	-14595
归于	-14596
是西	-14597
步道	-14598
红袜	-14599
一共有	-14600
方济各	-14601
的命令	-14602
的商业	-14603
日出	-14604
金色	-14605
骨头	-14606
副总裁	-14607
在过去	-14608
巴斯蒂	-14609
是一些	-14610
达科他州	-14611
▁赤	-14612
护送	-14613
马格	-14614
uel	-14615
有一子	-14616
的战斗	-14617
公认	-14618
▁Ac	-14619
后改为	-14620
张家口	-14621
留学生	-14622
rich	-14623
亏损	-14624
流失	-14625
负于	-14626
男子双打	-14627
俱乐部生涯	-14628
iP	-14629
八角	-14630
化和	-14631
尽快	-14632
欺骗	-14633
相等	-14634
神祇	-14635
重心	-14636
已灭绝	-14637
诉求	-14638
的象征	-14639
电影导演	-14640
三分	-14641
停产	-14642
米处	-14643
MTV	-14644
卫星坑	-14645
总投资	-14646
执行委员会	-14647
停刊	-14648
摄像	-14649
教务	-14650
金沙	-14651
瓦兹河谷	-14652
密特	-14653
寺卿	-14654
帝汶	-14655
表扬	-14656
顿的	-14657
第二次国共内战	-14658
东端	-14659
行军	-14660
ideo	-14661
丛林	-14662
共设	-14663
承袭	-14664
机体	-14665
水力	-14666
苏尔	-14667
圣诞节	-14668
工作委员会	-14669
中华人民共和国政府	-14670
声誉	-14671
大满贯	-14672
鲈亚目	-14673
座的一个	-14674
侍卫	-14675
勇气	-14676
硫化	-14677
继而	-14678
区所属	-14679
和法国	-14680
伊犁	-14681
又作	-14682
发车	-14683
干流	-14684
春天	-14685
配件	-14686
重回	-14687
中扮演	-14688
显示器	-14689
的岛屿	-14690
earch	-14691
NT	-14692
PI	-14693
口罩	-14694
轮廓	-14695
奥古斯	-14696
白色的	-14697
能够在	-14698
战国时代	-14699
党委副书记	-14700
冶金	-14701
晋身	-14702
的距离	-14703
墓志	-14704
按钮	-14705
残余	-14706
纳克	-14707
减少了	-14708
宁波市	-14709
一大	-14710
等国	-14711
bit	-14712
到美国	-14713
的风格	-14714
女子双打	-14715
把它	-14716
迹象	-14717
顺德	-14718
的战争	-14719
东尼	-14720
刚好	-14721
新竹市	-14722
赛事成绩	-14723
文法	-14724
课题	-14725
开发商	-14726
华盛顿州	-14727
奉献	-14728
巡防	-14729
苏益	-14730
三家	-14731
ima	-14732
isp	-14733
ota	-14734
在进行	-14735
托勒密	-14736
堆积	-14737
防治	-14738
了这个	-14739
开始时	-14740
当地时间	-14741
今日行政区	-14742
奉行	-14743
特工	-14744
竟然	-14745
雷克	-14746
八达通	-14747
新市镇	-14748
中国内地	-14749
QL	-14750
倒数	-14751
而行	-14752
轮流	-14753
附设	-14754
lob	-14755
但是由于	-14756
建筑风格	-14757
制式	-14758
枪托	-14759
舒适	-14760
该次	-14761
改称为	-14762
期间的	-14763
值得一提	-14764
草本植物	-14765
华文	-14766
的那	-14767
违背	-14768
建立于	-14769
的中央	-14770
的作者	-14771
第二甲	-14772
羽毛球公开赛	-14773
勇者	-14774
处置	-14775
灯光	-14776
船厂	-14777
苔草	-14778
选举结果	-14779
irect	-14780
素的	-14781
str	-14782
大约为	-14783
Bill	-14784
年成立的	-14785
▁真	-14786
川站	-14787
止步	-14788
紫外	-14789
上发表	-14790
星期日	-14791
超过了	-14792
范围包括	-14793
日本气象厅	-14794
多有	-14795
山人	-14796
圣约翰	-14797
首单曲	-14798
台北市立	-14799
平均水深	-14800
相较于今日行政区	-14801
河与	-14802
疗养	-14803
少于	-14804
迪逊	-14805
评论员	-14806
太监	-14807
审核	-14808
架空	-14809
样子	-14810
点击	-14811
中华台北	-14812
停战	-14813
很小	-14814
▁Ab	-14815
该计划	-14816
为辐鳍鱼纲鲈形目隆头	-14817
国泰	-14818
月和	-14819
精彩	-14820
翅膀	-14821
黎各	-14822
的成功	-14823
巴伦西亚	-14824
▁亚历山大	-14825
FS	-14826
持节	-14827
蒂娜	-14828
颇为	-14829
马耳他	-14830
明治四十二年	-14831
不顾	-14832
雨林	-14833
音译	-14834
是他的	-14835
是一款由	-14836
▁袁	-14837
占用	-14838
听从	-14839
天线	-14840
美容	-14841
近现代	-14842
史书	-14843
接种	-14844
男双	-14845
获释	-14846
蛋糕	-14847
三一	-14848
安南	-14849
川市	-14850
有其	-14851
ste	-14852
南投县	-14853
国民议会	-14854
香港电台	-14855
家具	-14856
感知	-14857
收养	-14858
普朗	-14859
除去	-14860
也不会	-14861
对中国	-14862
马恩省和	-14863
启德	-14864
墓园	-14865
短缺	-14866
野外	-14867
铸币	-14868
唐玄宗	-14869
萨瓦省	-14870
列宁格勒	-14871
萨尔瓦多	-14872
不肯	-14873
客人	-14874
屡次	-14875
所杀	-14876
时曾	-14877
这支	-14878
之城	-14879
亚拉	-14880
年曾	-14881
大致以	-14882
研讨会	-14883
军政府	-14884
尽可能	-14885
形成于	-14886
新四军	-14887
▁are	-14888
伊莎	-14889
多重	-14890
的大量	-14891
住了	-14892
渡边	-14893
编排	-14894
脱贫	-14895
艾利斯	-14896
ican	-14897
ions	-14898
波长	-14899
威斯特法伦	-14900
kg	-14901
劳拉	-14902
比锡	-14903
水和	-14904
坐落在	-14905
初级中学	-14906
红白	-14907
起始	-14908
在后	-14909
娃娃	-14910
总共有	-14911
教育的	-14912
▁All	-14913
为辐鳍鱼纲鲈形目隆头鱼亚目	-14914
▁盖	-14915
山本	-14916
气流	-14917
静脉	-14918
他们是	-14919
年退休	-14920
指派	-14921
阻挡	-14922
布尔什	-14923
mann	-14924
百分	-14925
联车	-14926
莱姆	-14927
▁及	-14928
汇丰	-14929
音源	-14930
志愿军	-14931
香港中文大学	-14932
与北	-14933
和上	-14934
禁令	-14935
顺天	-14936
在纽约	-14937
奥巴马	-14938
未成年	-14939
回去	-14940
基斯	-14941
夏尔	-14942
弹簧	-14943
市场上	-14944
自治市	-14945
赛马会	-14946
卡的	-14947
自制	-14948
可以用来	-14949
分站	-14950
外传	-14951
推特	-14952
插图	-14953
曹魏	-14954
沃德	-14955
追捕	-14956
▁pr	-14957
人工智能	-14958
奥林匹克委员会	-14959
该省份为法国东南部	-14960
▁→	-14961
佩戴	-14962
田区	-14963
纹章	-14964
舰长	-14965
苏益格	-14966
inus	-14967
▁本列表	-14968
MG	-14969
作了	-14970
促成	-14971
约合	-14972
参谋部	-14973
马尼拉	-14974
Paul	-14975
富士电视台	-14976
尔瓦	-14977
居士	-14978
近海	-14979
add	-14980
没有被	-14981
利马	-14982
漏洞	-14983
加拉瓜	-14984
;《	-14985
座标	-14986
▁正	-14987
一篇	-14988
两组	-14989
从前	-14990
欧文	-14991
很好的	-14992
所以在	-14993
宪宗	-14994
港的	-14995
门票	-14996
三台	-14997
同属	-14998
在原	-14999
帕斯	-15000
罗尼	-15001
附有	-15002
的保护	-15003
iPhone	-15004
No	-15005
九江	-15006
利文	-15007
ilm	-15008
为准	-15009
水文	-15010
相差	-15011
托尔金	-15012
肯塔基州	-15013
份子	-15014
中国驻	-15015
播音	-15016
构思	-15017
残酷	-15018
遇害	-15019
被用作	-15020
apan	-15021
orts	-15022
他就	-15023
向下	-15024
棋手	-15025
创建了	-15026
的后裔	-15027
较早的	-15028
▁Inc	-15029
散骑常侍	-15030
有史以来	-15031
目前效力于	-15032
▁自	-15033
国产	-15034
春节	-15035
第四季	-15036
自身的	-15037
▁Games	-15038
CL	-15039
科拉	-15040
▁澳门	-15041
轻小说	-15042
▁Play	-15043
才有	-15044
世纪中叶	-15045
届奥斯卡	-15046
中都	-15047
交配	-15048
华达	-15049
孙女	-15050
尼昂	-15051
木制	-15052
芳香	-15053
uan	-15054
氢氧化	-15055
苗栗县	-15056
青年队	-15057
交通运输	-15058
塞内	-15059
拉蒙	-15060
西拉	-15061
▁ar	-15062
不符合	-15063
司令官	-15064
年年底	-15065
Alex	-15066
▁台	-15067
后以	-15068
奉祀	-15069
榜首	-15070
西奥	-15071
居住于	-15072
的方向	-15073
▁Street	-15074
残疾人奥林匹克运动会	-15075
▁人	-15076
同乡	-15077
熊猫	-15078
苯基	-15079
▁中央	-15080
一带的	-15081
分钟内	-15082
苏门答腊	-15083
八卦	-15084
加大	-15085
师傅	-15086
菌科	-15087
龙潭	-15088
总司令部	-15089
时设置的	-15090
科的其中一个种	-15091
▁兴	-15092
回乡	-15093
家督	-15094
私营	-15095
游戏机	-15096
噪声	-15097
今河北省	-15098
空中照片绘入地图	-15099
活化	-15100
演义	-15101
轮椅	-15102
两支	-15103
无所	-15104
对他的	-15105
客运业务	-15106
我爱	-15107
扳机	-15108
昆仑	-15109
盐水	-15110
▁阿拉	-15111
中美洲	-15112
的日子	-15113
香港特别行政区	-15114
主板	-15115
学社	-15116
辨识	-15117
重创	-15118
冠军赛	-15119
牌子	-15120
积累	-15121
特别的	-15122
德温	-15123
赫梅	-15124
黑洞	-15125
两届	-15126
优质	-15127
华视	-15128
效忠	-15129
身穿	-15130
鼓楼	-15131
ily	-15132
佩德罗	-15133
制定的	-15134
不敌赛会	-15135
历史文化	-15136
其范围大致	-15137
创伤	-15138
王李	-15139
经国	-15140
,-{	-15141
导向	-15142
村镇	-15143
脸书	-15144
最终被	-15145
预告片	-15146
制订	-15147
围城	-15148
中表示	-15149
以避免	-15150
的主角	-15151
县的一个市镇	-15152
GE	-15153
一侧	-15154
亚那	-15155
伟大	-15156
坦桑	-15157
港府	-15158
瑞斯	-15159
▁-{	-15160
休斯	-15161
深的	-15162
三分之一	-15163
艺术博物馆	-15164
IO	-15165
动荡	-15166
浮雕	-15167
桌面	-15168
瓦莱	-15169
谋反	-15170
阿特	-15171
驾崩	-15172
两人在	-15173
的记录	-15174
东涌	-15175
京畿	-15176
即便	-15177
传统地域	-15178
历史博物馆	-15179
侯爵	-15180
内核	-15181
田村	-15182
诛杀	-15183
未科会试	-15184
ao	-15185
天国	-15186
插曲	-15187
搁置	-15188
牌坊	-15189
了大量	-15190
亚当斯	-15191
卢西亚	-15192
年取得	-15193
片尾曲	-15194
赫尔曼	-15195
货运业务	-15196
▁甘	-15197
东平	-15198
北朝	-15199
午夜	-15200
戈夫	-15201
燃油	-15202
矿产	-15203
纳达	-15204
颈部	-15205
▁||	-15206
橙色	-15207
白石	-15208
诺威	-15209
门户	-15210
女配角	-15211
飞机的	-15212
拉丁字母	-15213
▁百	-15214
一举	-15215
市郊	-15216
炮击	-15217
指定的	-15218
升格	-15219
占了	-15220
殴打	-15221
落的	-15222
中华全国	-15223
为了避免	-15224
准决赛以	-15225
后与	-15226
瓦纳	-15227
紧邻	-15228
GDP	-15229
▁El	-15230
太古	-15231
引爆	-15232
机翼	-15233
检校	-15234
清单	-15235
球队在	-15236
统治时期	-15237
国家队生涯	-15238
乃木	-15239
授课	-15240
新港	-15241
武藏	-15242
▁Part	-15243
种群	-15244
不足以	-15245
动车组列车	-15246
▁超	-15247
五州	-15248
定向	-15249
满族	-15250
萨德	-15251
订阅	-15252
转往	-15253
迪瓦	-15254
青训	-15255
两个月	-15256
执政党	-15257
估算	-15258
rew	-15259
优秀的	-15260
德国人	-15261
lect	-15262
氛围	-15263
波的	-15264
菩提	-15265
送至	-15266
密尔顿	-15267
光禄大夫	-15268
公交线路	-15269
康塔尔省	-15270
▁Club	-15271
括号	-15272
桥头	-15273
向西南	-15274
的关键	-15275
上台	-15276
亦即	-15277
会用	-15278
马卡	-15279
GBT	-15280
搬迁至	-15281
平方米的	-15282
准许	-15283
▁do	-15284
▁马克	-15285
引入了	-15286
▁等	-15287
大海	-15288
率的	-15289
平交道	-15290
混合物	-15291
东道	-15292
升高	-15293
有名	-15294
制糖	-15295
可被	-15296
文人	-15297
月面	-15298
敖德萨	-15299
安大略省	-15300
属的鱼类	-15301
车站位于	-15302
ca	-15303
卫兵	-15304
艾米	-15305
陷阱	-15306
鳞片	-15307
同盟会	-15308
ason	-15309
Ag	-15310
大事	-15311
溪镇	-15312
票数	-15313
萨里	-15314
巴尔的摩	-15315
广为人知	-15316
关税	-15317
则称	-15318
扭曲	-15319
画廊	-15320
iki	-15321
国内的	-15322
母公司	-15323
专访	-15324
番禺	-15325
票口	-15326
调度	-15327
骨干	-15328
高棉	-15329
印第安	-15330
团团长	-15331
施泰因	-15332
第一中学	-15333
传统地域名称	-15334
路易斯安那州	-15335
南明	-15336
收看	-15337
机匣	-15338
症候	-15339
应该是	-15340
rain	-15341
州所辖的一个村	-15342
大中	-15343
静态	-15344
mon	-15345
chem	-15346
尤其是在	-15347
财团法人	-15348
下分	-15349
为妻	-15350
总务	-15351
重启	-15352
雪山	-15353
▁We	-15354
型客车	-15355
的职业	-15356
路街道	-15357
森林公园	-15358
James	-15359
文理	-15360
玛斯	-15361
病情	-15362
防疫	-15363
哈迈德	-15364
的新闻	-15365
公信	-15366
大碟	-15367
实例	-15368
火炬	-15369
贿赂	-15370
陛下	-15371
所产生的	-15372
哥伦比亚大学	-15373
乐队的	-15374
塞克斯	-15375
主要比赛成绩	-15376
市道	-15377
第一场	-15378
服务中心	-15379
固醇	-15380
斗六	-15381
身后	-15382
个居民点	-15383
四分之一	-15384
国家元首	-15385
月与	-15386
波动	-15387
Is	-15388
变数	-15389
坦桑尼亚	-15390
客座	-15391
年冬	-15392
表格	-15393
▁ac	-15394
个社区	-15395
系统和	-15396
Michael	-15397
是乌克兰的城镇	-15398
德森	-15399
恶意	-15400
手稿	-15401
拆解	-15402
桃花	-15403
货柜	-15404
可持续	-15405
司主事	-15406
神话中	-15407
▁姚	-15408
之余	-15409
原籍	-15410
康乐	-15411
浪费	-15412
轨迹	-15413
轮船	-15414
的攻击	-15415
只列出曾进入	-15416
的国际赛事成绩	-15417
下滑	-15418
西端	-15419
在接受	-15420
预选赛	-15421
游说	-15422
莆田	-15423
西米	-15424
陵兰	-15425
在电影	-15426
无政府	-15427
美术学院	-15428
MR	-15429
写法	-15430
开会	-15431
有利	-15432
大型的	-15433
岁以上	-15434
杰出的	-15435
可追溯至	-15436
兹堡	-15437
天神	-15438
家用	-15439
元素的	-15440
混合双打	-15441
▁不	-15442
▁香	-15443
全名	-15444
歌声	-15445
▁贝尔	-15446
的证据	-15447
弹道导弹	-15448
agram	-15449
何塞	-15450
厂房	-15451
文武	-15452
诈骗	-15453
负载	-15454
迪奥	-15455
隐私	-15456
的著作	-15457
合并为新	-15458
加剧	-15459
制造业	-15460
改隶属于	-15461
亚视	-15462
古装	-15463
均被	-15464
新设	-15465
车路	-15466
百分之	-15467
的调查	-15468
英文名	-15469
标语	-15470
民谣	-15471
狱中	-15472
而于	-15473
麻烦	-15474
▁if	-15475
则表示	-15476
区内的	-15477
的限制	-15478
马拉雅	-15479
中央委员	-15480
地下一层	-15481
FF	-15482
高兴	-15483
四十年	-15484
马六甲	-15485
作家协会	-15486
奥匈帝国	-15487
航空航天	-15488
选举产生	-15489
吉思	-15490
▁("	-15491
会造成	-15492
观测到	-15493
其他国家	-15494
新娘	-15495
阶梯	-15496
电力动车组	-15497
va	-15498
▁旧	-15499
拥护	-15500
气味	-15501
赛区	-15502
工商管理	-15503
ty	-15504
枪机	-15505
西夏	-15506
顶尖	-15507
》(,	-15508
练习生	-15509
赫尔辛	-15510
pa	-15511
人及	-15512
南门	-15513
帝王	-15514
连胜	-15515
阵列	-15516
马山	-15517
ext	-15518
首次亮相	-15519
握把	-15520
特在	-15521
钥匙	-15522
SBS	-15523
uli	-15524
每个人	-15525
庆长	-15526
拉普	-15527
拓宽	-15528
牵连	-15529
逃出	-15530
造像	-15531
▁玉	-15532
取材	-15533
大明	-15534
旗人	-15535
由李	-15536
孩子们	-15537
基的	-15538
将士	-15539
或在	-15540
跳跃	-15541
过敏	-15542
克林顿	-15543
曾代表	-15544
icus	-15545
波多黎各	-15546
)《	-15547
Mk	-15548
应力	-15549
领军	-15550
阿仙奴	-15551
翰林院庶吉士	-15552
',	-15553
fe	-15554
不必	-15555
稍后	-15556
认真	-15557
通缉	-15558
至今仍	-15559
ville	-15560
▁牛	-15561
刷新	-15562
县份	-15563
沃洛	-15564
KBS	-15565
安全的	-15566
工农红军	-15567
开工建设	-15568
阿拉斯加	-15569
为金	-15570
往后	-15571
MBC	-15572
oul	-15573
不属于	-15574
lace	-15575
其下辖有	-15576
PN	-15577
中段	-15578
九十	-15579
保有	-15580
先知	-15581
千岁	-15582
多芬	-15583
新浪	-15584
深造	-15585
▁un	-15586
了一名	-15587
耶和华	-15588
▁int	-15589
蒸汽机车	-15590
出面	-15591
地说	-15592
扎克	-15593
是因	-15594
解读	-15595
魔女	-15596
曾先后	-15597
国际关系	-15598
科学院院士	-15599
及大	-15600
图中	-15601
欧拉	-15602
特和	-15603
队以	-15604
预报	-15605
已经成为	-15606
更快	-15607
自立	-15608
ias	-15609
众多的	-15610
上部	-15611
假如	-15612
抄袭	-15613
茶叶	-15614
偏向	-15615
动量	-15616
开垦	-15617
施政	-15618
睡眠	-15619
Per	-15620
年再次	-15621
政府部门	-15622
东日本旅客铁道	-15623
只列出曾进入准决赛	-15624
只列出曾进入准决赛的国际赛事成绩	-15625
寺的	-15626
锅炉	-15627
今日的	-15628
河的支流	-15629
伪装	-15630
做好	-15631
学年度	-15632
第五次	-15633
苏州市	-15634
衍生物	-15635
一般而言	-15636
最主要的	-15637
人民委员会	-15638
城邦	-15639
大河	-15640
阴影	-15641
开始对	-15642
有一天	-15643
刺客	-15644
旺代	-15645
维耶	-15646
麒麟	-15647
错误的	-15648
武汉大学	-15649
叛变	-15650
突围	-15651
可以让	-15652
NE	-15653
永恒	-15654
河支流	-15655
的真实	-15656
真人秀	-15657
超新星	-15658
可与	-15659
有毒	-15660
时间表	-15661
规模的	-15662
科西	-15663
繁体	-15664
ety	-15665
ien	-15666
三十六	-15667
北起上	-15668
孚日省	-15669
布斯堡	-15670
洪都拉斯	-15671
石勒苏益格	-15672
▁开	-15673
京兆	-15674
相识	-15675
赌场	-15676
赦免	-15677
开幕式	-15678
▁圆	-15679
▁程	-15680
兵役	-15681
捕鱼	-15682
年法国	-15683
大坝	-15684
围墙	-15685
异母	-15686
所致	-15687
雇主	-15688
增压	-15689
派出所	-15690
社交媒体	-15691
黄金时段	-15692
是一座位于	-15693
▁土	-15694
旧的	-15695
榜上	-15696
源县	-15697
当时在	-15698
大学毕业	-15699
LL	-15700
安乐	-15701
法例	-15702
阿兹	-15703
古埃及	-15704
宜诺斯	-15705
必须要	-15706
里斯本	-15707
▁罗伯特	-15708
凯莉	-15709
年入	-15710
年华	-15711
称其	-15712
衰竭	-15713
送回	-15714
阿尔卑斯山脉的一部分	-15715
地板	-15716
审讯	-15717
是南	-15718
过着	-15719
在经过	-15720
ander	-15721
是一名美国	-15722
中国人民政治协商会议	-15723
Gu	-15724
追封	-15725
的电子	-15726
个行政村	-15727
日平均乘	-15728
关中	-15729
吉姆	-15730
宣扬	-15731
托管	-15732
违规	-15733
应天府乡试	-15734
第十二届全国人民代表大会	-15735
一律	-15736
登辉	-15737
其后在	-15738
;(	-15739
全场	-15740
历年	-15741
常设	-15742
武则	-15743
塔尼亚	-15744
▁Cent	-15745
Gr	-15746
一是	-15747
出线	-15748
安息	-15749
小岛	-15750
拉曼	-15751
缪尔	-15752
菲斯	-15753
ats	-15754
全日制	-15755
特有的	-15756
确定的	-15757
签订了	-15758
肯尼亚	-15759
尼加拉瓜	-15760
年更名为	-15761
德米特里	-15762
下达	-15763
内置	-15764
国史	-15765
王星	-15766
转动	-15767
市中心的	-15768
是葡萄牙	-15769
▁绿	-15770
后改	-15771
环礁	-15772
ema	-15773
市区的	-15774
天主教徒	-15775
初代	-15776
号于	-15777
若是	-15778
面具	-15779
奠定了	-15780
els	-15781
发展为	-15782
并提供	-15783
幸存者	-15784
的一般	-15785
最高人民法院	-15786
传授	-15787
受访	-15788
如来	-15789
液态	-15790
车臣	-15791
党主席	-15792
性质的	-15793
Si	-15794
二维	-15795
皮卡	-15796
的各种	-15797
认识了	-15798
助教	-15799
斩杀	-15800
豆科	-15801
社区的	-15802
管理员	-15803
计划中	-15804
孔雀	-15805
并进行	-15806
是一间	-15807
脚类	-15808
台湾人	-15809
的教育	-15810
纳省的一个市镇	-15811
捕食	-15812
▁it	-15813
不确定	-15814
记录了	-15815
HP	-15816
原是	-15817
火药	-15818
糖尿	-15819
辗转	-15820
遣使	-15821
起来的	-15822
司职前锋	-15823
球员生涯	-15824
潮汐	-15825
琵琶	-15826
遗憾	-15827
预科	-15828
中文系	-15829
提高了	-15830
的地面车站	-15831
da	-15832
墓碑	-15833
雷拉	-15834
与香港	-15835
哥伦布	-15836
的来源	-15837
广阔	-15838
底下	-15839
德和	-15840
断绝	-15841
明日	-15842
气球	-15843
索夫	-15844
都由	-15845
演化支	-15846
成为一名	-15847
为生	-15848
州议会	-15849
YO	-15850
借助	-15851
园艺	-15852
玛利	-15853
的陈	-15854
副作用	-15855
自民党	-15856
ally	-15857
中央研究院	-15858
吴国	-15859
大国	-15860
所生	-15861
题为	-15862
热内卢	-15863
男子足球运动员	-15864
核准	-15865
血压	-15866
鲷科的其中一种	-15867
图拉	-15868
沉默	-15869
炸药	-15870
核武器	-15871
运动中	-15872
功夫	-15873
萨利	-15874
是一支	-15875
实际上是	-15876
FO	-15877
则与	-15878
布赖	-15879
陕甘	-15880
距离地球	-15881
位于北京市	-15882
之妻	-15883
削减	-15884
城站	-15885
普莱	-15886
是否有	-15887
美国空军	-15888
▁顾	-15889
来回	-15890
法典	-15891
该报	-15892
道及	-15893
克里斯托	-15894
汉代	-15895
orm	-15896
天水围	-15897
条规定	-15898
的最佳	-15899
▁约	-15900
体为	-15901
同胞	-15902
平地	-15903
辣椒	-15904
青森	-15905
该属共有	-15906
常在	-15907
热的	-15908
不允许	-15909
冲锋枪	-15910
下台	-15911
关怀	-15912
宴会	-15913
巨蛋	-15914
月于	-15915
郑国	-15916
为目标	-15917
二二八	-15918
就算	-15919
和经济	-15920
都柏林	-15921
上车人次	-15922
增建	-15923
剧情片	-15924
瑞士接壤	-15925
全剧	-15926
拉越	-15927
林场	-15928
热烈	-15929
白银	-15930
载人	-15931
自由泳	-15932
三十一年	-15933
大学毕业后	-15934
中小	-15935
亚的	-15936
亲戚	-15937
和海	-15938
左手	-15939
盗窃	-15940
西魏	-15941
闸口	-15942
鲜卑	-15943
重要性	-15944
里约热内卢	-15945
与南	-15946
脚本	-15947
人民的	-15948
作出了	-15949
最新的	-15950
回旋	-15951
气的	-15952
英美	-15953
%)。	-15954
为配合	-15955
大气层	-15956
情报局	-15957
stit	-15958
为辐鳍鱼纲鲈形目鲈亚目	-15959
umb	-15960
几个月	-15961
枢密院	-15962
哈布斯堡	-15963
井上	-15964
公安部	-15965
涵盖了	-15966
的照片	-15967
宗教信仰	-15968
一族	-15969
爱乐	-15970
说出	-15971
随意	-15972
顿涅	-15973
","	-15974
中提到	-15975
此外还有	-15976
群岛的一部分	-15977
性地	-15978
蒸发	-15979
TBS	-15980
▁ro	-15981
欧洲的	-15982
联赛中	-15983
安德尔省	-15984
开始使用	-15985
日在日本	-15986
生产建设	-15987
在圣	-15988
航速	-15989
警戒	-15990
的自然	-15991
基座	-15992
支厅	-15993
日时	-15994
首秀	-15995
尔斯基	-15996
第二年	-15997
胡志明	-15998
为禾本科	-15999
多禄	-16000
客流	-16001
引致	-16002
游览	-16003
一连串	-16004
会影响	-16005
博士后	-16006
三振	-16007
戴尔	-16008
汉军	-16009
全长约	-16010
导致的	-16011
的秘密	-16012
场比赛中	-16013
世界各地的	-16014
克什	-16015
毒素	-16016
多年生	-16017
的元素	-16018
▁它	-16019
光碟	-16020
本国	-16021
他现在	-16022
机务段	-16023
演艺圈	-16024
山田	-16025
署理	-16026
舞者	-16027
高约	-16028
▁台北	-16029
ling	-16030
公共卫生	-16031
公共汽车	-16032
无名	-16033
远远	-16034
制定了	-16035
名单中	-16036
▁Art	-16037
他的妻子	-16038
日成	-16039
爱丽丝	-16040
意大利的	-16041
斯特拉斯	-16042
东征	-16043
字幕	-16044
锁定	-16045
协奏曲	-16046
单位的	-16047
砂拉越	-16048
▁College	-16049
全国人民代表大会	-16050
ME	-16051
▁银	-16052
开发了	-16053
杂志的	-16054
流行文化	-16055
百人	-16056
碑文	-16057
邦联	-16058
反应的	-16059
建筑设计	-16060
刘氏	-16061
尔克	-16062
拉罕	-16063
斯拉	-16064
机炮	-16065
它们在	-16066
的资格	-16067
二十八年	-16068
朝鲜战争	-16069
卢瓦尔河谷大区	-16070
uf	-16071
会场	-16072
宜昌	-16073
析置	-16074
狭义	-16075
统战	-16076
递交	-16077
长乐	-16078
郑州市	-16079
取缔	-16080
进食	-16081
包括有	-16082
莱比锡	-16083
ters	-16084
均在	-16085
掠夺	-16086
泽民	-16087
》()。	-16088
天主教会	-16089
普林斯顿	-16090
城池	-16091
红星	-16092
他的作品	-16093
年被列为	-16094
波希米亚	-16095
兴盛	-16096
尾部	-16097
总科	-16098
▁Li	-16099
东南面	-16100
其中以	-16101
制造厂	-16102
泰米尔	-16103
第三方	-16104
世祖	-16105
剂量	-16106
功绩	-16107
戈斯	-16108
支柱	-16109
瓦特	-16110
而将	-16111
苣苔	-16112
高考	-16113
沉积物	-16114
布宜诺斯	-16115
停用	-16116
出击	-16117
安迪	-16118
港湾	-16119
获授	-16120
节车厢	-16121
可以分为	-16122
令其	-16123
号是	-16124
德在	-16125
沃斯	-16126
科举	-16127
绕道	-16128
奇艺	-16129
武宗	-16130
追逐	-16131
却没有	-16132
比利亚	-16133
计算机科学	-16134
▁威	-16135
儒家	-16136
影院	-16137
洗手	-16138
相位	-16139
统称	-16140
NGC	-16141
宁夏回	-16142
弗朗西	-16143
福州市	-16144
德克萨斯	-16145
战前	-16146
水池	-16147
读取	-16148
保守派	-16149
具体的	-16150
被取消	-16151
是德国莱茵兰	-16152
)"	-16153
万户	-16154
伊藤	-16155
围困	-16156
带宽	-16157
廉价	-16158
精卫	-16159
编年	-16160
诱导	-16161
他把	-16162
坚守	-16163
开支	-16164
新年	-16165
林地	-16166
辖下	-16167
高音	-16168
升级为	-16169
可以看到	-16170
入朝	-16171
单个	-16172
山和	-16173
忽视	-16174
的黄	-16175
石化	-16176
调到	-16177
在现代	-16178
阿尔萨斯	-16179
滨海夏朗德省	-16180
再于	-16181
惠州	-16182
考特	-16183
的人数	-16184
风景区	-16185
发生冲突	-16186
大西洋英吉利海峡	-16187
酰胺	-16188
有多种	-16189
旅游景点	-16190
中校	-16191
斐尔	-16192
被打	-16193
NET	-16194
与社会	-16195
教区的	-16196
本鱼体	-16197
的地铁	-16198
▁Techn	-16199
托尼	-16200
逃避	-16201
吉祥物	-16202
有大量	-16203
的一份	-16204
▁以	-16205
中美	-16206
前称	-16207
注明	-16208
选定	-16209
鲁瓦	-16210
这件事	-16211
金字塔	-16212
▁Bro	-16213
司职中场	-16214
两队	-16215
厌恶	-16216
深远	-16217
焦虑	-16218
白马	-16219
饮酒	-16220
架飞机	-16221
爱达荷	-16222
第六次	-16223
HS	-16224
佐夫	-16225
小子	-16226
游牧	-16227
ipp	-16228
日首次	-16229
▁Net	-16230
国民中学	-16231
国务院批准	-16232
之死	-16233
海事	-16234
结为	-16235
基隆市	-16236
朝鲜王朝	-16237
每组	-16238
麦卡	-16239
粗体字	-16240
成为中国	-16241
男子赛艇运动员	-16242
▁Company	-16243
▁Limited	-16244
但于	-16245
信件	-16246
手上	-16247
瑞安	-16248
饶舌	-16249
高潮	-16250
生产了	-16251
第六届	-16252
世界大学	-16253
会稽	-16254
先在	-16255
听闻	-16256
指称	-16257
画像	-16258
。”“	-16259
年轻时	-16260
现时的	-16261
先天	-16262
开花	-16263
消散	-16264
配属	-16265
也包括	-16266
范围为	-16267
主要来自	-16268
克伦	-16269
后果	-16270
并可	-16271
特权	-16272
绍尔	-16273
费利	-16274
阿什	-16275
意义的	-16276
最年轻的	-16277
凸出	-16278
国大	-16279
槟城	-16280
蒂冈	-16281
裁撤	-16282
局集团	-16283
巴布亚新几内亚	-16284
华尔	-16285
岗位	-16286
枪支	-16287
大师赛	-16288
镇管辖	-16289
▁App	-16290
alaxy	-16291
向后	-16292
居留	-16293
由原	-16294
选用	-16295
了中国	-16296
的动物	-16297
▁菲	-16298
人名	-16299
学徒	-16300
镇海	-16301
还设有	-16302
北洋政府	-16303
科雷兹省	-16304
地在	-16305
ger	-16306
经理人	-16307
iT	-16308
于其	-16309
党团	-16310
布利	-16311
老大	-16312
观的	-16313
阿美	-16314
创办的	-16315
各自的	-16316
艺术中心	-16317
一九	-16318
区及	-16319
班车	-16320
计量	-16321
转录	-16322
齿目	-16323
加尔省	-16324
圭亚那	-16325
工程院院士	-16326
是中国大陆	-16327
比利时接壤	-16328
中与	-16329
均衡	-16330
经济部	-16331
▁High	-16332
一下	-16333
开来	-16334
悲伤	-16335
马列	-16336
和发展	-16337
康熙帝	-16338
标准化	-16339
格陵兰	-16340
达拉斯	-16341
▁Lin	-16342
二度	-16343
改动	-16344
殊荣	-16345
至大	-16346
唐太宗	-16347
建成后	-16348
临界	-16349
为小	-16350
出征	-16351
瓦利	-16352
促进会	-16353
包头	-16354
外事	-16355
影子	-16356
究竟	-16357
伊夫林	-16358
志愿者	-16359
中央银行	-16360
人民日报	-16361
吏部尚书	-16362
Bo	-16363
▁太	-16364
斑纹	-16365
走私	-16366
mat	-16367
并使用	-16368
考古学家	-16369
与东	-16370
启示	-16371
托洛	-16372
数以	-16373
年考入	-16374
是非常	-16375
河上游	-16376
英国政府	-16377
情景	-16378
男单	-16379
相距	-16380
这幅	-16381
鲸鱼	-16382
ape	-16383
▁国立	-16384
代表着	-16385
ents	-16386
仙人	-16387
基底	-16388
海里	-16389
蛱蝶	-16390
被害	-16391
外行星	-16392
取而	-16393
施加	-16394
竞逐	-16395
追杀	-16396
的朋友	-16397
被用来	-16398
ated	-16399
故事大纲	-16400
余下	-16401
常绿	-16402
接见	-16403
方块	-16404
计时	-16405
风貌	-16406
另一名	-16407
adio	-16408
地质调查局	-16409
做过	-16410
由陈	-16411
重用	-16412
风琴	-16413
osp	-16414
决赛周	-16415
哈里斯	-16416
帮助球队	-16417
进一步的	-16418
中对	-16419
哈斯	-16420
圣堂	-16421
末日	-16422
锯齿	-16423
yan	-16424
驾驶员	-16425
idge	-16426
ista	-16427
脱贫攻坚	-16428
各站	-16429
奋斗	-16430
战乱	-16431
改版	-16432
红楼	-16433
落地	-16434
三十四年	-16435
县委	-16436
发源	-16437
呼和	-16438
攻城	-16439
是继	-16440
杜父	-16441
渲染	-16442
选入	-16443
霉素	-16444
以确保	-16445
居住的	-16446
巴斯克	-16447
在加拿大	-16448
传道	-16449
卡内	-16450
成书	-16451
炀帝	-16452
种的	-16453
olf	-16454
▁印度	-16455
的单曲	-16456
LGBT	-16457
塔瓦	-16458
小熊	-16459
退位	-16460
报道称	-16461
二十七年	-16462
生产建设兵团	-16463
不停	-16464
因与	-16465
姿势	-16466
常州	-16467
自小	-16468
萝卜	-16469
山丘	-16470
环流	-16471
als	-16472
军分区	-16473
的质量	-16474
布尔什维克	-16475
西临大西洋	-16476
再见	-16477
华丽	-16478
华的	-16479
埃松	-16480
字典	-16481
室外	-16482
为了让	-16483
安全性	-16484
活动家	-16485
该物种	-16486
电视连续剧	-16487
公庙	-16488
身心	-16489
以后的	-16490
万石	-16491
口镇	-16492
杜尔	-16493
还未	-16494
领兵	-16495
▁Pe	-16496
采访时	-16497
中排名第	-16498
利沃夫州	-16499
仪同	-16500
角龙	-16501
rix	-16502
主席团	-16503
公报	-16504
和非	-16505
安葬	-16506
山形	-16507
强风	-16508
私下	-16509
警署	-16510
题目	-16511
的女子	-16512
NASA	-16513
控制系统	-16514
宾夕法尼亚	-16515
角色扮演游戏	-16516
Er	-16517
侮辱	-16518
增多	-16519
查看	-16520
阴茎	-16521
香料	-16522
乡道云	-16523
阿尔伯特	-16524
历来	-16525
山姆	-16526
昏迷	-16527
至正	-16528
达姆	-16529
州知州	-16530
很高的	-16531
环境的	-16532
最终幻想	-16533
PR	-16534
▁川	-16535
乡的	-16536
便在	-16537
变身	-16538
察觉	-16539
较短	-16540
退化	-16541
▁Dr	-16542
的原则	-16543
其中之一	-16544
宁夏回族自治区	-16545
▁而	-16546
样品	-16547
楼面	-16548
脂鲤目	-16549
转会费	-16550
美洲原住民	-16551
偏食	-16552
坚固	-16553
纳特	-16554
蜥蜴	-16555
elf	-16556
传感器	-16557
建制派	-16558
飞行器	-16559
两人共有	-16560
一把	-16561
量级	-16562
等因素	-16563
翻译为	-16564
年有教友	-16565
上届	-16566
教皇	-16567
特产	-16568
陶器	-16569
巴比伦	-16570
斯托克	-16571
梵蒂冈	-16572
表达式	-16573
邮政编码	-16574
位于四川省	-16575
BB	-16576
▁反	-16577
塞斯	-16578
庄镇	-16579
美女	-16580
甲壳类	-16581
仍旧	-16582
傀儡	-16583
江陵	-16584
莫夫	-16585
财物	-16586
鲁特	-16587
传言	-16588
发作	-16589
天宫	-16590
当主	-16591
比昂	-16592
水产	-16593
轰动	-16594
变更为	-16595
的条件	-16596
行政机关	-16597
做到	-16598
大清	-16599
尊敬	-16600
建康	-16601
Min	-16602
在所有	-16603
增大	-16604
杂货	-16605
雷恩	-16606
文化局	-16607
佛陀	-16608
山阳	-16609
山麓	-16610
粗糙	-16611
宣传部	-16612
收到了	-16613
喜马拉雅	-16614
唐山	-16615
弥补	-16616
祭司	-16617
在广州	-16618
威廉斯	-16619
:""),	-16620
研究所所长	-16621
仍以	-16622
巅峰	-16623
手的	-16624
日托	-16625
这与	-16626
青睐	-16627
年出生	-16628
爱奇艺	-16629
的后代	-16630
继续在	-16631
艺术与	-16632
雅各布	-16633
中央大学	-16634
交错	-16635
声乐	-16636
正线	-16637
法文	-16638
罗兰	-16639
斯坦福	-16640
月成立	-16641
基夫	-16642
蒙哥	-16643
施塔特	-16644
▁Rob	-16645
普法尔茨州的一个市镇	-16646
也从	-16647
人中	-16648
奈尔	-16649
西的	-16650
警官	-16651
车上	-16652
月宣布	-16653
车站编号	-16654
为辐鳍鱼纲脂鲤目	-16655
名和	-16656
文庙	-16657
蓝本	-16658
香蕉	-16659
游乐场	-16660
辛普森	-16661
▁name	-16662
并止于省道台	-16663
Ap	-16664
厨师	-16665
批发	-16666
村人	-16667
分别由	-16668
名成员	-16669
撒哈拉	-16670
给出了	-16671
浙江大学	-16672
又是	-16673
和北	-16674
战的	-16675
之类的	-16676
伊斯坦	-16677
增加至	-16678
毛里求	-16679
的妹妹	-16680
行政管理	-16681
witch	-16682
可做为食用鱼	-16683
大典	-16684
约会	-16685
败于	-16686
闭幕	-16687
革新	-16688
任何人	-16689
指导下	-16690
服务于	-16691
气象站	-16692
的首个	-16693
电影制片厂	-16694
例行	-16695
儿女	-16696
落于	-16697
调快	-16698
起降	-16699
imp	-16700
运营商	-16701
镇区人口有	-16702
苏维埃社会主义共和国	-16703
上水	-16704
卢卡	-16705
所说	-16706
明德	-16707
汪精卫	-16708
纽伦堡	-16709
倒闭	-16710
轻铁	-16711
价值的	-16712
安装了	-16713
独立后	-16714
中药	-16715
令他	-16716
斯通	-16717
每位	-16718
活力	-16719
濒临	-16720
点数	-16721
百济	-16722
选址	-16723
集镇	-16724
及文化	-16725
发布会	-16726
该游戏	-16727
退役后	-16728
卡罗来纳州	-16729
▁飞	-16730
手续	-16731
称谓	-16732
试点	-16733
起步	-16734
起用	-16735
金钟奖	-16736
威廉姆斯	-16737
中国传统村落	-16738
ww	-16739
争霸	-16740
机和	-16741
线条	-16742
韵母	-16743
政治学	-16744
▁return	-16745
住持	-16746
便可	-16747
扁平	-16748
斯巴达	-16749
▁陶	-16750
吉米	-16751
外出	-16752
梦幻	-16753
管治	-16754
这使	-16755
的做法	-16756
此案	-16757
特利	-16758
要么	-16759
阮朝	-16760
年逝世	-16761
的原型	-16762
转换为	-16763
▁孟	-16764
对峙	-16765
电离	-16766
衡量	-16767
的起源	-16768
非正式	-16769
选秀节目	-16770
FL	-16771
僵尸	-16772
奥里	-16773
离队	-16774
龙头	-16775
不适合	-16776
婆罗洲	-16777
有别于	-16778
一向	-16779
仁川	-16780
句子	-16781
直立	-16782
塔楼	-16783
站舍	-16784
美学	-16785
与发展	-16786
专用线	-16787
人员的	-16788
的感觉	-16789
弗朗西斯	-16790
一门	-16791
为之	-16792
分段	-16793
宣判	-16794
水质	-16795
熟知	-16796
花莲县	-16797
兵部尚书	-16798
高架车站	-16799
▁赛	-16800
它和	-16801
易于	-16802
议案	-16803
身材	-16804
都将	-16805
▁乐	-16806
反驳	-16807
技艺	-16808
救助	-16809
门前	-16810
支持下	-16811
的交通	-16812
为十二厅	-16813
赫梅利尼	-16814
列克	-16815
密钥	-16816
德宗	-16817
污水	-16818
台湾府	-16819
基地的	-16820
ular	-16821
CV	-16822
兰科	-16823
叠纪	-16824
算子	-16825
联酋	-16826
血型	-16827
辉煌	-16828
任总统	-16829
严谨	-16830
在马	-16831
尼罗	-16832
港币	-16833
饥饿	-16834
二十二	-16835
的描述	-16836
的表演	-16837
代表性的	-16838
no	-16839
一行	-16840
半数	-16841
接入	-16842
登顶	-16843
红外线	-16844
顺天府	-16845
三十五年	-16846
专卖	-16847
兵备	-16848
内燃	-16849
大体	-16850
巫师	-16851
欲望	-16852
▁保罗	-16853
也无法	-16854
代表了	-16855
日起改为	-16856
阿尔代什省	-16857
塔纳	-16858
全国性	-16859
的合作	-16860
文学作品	-16861
萨尔特省	-16862
个区	-16863
也让	-16864
昂贵	-16865
未曾	-16866
软体	-16867
分之二	-16868
语言中	-16869
、、、、	-16870
为中华民国	-16871
图瓦	-16872
平凡	-16873
泛指	-16874
激战	-16875
租金	-16876
▁Gr	-16877
年度的	-16878
玩家可以	-16879
存取	-16880
莫桑	-16881
落差	-16882
其中最	-16883
原定于	-16884
唐纳德	-16885
最初是	-16886
原版	-16887
同构	-16888
宣德	-16889
任职于	-16890
第一张	-16891
自古	-16892
千叶县	-16893
销售量	-16894
▁Road	-16895
具庆	-16896
农林	-16897
劲歌	-16898
在两	-16899
栏目	-16900
酸性	-16901
雨量	-16902
便开始	-16903
停留场	-16904
在苏联	-16905
金曲奖	-16906
州府知府	-16907
调快一小时	-16908
在第二次世界大战	-16909
年该	-16910
杰明	-16911
索斯	-16912
𫚥虎	-16913
乌干达	-16914
将这些	-16915
体育中心	-16916
▁姜	-16917
口味	-16918
是可	-16919
进站	-16920
Ant	-16921
▁大卫	-16922
年入选	-16923
症候群	-16924
惨重	-16925
控告	-16926
Tom	-16927
可能与	-16928
的专辑	-16929
几乎所有	-16930
二十厅为十二厅	-16931
第十三届全国人大代表	-16932
Ma	-16933
和东	-16934
套件	-16935
第斯	-16936
中东部	-16937
恩斯特	-16938
礼拜堂	-16939
▁Day	-16940
世界卫生	-16941
专制	-16942
建置	-16943
皇族	-16944
迪纳	-16945
部族	-16946
ami	-16947
书记处	-16948
差不多	-16949
成为该	-16950
▁Des	-16951
UNDAM	-16952
▁关	-16953
严肃	-16954
同人	-16955
埋葬	-16956
年北京	-16957
蛛属的动物	-16958
是位于美国爱荷华州	-16959
变星	-16960
稍微	-16961
原住民族	-16962
勋爵	-16963
本舰	-16964
种类的	-16965
中坜	-16966
在各	-16967
城人	-16968
所的	-16969
河县	-16970
%),	-16971
唯一一个	-16972
立法会选举	-16973
以一	-16974
判官	-16975
焚毁	-16976
由新	-16977
▁At	-16978
具庆下	-16979
河畔圣	-16980
注意力	-16981
第四代	-16982
pm	-16983
巴尼	-16984
歌谣	-16985
潜入	-16986
产卵	-16987
六角	-16988
凯旋	-16989
伊夫卡	-16990
参赛球队	-16991
填补	-16992
对上	-16993
拉汉	-16994
文莱	-16995
水解	-16996
注目	-16997
罗什	-16998
艾莉	-16999
说他	-17000
第三轮	-17001
▁从	-17002
多间	-17003
庭院	-17004
永历	-17005
激励	-17006
门市	-17007
即北美	-17008
发明了	-17009
母亲的	-17010
的赛事	-17011
南通	-17012
恋情	-17013
整顿	-17014
测验	-17015
赌博	-17016
ady	-17017
地方的	-17018
山隧道	-17019
顺位被	-17020
三十八年	-17021
会展	-17022
口的	-17023
最高峰	-17024
认为这	-17025
汉密尔顿	-17026
兵败	-17027
城主	-17028
外地	-17029
妥协	-17030
火烧	-17031
看似	-17032
吉思汗	-17033
寺少卿	-17034
itch	-17035
犹太会堂	-17036
辰科会试	-17037
设有夏令时间	-17038
明亮	-17039
特克	-17040
粤剧	-17041
蔓延	-17042
模标本	-17043
尼古拉斯	-17044
万的	-17045
功劳	-17046
后座	-17047
的正式	-17048
的电视剧	-17049
脂鲤亚目	-17050
这个问题	-17051
所采用的时区为	-17052
同时该地设有夏令时间	-17053
▁赖	-17054
但当	-17055
全职	-17056
反共	-17057
药房	-17058
卢瓦尔河地区	-17059
而该地所采用的时区为	-17060
副总	-17061
化名	-17062
政司	-17063
是要	-17064
由大	-17065
ONE	-17066
依赖于	-17067
福井	-17068
取名为	-17069
万亩	-17070
修院	-17071
实的	-17072
差点	-17073
uff	-17074
共同体	-17075
经纪人	-17076
财政收入	-17077
甲组足球联赛	-17078
是德国巴伐利亚	-17079
亦不	-17080
说道	-17081
分钟的	-17082
特区政府	-17083
▁野	-17084
京广	-17085
会和	-17086
岁及	-17087
史蒂夫	-17088
日托米尔	-17089
亲密	-17090
古拉	-17091
春日	-17092
公司和	-17093
在游戏	-17094
织田信长	-17095
职业联赛	-17096
义勇	-17097
兰斯	-17098
表述	-17099
音响	-17100
MT	-17101
德林	-17102
祝福	-17103
社会民主党	-17104
个县	-17105
年大选	-17106
诸军事	-17107
▁Har	-17108
取而代之	-17109
受益	-17110
引人	-17111
环路	-17112
细小	-17113
较长	-17114
透镜	-17115
性气候	-17116
赫梅利尼茨基	-17117
与高	-17118
他到	-17119
古兰	-17120
赠送	-17121
院系	-17122
等多种	-17123
户部主事	-17124
▁City	-17125
Ac	-17126
专著	-17127
主炮	-17128
以大	-17129
她为	-17130
遥控	-17131
www	-17132
、-{	-17133
修建了	-17134
对称性	-17135
修饰	-17136
却不	-17137
却因	-17138
已不	-17139
振动	-17140
新民	-17141
杰夫	-17142
先进的	-17143
大小的	-17144
有利于	-17145
是马来西亚	-17146
出为	-17147
地委	-17148
怎样	-17149
打工	-17150
艺文	-17151
设想	-17152
辅佐	-17153
Dan	-17154
协助下	-17155
特里亚	-17156
二子	-17157
印有	-17158
日才	-17159
通商	-17160
防火	-17161
sur	-17162
▁法国	-17163
本身的	-17164
于世	-17165
会是	-17166
忘记	-17167
苗族	-17168
西与	-17169
颇有	-17170
ody	-17171
▁et	-17172
以及对	-17173
太空船	-17174
等领域	-17175
抑郁	-17176
CBS	-17177
现在是	-17178
▁是一部	-17179
LS	-17180
封信	-17181
昌县	-17182
此项	-17183
水生	-17184
突发	-17185
中的一	-17186
基本的	-17187
布拉斯	-17188
支队伍	-17189
下级分类	-17190
印第安纳	-17191
留言	-17192
聚焦	-17193
自家	-17194
蒸气	-17195
超出	-17196
迁都	-17197
卫将军	-17198
归类于	-17199
赞助商	-17200
成吉思汗	-17201
上架	-17202
享寿	-17203
可爱	-17204
商讨	-17205
太大	-17206
维京	-17207
起事	-17208
轿车	-17209
号路口	-17210
没有人	-17211
HTML	-17212
南京大学	-17213
Christ	-17214
▁保	-17215
手套	-17216
持久	-17217
音的	-17218
巴迪	-17219
席次	-17220
甲状	-17221
苏木	-17222
载具	-17223
阴道	-17224
保持着	-17225
古遗址	-17226
▁Cont	-17227
业的	-17228
化后	-17229
渔船	-17230
转至	-17231
正式成为	-17232
这种情况	-17233
One	-17234
olo	-17235
▁mu	-17236
有名的	-17237
榜冠军	-17238
生产商	-17239
帝国大学	-17240
现实主义	-17241
▁Associ	-17242
gr	-17243
为五	-17244
声援	-17245
小吃	-17246
戒严	-17247
曲风	-17248
留下了	-17249
适当的	-17250
摩天大楼	-17251
大雄	-17252
对照	-17253
康乃	-17254
投出	-17255
谈论	-17256
过境	-17257
扩展到	-17258
测量和	-17259
电视广播有限公司	-17260
交代	-17261
使司	-17262
天山	-17263
必定	-17264
接续	-17265
暑假	-17266
祭典	-17267
航道	-17268
oud	-17269
武则天	-17270
的支持率	-17271
江区	-17272
黄海	-17273
双胞胎	-17274
国子监	-17275
并加入	-17276
或以上	-17277
提供给	-17278
西南面	-17279
该系列	-17280
言论自由	-17281
▁尚	-17282
三代	-17283
三民	-17284
二厅	-17285
依附	-17286
市社	-17287
无可	-17288
珍贵	-17289
瘫痪	-17290
的性	-17291
被封为	-17292
urch	-17293
贝尔格莱	-17294
还有一些	-17295
merican	-17296
宪政	-17297
斯汀	-17298
时隔	-17299
星星	-17300
迪拜	-17301
中山路	-17302
再一次	-17303
预计于	-17304
seud	-17305
超级英雄	-17306
音乐专辑	-17307
人口密度为每平方公里	-17308
上表	-17309
坑底	-17310
头骨	-17311
陈文	-17312
陵园	-17313
大理石	-17314
并最终	-17315
星期五	-17316
已有记载	-17317
市委副书记	-17318
ih	-17319
”.	-17320
同源	-17321
地段	-17322
山中	-17323
巴顿	-17324
毁于	-17325
皮划艇	-17326
县委书记	-17327
▁国	-17328
今年	-17329
取了	-17330
唐书	-17331
岁月	-17332
教廷	-17333
泄露	-17334
疑问	-17335
剧作家	-17336
其母	-17337
南接	-17338
比安	-17339
生还	-17340
行长	-17341
国王的	-17342
在第一	-17343
所有人	-17344
月推出	-17345
的能量	-17346
unes	-17347
不定	-17348
北邻	-17349
雨水	-17350
其后于	-17351
学术界	-17352
展开了	-17353
该专辑	-17354
其与	-17355
岛津	-17356
传说中	-17357
也有一些	-17358
又被称为	-17359
赫尔辛基	-17360
上去	-17361
伊凡	-17362
地底	-17363
自发	-17364
音符	-17365
月发行	-17366
联赛杯	-17367
军事人物	-17368
影评人协会	-17369
卢瓦尔河地区大区	-17370
多罗	-17371
拉图	-17372
香槟	-17373
use	-17374
月完成	-17375
杰克森	-17376
沈阳市	-17377
uber	-17378
周日	-17379
孩童	-17380
抗原	-17381
极力	-17382
纲领	-17383
都与	-17384
Viu	-17385
的生物	-17386
裔美国	-17387
所组成的	-17388
市镇范围内	-17389
第三甲第一百	-17390
光子	-17391
全资	-17392
唐人	-17393
胜地	-17394
车款	-17395
农作物	-17396
平均每	-17397
田径比赛	-17398
赛艇比赛	-17399
裔美国人有	-17400
小堂	-17401
手臂	-17402
武官	-17403
位置为	-17404
修建于	-17405
患者的	-17406
降格为	-17407
FT	-17408
▁黎	-17409
人以	-17410
藻类	-17411
日生于	-17412
局副局长	-17413
一八	-17414
区划	-17415
压倒	-17416
奶油	-17417
布隆	-17418
水坝	-17419
的低	-17420
行署	-17421
调往	-17422
鲨鱼	-17423
埼玉县	-17424
▁詹姆斯	-17425
▁Records	-17426
依林	-17427
引退	-17428
旋即	-17429
台东县	-17430
最接近	-17431
的欧洲	-17432
作为一种	-17433
口头	-17434
导引	-17435
心中	-17436
推导	-17437
胸部	-17438
麻醉	-17439
秘书处	-17440
▁任	-17441
供水	-17442
喜好	-17443
建设的	-17444
李登辉	-17445
滤波器	-17446
http	-17447
摩尔多瓦	-17448
城关	-17449
备忘	-17450
字型	-17451
侏罗纪	-17452
的动作	-17453
集中于	-17454
经济利用	-17455
东洋	-17456
之差	-17457
交出	-17458
北段	-17459
取向	-17460
木质	-17461
杨氏	-17462
贝多芬	-17463
Love	-17464
号州际公路	-17465
的法国	-17466
加时	-17467
千禧	-17468
天龙	-17469
实地	-17470
希姆	-17471
美浓	-17472
肯特	-17473
电子邮件	-17474
一件	-17475
教官	-17476
滚石	-17477
盈利	-17478
卵形	-17479
又因	-17480
被动	-17481
十二码	-17482
在使用	-17483
夏洛特	-17484
阿道夫	-17485
安的	-17486
抗体	-17487
散射	-17488
谨慎	-17489
第一款	-17490
调整为	-17491
ales	-17492
均可	-17493
抒情	-17494
江宁	-17495
町村	-17496
都灵	-17497
黄大仙	-17498
▁long	-17499
举报	-17500
光电	-17501
地级	-17502
宣宗	-17503
尼托	-17504
赛和	-17505
起因	-17506
ury	-17507
并不能	-17508
有一位	-17509
的应用	-17510
获得者	-17511
两面	-17512
到处	-17513
屿山	-17514
反坦克	-17515
选出的	-17516
enry	-17517
执行董事	-17518
刊载	-17519
可知	-17520
机电	-17521
男配角	-17522
年被国际	-17523
书信	-17524
入住	-17525
战地	-17526
施瓦	-17527
树的	-17528
马修	-17529
部门的	-17530
变革	-17531
点燃	-17532
绅士	-17533
▁韩国	-17534
在部分	-17535
日期为	-17536
-&	-17537
意即	-17538
正殿	-17539
▁li	-17540
冰球比赛	-17541
心理学家	-17542
中性	-17543
久保	-17544
以原	-17545
利奇	-17546
层级	-17547
开场	-17548
排位	-17549
漳州	-17550
病原	-17551
行事	-17552
词源	-17553
卢卡斯	-17554
物质的	-17555
GL	-17556
建物	-17557
猜想	-17558
结成	-17559
联络线	-17560
赴美国	-17561
主要负责	-17562
他任	-17563
类比	-17564
街上	-17565
距今	-17566
食材	-17567
京都府	-17568
转会至	-17569
ocket	-17570
中共中央政治局	-17571
宽约	-17572
戈里	-17573
排斥	-17574
明珠	-17575
皈依	-17576
阻力	-17577
配合物	-17578
目前为止	-17579
天文学联合会	-17580
从政	-17581
整车	-17582
湘潭	-17583
燕京	-17584
石窟	-17585
补习	-17586
限量	-17587
UCN	-17588
▁ST	-17589
易名为	-17590
由一个	-17591
地盘	-17592
极高	-17593
玛莉	-17594
粉岭	-17595
东北面	-17596
广域市	-17597
罗德里	-17598
▁Ltd	-17599
军事行动	-17600
阿拉斯加州	-17601
Fi	-17602
出没	-17603
发声	-17604
年老	-17605
悬崖	-17606
揭示	-17607
猩猩	-17608
言语	-17609
的思想	-17610
由于当时	-17611
分布于中国	-17612
高于海平面	-17613
▁当	-17614
同类	-17615
岐阜	-17616
显微镜	-17617
三军	-17618
孤独	-17619
纳多	-17620
了这一	-17621
闽南语	-17622
Star	-17623
四十四年	-17624
由巴伐利亚	-17625
小林	-17626
私家	-17627
阿利	-17628
更改为	-17629
荷兰语	-17630
▁佐	-17631
研究领域	-17632
冰球运动员	-17633
发病	-17634
民权	-17635
汇合	-17636
诺亚	-17637
龙泉	-17638
传染病	-17639
在车站	-17640
组织和	-17641
连接到	-17642
台湾清治	-17643
四十一年	-17644
年龄中位数为	-17645
低于法国平均水平	-17646
伯罗	-17647
兴化	-17648
延平	-17649
抄本	-17650
陪伴	-17651
农产品	-17652
孩子的	-17653
抑制剂	-17654
组建了	-17655
航空的	-17656
丑科会试	-17657
四川等地	-17658
资产阶级	-17659
顿涅茨克	-17660
导入	-17661
布袋	-17662
津巴布	-17663
第二十	-17664
终于在	-17665
被拆除	-17666
因为他们	-17667
休养	-17668
奏请	-17669
建武	-17670
颁授	-17671
▁科尔	-17672
巴尔干	-17673
的批评	-17674
布达佩斯	-17675
首张专辑	-17676
帕齐	-17677
联谊	-17678
阿诺	-17679
▁奥尔	-17680
卫生部	-17681
才得以	-17682
选区的	-17683
布宜诺斯艾利斯	-17684
将要	-17685
尘埃	-17686
李文	-17687
腐蚀	-17688
持有的	-17689
由台湾	-17690
故宫博物院	-17691
值得一提的是	-17692
▁辛	-17693
与圣	-17694
占比	-17695
存有	-17696
省立	-17697
砂岩	-17698
Ben	-17699
led	-17700
北莱茵	-17701
岁开始	-17702
的德国	-17703
人口统计	-17704
和意大利	-17705
义和	-17706
但尼	-17707
凤翔	-17708
已是	-17709
新歌	-17710
相扑	-17711
精品	-17712
第一种	-17713
非营利	-17714
五州二厅	-17715
上的位置是	-17716
贝尔福地区	-17717
击溃	-17718
广受	-17719
而未	-17720
的演员	-17721
专门学校	-17722
切尔尼戈夫	-17723
百大	-17724
请辞	-17725
努埃尔	-17726
名运动员	-17727
呼和浩特	-17728
津巴布韦	-17729
演出作品	-17730
职业学校	-17731
发展较早的	-17732
辖区总人口	-17733
史克	-17734
推力	-17735
氢化	-17736
匹兹堡	-17737
反革命	-17738
▁Per	-17739
▁切	-17740
▁庄	-17741
北港	-17742
年版	-17743
报仇	-17744
遵义	-17745
钱塘	-17746
他曾经	-17747
铁路和	-17748
gram	-17749
威克	-17750
排在	-17751
尼亚克	-17752
other	-17753
unction	-17754
发展较早的聚落	-17755
当选为第十三届全国人大代表	-17756
后就	-17757
与法国	-17758
古斯塔夫	-17759
Intel	-17760
▁我	-17761
排湾	-17762
改隶	-17763
泡沫	-17764
花卉	-17765
新世界	-17766
科威特	-17767
高中生	-17768
上也	-17769
克朗	-17770
毁坏	-17771
绘图	-17772
Wii	-17773
rev	-17774
▁Up	-17775
▁▁▁▁▁▁▁▁▁▁▁▁▁▁▁▁	-17776
▁竹	-17777
之首	-17778
应邀	-17779
斗士	-17780
罗拉	-17781
考官	-17782
营区	-17783
邮轮	-17784
ega	-17785
东海道	-17786
的早期	-17787
福布斯	-17788
地下车站	-17789
▁通	-17790
商用	-17791
在日	-17792
想象	-17793
界别	-17794
年代至	-17795
的支持者	-17796
自由主义	-17797
不为	-17798
小区	-17799
惊讶	-17800
焚烧	-17801
留校	-17802
结核	-17803
调味	-17804
为了纪念	-17805
Mo	-17806
yg	-17807
公学	-17808
其时	-17809
校训	-17810
将他们	-17811
洛特省	-17812
多米尼加	-17813
再以	-17814
口腔	-17815
商圈	-17816
对偶	-17817
援军	-17818
有约	-17819
自助	-17820
表情	-17821
里安	-17822
介乎	-17823
建校	-17824
不同意	-17825
年为止	-17826
比其他	-17827
的英文	-17828
常务理事	-17829
Script	-17830
▁Media	-17831
的官方地图上	-17832
中是	-17833
再由	-17834
分入	-17835
丹尼士	-17836
在这次	-17837
应为	-17838
王爷	-17839
球菌	-17840
莉莉	-17841
鱼属	-17842
合作社	-17843
的帮助下	-17844
TH	-17845
二至	-17846
前列	-17847
自强	-17848
陈国	-17849
共分为	-17850
有限的	-17851
的男子	-17852
阿摩尔	-17853
世界羽联	-17854
划出	-17855
汉城	-17856
默认	-17857
》),	-17858
》。《	-17859
之后他	-17860
▁del	-17861
国会选区	-17862
君子	-17863
四条	-17864
失控	-17865
常有	-17866
来宾	-17867
纳森	-17868
赏赐	-17869
一书中	-17870
在台北	-17871
备忘录	-17872
arch	-17873
受欢迎的	-17874
▁薛	-17875
伦巴	-17876
使人	-17877
时钟	-17878
狸藻	-17879
维茨	-17880
西卡	-17881
步兵团	-17882
葡萄糖	-17883
螺旋桨	-17884
在历史上	-17885
夺得冠军	-17886
的官方地图上已有记载	-17887
发到	-17888
后会	-17889
土星	-17890
宣帝	-17891
救国	-17892
犯人	-17893
的许多	-17894
第七届	-17895
运行于	-17896
顺天府乡试	-17897
深化	-17898
百度	-17899
自达	-17900
但这些	-17901
的标志	-17902
非物质	-17903
亲近	-17904
千克	-17905
太傅	-17906
月上	-17907
民选	-17908
日通过	-17909
PM	-17910
。〈	-17911
女单	-17912
存款	-17913
瑜伽	-17914
范例	-17915
鲁豫	-17916
比赛于	-17917
第一次会议	-17918
翰林院编修	-17919
合并为新市镇	-17920
丛书	-17921
黄浦	-17922
本节目	-17923
的建设	-17924
装载	-17925
年进行	-17926
感受到	-17927
缺失	-17928
调至	-17929
的学校	-17930
NG	-17931
格尼	-17932
考生	-17933
赛尔	-17934
及相关	-17935
早期生活	-17936
美国国会	-17937
年国际足协	-17938
线的单式月台	-17939
▁河	-17940
圆环	-17941
监护	-17942
路和	-17943
道士	-17944
人物的	-17945
各样的	-17946
太空人	-17947
年重新	-17948
边疆区	-17949
管弦乐团	-17950
所处的海拔为	-17951
单于	-17952
南安	-17953
承载	-17954
西甲	-17955
议事	-17956
战争结束后	-17957
所处的海拔为高于海平面	-17958
ja	-17959
三子	-17960
周遭	-17961
季的	-17962
▁广州	-17963
严格的	-17964
列出了	-17965
新华社	-17966
重大的	-17967
微分方程	-17968
Su	-17969
中古	-17970
柴湾	-17971
症的	-17972
空缺	-17973
觉罗	-17974
造价	-17975
重整	-17976
接壤的	-17977
民用航空	-17978
墓群	-17979
邮局	-17980
驸马	-17981
也随之	-17982
只需要	-17983
处女作	-17984
检察长	-17985
判处死刑	-17986
另外一个	-17987
之道	-17988
伊本	-17989
北投	-17990
固态	-17991
极少	-17992
测绘	-17993
糟糕	-17994
虚假	-17995
马祖	-17996
三年后	-17997
带领下	-17998
的物种	-17999
蕨属下的一个种	-18000
住民	-18001
同伴	-18002
天赋	-18003
纵火	-18004
考验	-18005
营长	-18006
赞誉	-18007
了很多	-18008
迁移至	-18009
为无	-18010
他有	-18011
厂长	-18012
租用	-18013
考核	-18014
斐迪南	-18015
串流	-18016
归附	-18017
死的	-18018
法务	-18019
证人	-18020
谣言	-18021
多边形	-18022
沃尔特	-18023
ball	-18024
双手	-18025
平阳	-18026
炸毁	-18027
等候	-18028
赐予	-18029
辖市	-18030
面粉	-18031
龙骨	-18032
ese	-18033
政府和	-18034
最初由	-18035
等其他	-18036
西安市	-18037
▁宁	-18038
之母	-18039
出名	-18040
燃气	-18041
的超	-18042
纳瓦	-18043
IUCN	-18044
Em	-18045
该州	-18046
人类学	-18047
所有权	-18048
政策的	-18049
汉诺威	-18050
美丽的	-18051
公共图书馆	-18052
牵引电动机	-18053
刹车	-18054
细亚	-18055
颠覆	-18056
来到了	-18057
是种	-18058
爱上	-18059
rey	-18060
DB	-18061
▁名	-18062
卡利	-18063
将棋	-18064
成因	-18065
祠堂	-18066
经文	-18067
任教于	-18068
的另一	-18069
糖尿病	-18070
善良	-18071
海防	-18072
走到	-18073
道中	-18074
书法家	-18075
公共运输	-18076
万元人民币	-18077
位于该国西部利沃夫州	-18078
wo	-18079
是全	-18080
海面	-18081
诗词	-18082
发展和	-18083
摧毁了	-18084
有效地	-18085
本地区发展较早的聚落	-18086
三立	-18087
即用	-18088
旧制	-18089
老街	-18090
这在	-18091
通判	-18092
雷德	-18093
运动家	-18094
为辐鳍鱼纲脂鲤目脂鲤亚目	-18095
丰县	-18096
兵变	-18097
吉田	-18098
常任	-18099
比喻	-18100
永平	-18101
男生	-18102
诺瓦	-18103
的性质	-18104
的意识	-18105
的时代	-18106
组组长	-18107
最伟大的	-18108
Instagram	-18109
座谈	-18110
民歌	-18111
陪审	-18112
但仍然	-18113
档案馆	-18114
ures	-18115
年国际足联	-18116
足球乙级联赛	-18117
▁傅	-18118
七日	-18119
与会	-18120
避开	-18121
同时还	-18122
与黄	-18123
任为	-18124
信众	-18125
分属	-18126
故名	-18127
朗日	-18128
沙丘	-18129
多功能	-18130
沙群岛	-18131
之说	-18132
在世	-18133
报春	-18134
阴性	-18135
NBC	-18136
环境下	-18137
之间设有	-18138
FR	-18139
为本	-18140
他不	-18141
并购	-18142
至第	-18143
成一个	-18144
覆盖了	-18145
匿名	-18146
经商	-18147
附着	-18148
所用的	-18149
但对	-18150
微型	-18151
施泰	-18152
活泼	-18153
浸信	-18154
而无	-18155
耳朵	-18156
阮文	-18157
军军长	-18158
东京大学	-18159
语言学家	-18160
重要作用	-18161
fr	-18162
领取	-18163
了一段	-18164
年全国	-18165
新南威尔士	-18166
合并二十厅为十二厅	-18167
大山	-18168
袭封	-18169
言之	-18170
蛋白酶	-18171
阿列日	-18172
为数	-18173
信念	-18174
堡的	-18175
持股	-18176
水电	-18177
艰难	-18178
也不能	-18179
rown	-18180
▁Inter	-18181
中共中央总书记	-18182
于第	-18183
古今	-18184
士林	-18185
多克	-18186
拉尼	-18187
流水	-18188
《-{	-18189
乃木坂	-18190
公园内	-18191
两间	-18192
华为	-18193
散馆	-18194
mol	-18195
展厅	-18196
报废	-18197
红雀	-18198
召集人	-18199
嫁给了	-18200
的项目	-18201
福冈县	-18202
文化大革命期间	-18203
ui	-18204
北斗	-18205
哈维	-18206
学期	-18207
巴蒂	-18208
开府	-18209
往南	-18210
恐慌	-18211
推论	-18212
金银	-18213
的形成	-18214
cess	-18215
法国巴黎	-18216
▁别	-18217
右边	-18218
均已	-18219
大调	-18220
幕僚	-18221
弗尔	-18222
撰文	-18223
asc	-18224
▁Rh	-18225
布政司	-18226
甚至在	-18227
的形状	-18228
西北面	-18229
的所在地	-18230
内设	-18231
后将	-18232
迈尔	-18233
阿瑟	-18234
甲状腺	-18235
第二张	-18236
是秘鲁的一个区	-18237
上盖	-18238
内在	-18239
参事	-18240
得的	-18241
救灾	-18242
ova	-18243
动画片	-18244
阿方索	-18245
aker	-18246
影视作品	-18247
兴国	-18248
决斗	-18249
所为	-18250
拼写	-18251
相处	-18252
缆车	-18253
色素	-18254
突出的	-18255
肇庆	-18256
静止	-18257
与国际	-18258
第三位	-18259
该网站	-18260
麦迪逊	-18261
密歇根州	-18262
改设五州二厅	-18263
丢失	-18264
功勋	-18265
大安	-18266
急救	-18267
英法	-18268
▁亚洲	-18269
围绕着	-18270
文学家	-18271
的食物	-18272
西南端	-18273
在场上的位置是	-18274
万岁	-18275
书局	-18276
前端	-18277
的公	-18278
该馆	-18279
赫鲁	-18280
鸡蛋	-18281
马里兰州	-18282
▁瑞	-18283
一二	-18284
中大	-18285
折射	-18286
特聘	-18287
误解	-18288
以防止	-18289
蒋经国	-18290
废十二厅	-18291
清朝官员	-18292
左边	-18293
更早	-18294
本岛	-18295
水塘	-18296
年德国	-18297
并且是	-18298
并因此	-18299
此时的	-18300
下萨克森	-18301
▁列	-18302
军务	-18303
好处	-18304
帕洛	-18305
手工	-18306
船队	-18307
Mat	-18308
则称为	-18309
进出口	-18310
部主任	-18311
一文	-18312
锡金	-18313
公里和	-18314
看到了	-18315
设立于	-18316
我们可以	-18317
外务	-18318
性感	-18319
新月	-18320
见解	-18321
中没有	-18322
对方的	-18323
提升至	-18324
废十二厅改设五州二厅	-18325
旁白	-18326
而定	-18327
艾德	-18328
不久之后	-18329
▁Serv	-18330
Na	-18331
光华	-18332
党政	-18333
六人	-18334
利比	-18335
急剧	-18336
次序	-18337
狄克	-18338
花生	-18339
苏区	-18340
阅兵	-18341
使用于	-18342
暂无	-18343
lag	-18344
他们将	-18345
安第斯	-18346
市议员	-18347
并继续	-18348
▁让	-18349
减低	-18350
奇的	-18351
罹难	-18352
该曲	-18353
只能在	-18354
河右岸	-18355
芭蕾舞	-18356
银河系	-18357
▁III	-18358
人民医院	-18359
obile	-18360
批复同意撤销	-18361
Ha	-18362
中举	-18363
冰球	-18364
多德	-18365
废墟	-18366
跨线	-18367
开始的	-18368
结识了	-18369
马鞍山	-18370
ruct	-18371
士气	-18372
德岛	-18373
时就	-18374
试播	-18375
移交给	-18376
artin	-18377
CG	-18378
尼卡	-18379
州为	-18380
机理	-18381
泄漏	-18382
轮渡	-18383
门槛	-18384
高阶	-18385
拍摄了	-18386
有一次	-18387
特别市	-18388
刑部主事	-18389
警察部队	-18390
一作	-18391
上都	-18392
仁爱	-18393
到期	-18394
和二	-18395
独奏	-18396
陕北	-18397
相结合	-18398
统一的	-18399
车次为	-18400
道监察御史	-18401
金像奖最佳	-18402
双子	-18403
四肢	-18404
拿着	-18405
王世	-18406
肝脏	-18407
在位期间	-18408
剧烈	-18409
平滑	-18410
精密	-18411
霍恩	-18412
阿摩尔滨海	-18413
亚运	-18414
则将	-18415
天内	-18416
州县	-18417
平常	-18418
沉淀	-18419
司郎中	-18420
年下半	-18421
丑科进士	-18422
农村居民	-18423
弗吉尼亚州	-18424
ye	-18425
卫国	-18426
戈登	-18427
神论	-18428
虹桥	-18429
骨灰	-18430
鲜花	-18431
▁Count	-18432
人民广播电台	-18433
上野	-18434
交接	-18435
大溪	-18436
小龙	-18437
沟村	-18438
甲酸	-18439
通俗	-18440
臀鳍软条	-18441
山东省文物保护单位	-18442
体色	-18443
四百	-18444
李世	-18445
直选	-18446
祝圣	-18447
起伏	-18448
食邑	-18449
水电站	-18450
的胜利	-18451
同性婚姻	-18452
城市规划	-18453
东势	-18454
储蓄	-18455
另类	-18456
完备	-18457
格兰特	-18458
的宗教	-18459
电视公司	-18460
之日	-18461
乔丹	-18462
仅能	-18463
拆毁	-18464
une	-18465
人民公社	-18466
足球代表队	-18467
击毙	-18468
卯科	-18469
塞勒	-18470
牟尼	-18471
Big	-18472
与经济	-18473
神经元	-18474
陆军第	-18475
政府官员	-18476
值得注意的是	-18477
低的	-18478
刘邦	-18479
字元	-18480
灯笼	-18481
舍尔	-18482
青藏	-18483
国务卿	-18484
普通的	-18485
一个新的	-18486
偶像团体	-18487
三期	-18488
招商	-18489
偶像剧	-18490
就是在	-18491
洛维奇	-18492
▁Sci	-18493
古典主义	-18494
知识产权	-18495
▁Hall	-18496
借口	-18497
六日	-18498
所用	-18499
海运	-18500
阪神	-18501
二世的	-18502
艾滋病	-18503
足球场	-18504
退休后	-18505
乌兹别克	-18506
人民解放军	-18507
卢瓦尔省的一个市镇	-18508
之手	-18509
复线	-18510
机长	-18511
江镇	-18512
调和	-18513
▁台风	-18514
台中县	-18515
是指在	-18516
较低的	-18517
▁拟	-18518
不来	-18519
情侣	-18520
key	-18521
有些人	-18522
黑色的	-18523
一卷	-18524
先祖	-18525
利夫	-18526
古籍	-18527
同居	-18528
执业	-18529
町的	-18530
聊天	-18531
之战中	-18532
第二部	-18533
自由式	-18534
巴士服务	-18535
底栖性鱼类	-18536
俘获	-18537
立案	-18538
▁Bo	-18539
名乘客	-18540
大会堂	-18541
迄今为止	-18542
中说	-18543
吸烟	-18544
大拿	-18545
恰好	-18546
时称	-18547
并取得	-18548
并成功	-18549
研究和	-18550
其弟	-18551
海淀	-18552
里卡	-18553
也受到	-18554
生成的	-18555
中共党员	-18556
反应得到	-18557
EV	-18558
国君	-18559
开火	-18560
改元	-18561
的半	-18562
;}-,	-18563
保险公司	-18564
乌兹别克斯坦	-18565
境内共有各类	-18566
不和	-18567
原称	-18568
吉布	-18569
微波	-18570
泉水	-18571
部首	-18572
与妻子	-18573
热力学	-18574
伊斯兰国	-18575
官方宣布	-18576
NC	-18577
后缀	-18578
声望	-18579
绿党	-18580
调入	-18581
另外还有	-18582
开普	-18583
磨损	-18584
胎儿	-18585
重制	-18586
莫尔比昂	-18587
oseph	-18588
该村始建于	-18589
澳门特别行政区	-18590
李鸿	-18591
浮游	-18592
罗萨	-18593
胚胎	-18594
采矿	-18595
马季	-18596
它位于	-18597
确定了	-18598
统治的	-18599
五次	-18600
佳绩	-18601
泛滥	-18602
流形	-18603
目前在	-18604
升入	-18605
大阪市	-18606
理论的	-18607
随后被	-18608
▁Mark	-18609
一无	-18610
九世	-18611
卫门	-18612
唯有	-18613
扶梯	-18614
站与	-18615
而去	-18616
犹他州	-18617
的职务	-18618
形态特征	-18619
主要分布在	-18620
县级文物保护单位	-18621
起到	-18622
金城	-18623
构成了	-18624
▁Act	-18625
▁Val	-18626
艾哈迈德	-18627
冯玉	-18628
她以	-18629
屏蔽	-18630
无敌	-18631
筹款	-18632
阅览	-18633
USB	-18634
万余人	-18635
交通枢纽	-18636
全体会议	-18637
研究机构	-18638
北东	-18639
后经	-18640
安条	-18641
帕夏	-18642
曲面	-18643
永兴	-18644
洛伦	-18645
赛前	-18646
但当时	-18647
属于阿	-18648
萨摩亚	-18649
▁comp	-18650
".	-18651
之门	-18652
互助	-18653
勾结	-18654
平板	-18655
恋人	-18656
装上	-18657
诸葛亮	-18658
▁Pol	-18659
丰原	-18660
交谈	-18661
冷冻	-18662
凭着	-18663
水雷	-18664
派台	-18665
首座	-18666
可行性	-18667
的压力	-18668
象征着	-18669
本届赛事于	-18670
中村	-18671
好像	-18672
恐吓	-18673
果然	-18674
死因	-18675
波及	-18676
界限	-18677
豆腐	-18678
远洋	-18679
通货	-18680
酉科	-18681
齐齐	-18682
ird	-18683
异构体	-18684
香港人	-18685
该省份为法国北部沿海省份	-18686
会士	-18687
北市	-18688
圆顶	-18689
大胆	-18690
将它	-18691
形科	-18692
正交	-18693
阿卜杜勒	-18694
首次代表	-18695
生病	-18696
考中	-18697
问世	-18698
震动	-18699
人之一	-18700
系毕业	-18701
经常在	-18702
县的县治	-18703
可能导致	-18704
毛里求斯	-18705
ather	-18706
olution	-18707
为非	-18708
子上	-18709
患病	-18710
解约	-18711
等多个	-18712
营业额	-18713
建成通车	-18714
非物质文化遗产	-18715
埔里	-18716
女排	-18717
白话	-18718
破碎	-18719
该县	-18720
WTA	-18721
是国际	-18722
河左岸	-18723
法租界	-18724
西班牙的	-18725
帕劳	-18726
死伤	-18727
穿上	-18728
近郊	-18729
两者的	-18730
会计师	-18731
组织了	-18732
政治生涯	-18733
典范	-18734
寓意	-18735
异议	-18736
诗经	-18737
语句	-18738
贝特	-18739
常用于	-18740
年前的	-18741
物体的	-18742
武装力量	-18743
▁葛	-18744
七大	-18745
不时	-18746
太湖	-18747
派别	-18748
门店	-18749
DOS	-18750
无人机	-18751
皮尔斯	-18752
严重破坏	-18753
创作歌手	-18754
第一次世界大战期间	-18755
以供	-18756
王建	-18757
芙蓉	-18758
黄帝	-18759
lam	-18760
今河南	-18761
年通过	-18762
世纪后期	-18763
有人认为	-18764
仲裁	-18765
净土	-18766
多明	-18767
极地	-18768
点球	-18769
诗作	-18770
饮用	-18771
aya	-18772
esc	-18773
属于圣	-18774
韦斯特	-18775
礼部尚书	-18776
子里	-18777
涩谷	-18778
维纳	-18779
西湾	-18780
▁von	-18781
卢斯	-18782
声名	-18783
扶手	-18784
梅里	-18785
热量	-18786
赵国	-18787
达的	-18788
骆驼	-18789
骑马	-18790
剩余的	-18791
受影响	-18792
做成	-18793
日夜	-18794
角川	-18795
论点	-18796
这批	-18797
为自己	-18798
召开的	-18799
客家人	-18800
这样做	-18801
游泳比赛	-18802
SF	-18803
临沂	-18804
斯勒	-18805
甚少	-18806
载客	-18807
itz	-18808
施密特	-18809
海水鱼	-18810
组织部	-18811
高架桥	-18812
沿海地区	-18813
合力	-18814
溴化	-18815
首家	-18816
个堂区	-18817
在日治	-18818
的威胁	-18819
等地区	-18820
舰队的	-18821
▁Can	-18822
朝鲜劳动党	-18823
不已	-18824
人性	-18825
文宗	-18826
筹办	-18827
立法局	-18828
亿美元的	-18829
副都御史	-18830
未科进士	-18831
],	-18832
军机	-18833
奔驰	-18834
比率	-18835
AMD	-18836
ICE	-18837
并宣布	-18838
驻扎在	-18839
航天飞机	-18840
George	-18841
▁可	-18842
下跌	-18843
是阿	-18844
的他	-18845
线及	-18846
der	-18847
制度的	-18848
密苏里州	-18849
哈尔科夫州	-18850
三元	-18851
且在	-18852
月以	-18853
莱曼	-18854
出版商	-18855
号决议	-18856
质量的	-18857
领导下	-18858
▁劳	-18859
乳房	-18860
文华	-18861
本集	-18862
自旋	-18863
诏书	-18864
后进入	-18865
是第一个	-18866
联合政府	-18867
偏好	-18868
猪肉	-18869
科洛	-18870
故事的	-18871
ouis	-18872
日托米尔州	-18873
刘易	-18874
北角	-18875
引述	-18876
舰上	-18877
转写	-18878
高卢	-18879
黑海	-18880
MVP	-18881
作为其	-18882
木结构	-18883
空间站	-18884
可追溯到	-18885
背鳍软条	-18886
Peter	-18887
一夜	-18888
万册	-18889
为南	-18890
北接	-18891
夸克	-18892
想起	-18893
手语	-18894
班级	-18895
英勇	-18896
ifol	-18897
电视台的	-18898
一贯	-18899
创设	-18900
越来越多	-18901
二字	-18902
但与	-18903
Mel	-18904
ize	-18905
市政局	-18906
wood	-18907
克勒兹省	-18908
▁House	-18909
中郎	-18910
乘搭	-18911
养成	-18912
冻结	-18913
吞吐	-18914
宝山	-18915
很久	-18916
断交	-18917
极管	-18918
票的	-18919
重现	-18920
利用状况	-18921
出版社出版	-18922
无脊椎动物	-18923
▁Girls	-18924
Ga	-18925
▁这	-18926
景色	-18927
海豹	-18928
草丛	-18929
log	-18930
win	-18931
通常由	-18932
美国地质调查局	-18933
下部	-18934
且仅	-18935
双溪	-18936
家居	-18937
杀伤	-18938
瘟疫	-18939
搬到了	-18940
球队以	-18941
运行的	-18942
面积达	-18943
中国电影	-18944
普通列车	-18945
CM	-18946
▁雪	-18947
万份	-18948
上古	-18949
仅剩	-18950
文森	-18951
活着	-18952
设站	-18953
GNU	-18954
于民国	-18955
将自己	-18956
站之间	-18957
年夏季奥林匹克运动会赛艇比赛	-18958
员林	-18959
多瑙	-18960
忠义	-18961
日随	-18962
次要	-18963
诗文	-18964
▁Ma	-18965
左侍郎	-18966
是一类	-18967
网球场	-18968
可以直接	-18969
福尔摩斯	-18970
这首歌曲	-18971
余姚	-18972
实为	-18973
环食	-18974
郡公	-18975
rip	-18976
一世的	-18977
的外观	-18978
的高度	-18979
浙江乡试	-18980
▁班	-18981
女婿	-18982
李家	-18983
龙王	-18984
蒂罗尔	-18985
刑罚	-18986
华山	-18987
和管理	-18988
开普勒	-18989
设备的	-18990
网球运动员	-18991
亚述	-18992
优美	-18993
六名	-18994
反恐	-18995
大麻	-18996
接获	-18997
纷争	-18998
Ind	-18999
工人党	-19000
新人奖	-19001
CCTV	-19002
三十三年	-19003
发现自己	-19004
入伙	-19005
有罪	-19006
梅州	-19007
石的	-19008
科院	-19009
麾下	-19010
马里亚	-19011
单身	-19012
嗣德	-19013
在拉	-19014
移到	-19015
补贴	-19016
连络	-19017
济南市	-19018
喜剧电影	-19019
为她	-19020
应变	-19021
慈禧	-19022
譬如	-19023
。”,	-19024
同时期	-19025
麦当劳	-19026
ague	-19027
很大程度上	-19028
▁半	-19029
协作	-19030
异名	-19031
朝向	-19032
朝政	-19033
李宗	-19034
用到	-19035
羰基	-19036
花式	-19037
的评论	-19038
ourn	-19039
主要角色	-19040
西日本旅客铁道	-19041
厂的	-19042
因果	-19043
寄宿	-19044
患上	-19045
树脂	-19046
世纪中期	-19047
南北走向	-19048
政府组织	-19049
中国人民解放军总	-19050
整备	-19051
核能	-19052
Max	-19053
ied	-19054
安理会	-19055
罕见的	-19056
帕特里克	-19057
WS	-19058
归纳	-19059
柯本	-19060
共获得	-19061
已退役	-19062
仪同三司	-19063
最终注入	-19064
此片	-19065
那亚	-19066
内华达	-19067
协约国	-19068
日清晨	-19069
的组合	-19070
纪念日	-19071
占辖区总人口	-19072
伊德	-19073
会让	-19074
新式	-19075
面貌	-19076
黄蜂	-19077
为国家	-19078
创立的	-19079
达尔文	-19080
和加拿大	-19081
西班牙人	-19082
▁朗	-19083
凝聚	-19084
很长	-19085
订立	-19086
量化	-19087
魔王	-19088
lad	-19089
格奥尔	-19090
购买了	-19091
铁路经过	-19092
乘法	-19093
天生	-19094
蓬莱	-19095
的地震	-19096
前往美国	-19097
opter	-19098
之命	-19099
卑南	-19100
和原	-19101
喷气	-19102
增添	-19103
它还	-19104
胡椒	-19105
草属	-19106
龙华	-19107
当事人	-19108
收入为	-19109
的选择	-19110
米尔顿	-19111
交通事故	-19112
国际贸易	-19113
年的时间	-19114
PV	-19115
▁常	-19116
三度	-19117
兴安	-19118
场均	-19119
宗祠	-19120
将与	-19121
弥撒	-19122
有害	-19123
磁盘	-19124
简体	-19125
表态	-19126
亦设有	-19127
王司马	-19128
▁War	-19129
写入	-19130
而下	-19131
而对	-19132
废县厅	-19133
播放的	-19134
剧目	-19135
卒年	-19136
氏为	-19137
海德	-19138
计数	-19139
cus	-19140
州政府	-19141
正方形	-19142
这些人	-19143
改设二十厅	-19144
去年	-19145
外壳	-19146
的卡	-19147
美利	-19148
uth	-19149
原计划	-19150
阿拉贡	-19151
达赖喇嘛	-19152
中风	-19153
免职	-19154
抗生素	-19155
研究中	-19156
发展成为	-19157
表示自己	-19158
部分区域	-19159
围剿	-19160
平静	-19161
水灾	-19162
南至上	-19163
一个罗马天主教	-19164
废县厅改设二十厅	-19165
”:	-19166
中岛	-19167
也叫	-19168
休憩	-19169
利率	-19170
动议	-19171
城外	-19172
尔曼	-19173
来历	-19174
阿雷	-19175
乌帕齐	-19176
ternet	-19177
中国中央电视台	-19178
▁京	-19179
两广	-19180
击破	-19181
所使用	-19182
铁路运输	-19183
的一个城市	-19184
侨民	-19185
后宫	-19186
哈比	-19187
大人	-19188
巴托	-19189
无奈	-19190
显现	-19191
省略	-19192
精致	-19193
踏入	-19194
前总统	-19195
开始后	-19196
本赛季	-19197
第一大	-19198
lish	-19199
此站设有	-19200
选举委员会	-19201
一国	-19202
冲积	-19203
别称	-19204
孝宗	-19205
极具	-19206
编导	-19207
Luc	-19208
溶液中	-19209
▁Star	-19210
台山	-19211
塑像	-19212
白山	-19213
盗贼	-19214
筹集	-19215
而以	-19216
长尾	-19217
中书省	-19218
年启用	-19219
的人生	-19220
车路士	-19221
星期一至五	-19222
▁成	-19223
政局	-19224
永昌	-19225
紫荆	-19226
办公楼	-19227
自然资源	-19228
贝尔格莱德	-19229
夏季奥林匹克运动会	-19230
一类	-19231
又于	-19232
西宁	-19233
金森	-19234
太平洋岛	-19235
戏剧学院	-19236
世博	-19237
台上	-19238
水分	-19239
皆以	-19240
则是由	-19241
提到了	-19242
Black	-19243
UM	-19244
《"	-19245
产值	-19246
光芒	-19247
噶玛	-19248
特效	-19249
堪萨斯	-19250
建立后	-19251
疾病的	-19252
该庄改制为	-19253
受过	-19254
尼达	-19255
或译	-19256
推崇	-19257
荷属	-19258
觉醒	-19259
埃米尔	-19260
真实的	-19261
之争	-19262
教职	-19263
歌仔	-19264
编撰	-19265
节的	-19266
苏珊	-19267
Val	-19268
争议的	-19269
尼尔森	-19270
文尼察	-19271
周边地区	-19272
▁谭	-19273
开车	-19274
有子	-19275
比数	-19276
拉斯维	-19277
▁是一个	-19278
是位于台湾	-19279
▁熊	-19280
副将	-19281
阿都	-19282
和其它	-19283
法拉利	-19284
赛事的	-19285
爬行动物	-19286
县志	-19287
师大	-19288
衡阳	-19289
须贺	-19290
一定要	-19291
今河北	-19292
巴格达	-19293
被派往	-19294
西里尔	-19295
匾额	-19296
年改	-19297
整流	-19298
能否	-19299
HBO	-19300
odon	-19301
大部分地区	-19302
年冬季奥林匹克运动会冰球比赛	-19303
单向	-19304
API	-19305
ets	-19306
了一位	-19307
病逝于	-19308
前波美拉	-19309
DM	-19310
SI	-19311
在全	-19312
天竺	-19313
子宫	-19314
是四	-19315
永禄	-19316
走红	-19317
他自己	-19318
机动战士	-19319
▁尖	-19320
等多	-19321
虔诚	-19322
冯玉祥	-19323
出一个	-19324
洛泽尔省	-19325
弗朗西斯科	-19326
是德国巴伐利亚州的一个市镇	-19327
前卫	-19328
填充	-19329
年长	-19330
碱性	-19331
自尽	-19332
发生过	-19333
海南岛	-19334
行为的	-19335
ocal	-19336
经济技术	-19337
宣战	-19338
巨额	-19339
成效	-19340
投稿	-19341
株洲	-19342
解码	-19343
通州	-19344
限定盘	-19345
以求	-19346
保养	-19347
印欧	-19348
台词	-19349
和金	-19350
大雨	-19351
掌权	-19352
祭拜	-19353
迷宫	-19354
地理学	-19355
影响到	-19356
晶体管	-19357
无机化合物	-19358
台湾清治末期	-19359
与马	-19360
共生	-19361
彩绘	-19362
末代	-19363
竞速	-19364
美籍	-19365
中首次	-19366
仅有的	-19367
东西走向	-19368
乌帕齐拉	-19369
新泽西州	-19370
皇家马德里	-19371
ks	-19372
卢甘	-19373
和后	-19374
塞琉	-19375
才华	-19376
林家	-19377
染料	-19378
版图	-19379
紧凑	-19380
纽斯	-19381
舰载	-19382
专业毕业	-19383
中国文化	-19384
下目	-19385
恒春	-19386
油田	-19387
训导	-19388
很多人	-19389
立方体	-19390
级别的	-19391
越南共和国	-19392
三门	-19393
二元	-19394
永嘉	-19395
湖镇	-19396
跑马	-19397
为避免	-19398
兵工厂	-19399
同时亦	-19400
游骑兵	-19401
▁Che	-19402
塞内加尔	-19403
的支持下	-19404
yt	-19405
柯南	-19406
的纳	-19407
石川	-19408
等式	-19409
而上	-19410
▁由于	-19411
以及其	-19412
至今日	-19413
都必须	-19414
释迦牟尼	-19415
两类	-19416
夏侯	-19417
荒废	-19418
警队	-19419
星期一	-19420
经济活动	-19421
和一枚铜牌	-19422
会同	-19423
加藤	-19424
发觉	-19425
国宝	-19426
垒手	-19427
投球	-19428
焊接	-19429
被淘汰	-19430
一期工程	-19431
Ki	-19432
写字	-19433
可将	-19434
大乘	-19435
年青	-19436
抚顺	-19437
播报	-19438
河间	-19439
深处	-19440
秀才	-19441
DO	-19442
丙戌	-19443
归来	-19444
打压	-19445
整治	-19446
海中	-19447
神灵	-19448
调解	-19449
();	-19450
的经验	-19451
表面上	-19452
该省份为法国西部	-19453
不计	-19454
汇集	-19455
装填	-19456
鼎盛	-19457
CEO	-19458
大学校	-19459
最后于	-19460
board	-19461
卡罗莱纳州	-19462
钢筋混凝土	-19463
是奥地利的山峰	-19464
CF	-19465
先是	-19466
又与	-19467
双线	-19468
废黜	-19469
松本	-19470
练马	-19471
鳄鱼	-19472
使他们	-19473
场上位置是	-19474
克特	-19475
南段	-19476
总和	-19477
林的	-19478
藏在	-19479
▁然而	-19480
政府于	-19481
波特兰	-19482
版本中	-19483
第五名	-19484
结合了	-19485
被逮捕	-19486
采用的	-19487
▁Sec	-19488
伊斯坦布尔	-19489
侧式	-19490
创校	-19491
古道	-19492
英亩	-19493
克莱尔	-19494
年推出的	-19495
Mr	-19496
侵害	-19497
奥拉	-19498
本体	-19499
试飞	-19500
谷物	-19501
总干事	-19502
是苏联	-19503
最重要	-19504
背景下	-19505
ship	-19506
中部省份	-19507
国际挑战赛	-19508
Charles	-19509
女巫	-19510
ori	-19511
行动党	-19512
参加光绪	-19513
五种	-19514
切除	-19515
和声	-19516
主要包括	-19517
ional	-19518
中华人民共和国国务院	-19519
下落	-19520
不治	-19521
任上	-19522
佩勒	-19523
王宫	-19524
的木	-19525
站及	-19526
纳姆	-19527
芒果	-19528
调动	-19529
民国时期	-19530
不高	-19531
将她	-19532
投掷	-19533
棋子	-19534
江口	-19535
牵涉	-19536
的张	-19537
贵人	-19538
附件	-19539
个车站	-19540
谢尔盖	-19541
但此	-19542
兑换	-19543
圣地	-19544
崇德	-19545
板上	-19546
终到	-19547
所著的	-19548
教育厅	-19549
蔡依林	-19550
日本职棒	-19551
皇家海军	-19552
座的一个星系	-19553
儒学	-19554
刘家	-19555
哪里	-19556
鲁克	-19557
par	-19558
独立于	-19559
为全	-19560
枪杀	-19561
校名	-19562
种名	-19563
▁同	-19564
五项	-19565
即在	-19566
禁忌	-19567
而得	-19568
陀罗	-19569
双方的	-19570
沃克吕	-19571
波尔多	-19572
级单位	-19573
运输机	-19574
史克威尔	-19575
是位于中国	-19576
与中	-19577
奖杯	-19578
罗森	-19579
讨厌	-19580
采样	-19581
联赛的	-19582
为主题的	-19583
苏共	-19584
雇用	-19585
cis	-19586
}-。	-19587
但并未	-19588
托利亚	-19589
Richard	-19590
佛法	-19591
相声	-19592
谷歌	-19593
顶峰	-19594
飞马	-19595
代言人	-19596
定居点	-19597
据报道	-19598
的女孩	-19599
Show	-19600
。’	-19601
前两	-19602
池塘	-19603
波旁	-19604
白河	-19605
胸鳍	-19606
展览馆	-19607
生理学	-19608
葛拉汉	-19609
可以透过	-19610
哈尔滨市	-19611
车站建于	-19612
山门	-19613
穿梭	-19614
的主张	-19615
列车服务	-19616
由东	-19617
诺沃	-19618
路边	-19619
鲁国	-19620
鲜明	-19621
▁sc	-19622
了一条	-19623
分类学	-19624
变速箱	-19625
直隶州	-19626
相对应	-19627
而其他	-19628
蒙大拿	-19629
▁you	-19630
攀登	-19631
西乡	-19632
造访	-19633
战争后	-19634
旺代省	-19635
地球物理	-19636
诺夫哥罗德	-19637
▁外	-19638
安托	-19639
意愿	-19640
湖水	-19641
石桥	-19642
菌目	-19643
企业的	-19644
在南京	-19645
是荷兰	-19646
庄改制为	-19647
▁Christ	-19648
且有	-19649
原市	-19650
离岛	-19651
陈家	-19652
由法国	-19653
ival	-19654
▁not	-19655
大多数的	-19656
艺术大学	-19657
出海	-19658
又将	-19659
宝座	-19660
新编	-19661
本影	-19662
高射	-19663
本站为	-19664
权力的	-19665
气候变化	-19666
个街道办事处	-19667
wa	-19668
卖出	-19669
审批	-19670
舰炮	-19671
机械化	-19672
的编辑	-19673
成为当时	-19674
自由贸易	-19675
均未	-19676
阿兰	-19677
▁以及	-19678
可靠性	-19679
和技术	-19680
近距离	-19681
在俄罗斯	-19682
认为这是	-19683
▁Team	-19684
古生物学家	-19685
▁若	-19686
不下	-19687
不成	-19688
专页	-19689
樱桃	-19690
照射	-19691
花瓣	-19692
计有	-19693
记为	-19694
该省	-19695
这套	-19696
")、	-19697
SNH	-19698
之间有	-19699
奥斯汀	-19700
早年在	-19701
科特迪瓦	-19702
保管	-19703
在港	-19704
明军	-19705
水牛	-19706
祈求	-19707
红海	-19708
哈里发	-19709
ring	-19710
莫桑比克	-19711
lu	-19712
的北	-19713
》)。	-19714
一般是	-19715
附近有	-19716
神话中的	-19717
世界卫生组织	-19718
po	-19719
在同	-19720
款项	-19721
每人	-19722
皮特	-19723
城隍庙	-19724
目前为	-19725
atic	-19726
伊夫林省	-19727
开始出现	-19728
ative	-19729
field	-19730
该省份为法国中部省份	-19731
军第	-19732
死前	-19733
的法	-19734
该种	-19735
个赛季	-19736
外交政策	-19737
总部设在	-19738
▁岩	-19739
不死	-19740
几十	-19741
所部	-19742
格洛	-19743
甘蔗	-19744
自来	-19745
lab	-19746
的长度	-19747
解决了	-19748
他的母亲	-19749
任何一个	-19750
在接下来的	-19751
假定	-19752
开战	-19753
横扫	-19754
美元的	-19755
西九龙	-19756
ouch	-19757
博洛	-19758
成祖	-19759
普兰	-19760
短途	-19761
较差	-19762
埃松省	-19763
日抵达	-19764
Live	-19765
克拉荷马	-19766
七星	-19767
与刘	-19768
娶了	-19769
开罗	-19770
引来	-19771
榜第	-19772
永定	-19773
电玩	-19774
脱落	-19775
运量	-19776
追究	-19777
之后被	-19778
[...]
